{
  "version": "1.0",
  "truncation": null,
  "padding": null,
  "added_tokens": [
    {
      "id": 0,
      "content": "<PAD>",
      "single_word": false,
      "lstrip": false,
      "rstrip": false,
      "normalized": false,
      "special": true
    },
    {
      "id": 1,
      "content": "<SOS>",
      "single_word": false,
      "lstrip": false,
      "rstrip": false,
      "normalized": false,
      "special": true
    },
    {
      "id": 2,
      "content": "<EOS>",
      "single_word": false,
      "lstrip": false,
      "rstrip": false,
      "normalized": false,
      "special": true
    },
    {
      "id": 3,
      "content": "<UNK>",
      "single_word": false,
      "lstrip": false,
      "rstrip": false,
      "normalized": false,
      "special": true
    },
    {
      "id": 4,
      "content": "<ug>",
      "single_word": false,
      "lstrip": false,
      "rstrip": false,
      "normalized": false,
      "special": true
    },
    {
      "id": 5,
      "content": "</ug>",
      "single_word": false,
      "lstrip": false,
      "rstrip": false,
      "normalized": false,
      "special": true
    },
    {
      "id": 6,
      "content": "<en>",
      "single_word": false,
      "lstrip": false,
      "rstrip": false,
      "normalized": false,
      "special": true
    },
    {
      "id": 7,
      "content": "</en>",
      "single_word": false,
      "lstrip": false,
      "rstrip": false,
      "normalized": false,
      "special": true
    },
    {
      "id": 8,
      "content": "<jp>",
      "single_word": false,
      "lstrip": false,
      "rstrip": false,
      "normalized": false,
      "special": true
    },
    {
      "id": 9,
      "content": "</jp>",
      "single_word": false,
      "lstrip": false,
      "rstrip": false,
      "normalized": false,
      "special": true
    },
    {
      "id": 10,
      "content": "<zh>",
      "single_word": false,
      "lstrip": false,
      "rstrip": false,
      "normalized": false,
      "special": true
    },
    {
      "id": 11,
      "content": "</zh>",
      "single_word": false,
      "lstrip": false,
      "rstrip": false,
      "normalized": false,
      "special": true
    },
    {
      "id": 12,
      "content": "<uz>",
      "single_word": false,
      "lstrip": false,
      "rstrip": false,
      "normalized": false,
      "special": true
    },
    {
      "id": 13,
      "content": "</uz>",
      "single_word": false,
      "lstrip": false,
      "rstrip": false,
      "normalized": false,
      "special": true
    },
    {
      "id": 14,
      "content": "<kk>",
      "single_word": false,
      "lstrip": false,
      "rstrip": false,
      "normalized": false,
      "special": true
    },
    {
      "id": 15,
      "content": "</kk>",
      "single_word": false,
      "lstrip": false,
      "rstrip": false,
      "normalized": false,
      "special": true
    },
    {
      "id": 16,
      "content": "<ky>",
      "single_word": false,
      "lstrip": false,
      "rstrip": false,
      "normalized": false,
      "special": true
    },
    {
      "id": 17,
      "content": "</ky>",
      "single_word": false,
      "lstrip": false,
      "rstrip": false,
      "normalized": false,
      "special": true
    },
    {
      "id": 18,
      "content": "<tr>",
      "single_word": false,
      "lstrip": false,
      "rstrip": false,
      "normalized": false,
      "special": true
    },
    {
      "id": 19,
      "content": "</tr>",
      "single_word": false,
      "lstrip": false,
      "rstrip": false,
      "normalized": false,
      "special": true
    },
    {
      "id": 20,
      "content": "<ru>",
      "single_word": false,
      "lstrip": false,
      "rstrip": false,
      "normalized": false,
      "special": true
    },
    {
      "id": 21,
      "content": "</ru>",
      "single_word": false,
      "lstrip": false,
      "rstrip": false,
      "normalized": false,
      "special": true
    }
  ],
  "normalizer": null,
  "pre_tokenizer": {
    "type": "Metaspace",
    "replacement": "▁",
    "prepend_scheme": "always",
    "split": true
  },
  "post_processor": null,
  "decoder": null,
  "model": {
    "type": "BPE",
    "dropout": null,
    "unk_token": "<UNK>",
    "continuing_subword_prefix": null,
    "end_of_word_suffix": null,
    "fuse_unk": false,
    "byte_fallback": false,
    "ignore_merges": false,
    "vocab": {
      "<PAD>": 0,
      "<SOS>": 1,
      "<EOS>": 2,
      "<UNK>": 3,
      "<ug>": 4,
      "</ug>": 5,
      "<en>": 6,
      "</en>": 7,
      "<jp>": 8,
      "</jp>": 9,
      "<zh>": 10,
      "</zh>": 11,
      "<uz>": 12,
      "</uz>": 13,
      "<kk>": 14,
      "</kk>": 15,
      "<ky>": 16,
      "</ky>": 17,
      "<tr>": 18,
      "</tr>": 19,
      "<ru>": 20,
      "</ru>": 21,
      "\u0005": 22,
      "\t": 23,
      "\n": 24,
      "\r": 25,
      "!": 26,
      "\"": 27,
      "#": 28,
      "$": 29,
      "%": 30,
      "&": 31,
      "'": 32,
      "(": 33,
      ")": 34,
      "*": 35,
      "+": 36,
      ",": 37,
      "-": 38,
      ".": 39,
      "/": 40,
      "0": 41,
      "1": 42,
      "2": 43,
      "3": 44,
      "4": 45,
      "5": 46,
      "6": 47,
      "7": 48,
      "8": 49,
      "9": 50,
      ":": 51,
      ";": 52,
      "<": 53,
      "=": 54,
      ">": 55,
      "?": 56,
      "@": 57,
      "A": 58,
      "B": 59,
      "C": 60,
      "D": 61,
      "E": 62,
      "F": 63,
      "G": 64,
      "H": 65,
      "I": 66,
      "J": 67,
      "K": 68,
      "L": 69,
      "M": 70,
      "N": 71,
      "O": 72,
      "P": 73,
      "Q": 74,
      "R": 75,
      "S": 76,
      "T": 77,
      "U": 78,
      "V": 79,
      "W": 80,
      "X": 81,
      "Y": 82,
      "Z": 83,
      "[": 84,
      "\\": 85,
      "]": 86,
      "^": 87,
      "_": 88,
      "`": 89,
      "a": 90,
      "b": 91,
      "c": 92,
      "d": 93,
      "e": 94,
      "f": 95,
      "g": 96,
      "h": 97,
      "i": 98,
      "j": 99,
      "k": 100,
      "l": 101,
      "m": 102,
      "n": 103,
      "o": 104,
      "p": 105,
      "q": 106,
      "r": 107,
      "s": 108,
      "t": 109,
      "u": 110,
      "v": 111,
      "w": 112,
      "x": 113,
      "y": 114,
      "z": 115,
      "{": 116,
      "|": 117,
      "}": 118,
      " ": 119,
      "£": 120,
      "¥": 121,
      "«": 122,
      "­": 123,
      "®": 124,
      "°": 125,
      "²": 126,
      "´": 127,
      "·": 128,
      "¹": 129,
      "º": 130,
      "»": 131,
      "¼": 132,
      "À": 133,
      "Á": 134,
      "Â": 135,
      "Ä": 136,
      "Æ": 137,
      "Ç": 138,
      "É": 139,
      "Ê": 140,
      "Ì": 141,
      "Ñ": 142,
      "Ó": 143,
      "Ö": 144,
      "×": 145,
      "Ú": 146,
      "Ü": 147,
      "à": 148,
      "á": 149,
      "â": 150,
      "ã": 151,
      "ä": 152,
      "å": 153,
      "æ": 154,
      "ç": 155,
      "è": 156,
      "é": 157,
      "ê": 158,
      "ë": 159,
      "ì": 160,
      "í": 161,
      "î": 162,
      "ï": 163,
      "ð": 164,
      "ñ": 165,
      "ò": 166,
      "ó": 167,
      "ô": 168,
      "õ": 169,
      "ö": 170,
      "÷": 171,
      "ø": 172,
      "ù": 173,
      "ú": 174,
      "û": 175,
      "ü": 176,
      "ý": 177,
      "ā": 178,
      "ą": 179,
      "ć": 180,
      "č": 181,
      "Đ": 182,
      "đ": 183,
      "ē": 184,
      "Ė": 185,
      "ė": 186,
      "ę": 187,
      "ĝ": 188,
      "Ğ": 189,
      "ğ": 190,
      "ġ": 191,
      "Ģ": 192,
      "ģ": 193,
      "ī": 194,
      "ĭ": 195,
      "į": 196,
      "İ": 197,
      "ı": 198,
      "ķ": 199,
      "Ĺ": 200,
      "ł": 201,
      "Ń": 202,
      "ń": 203,
      "ň": 204,
      "Ŋ": 205,
      "ŋ": 206,
      "ō": 207,
      "ŏ": 208,
      "ő": 209,
      "Ś": 210,
      "ś": 211,
      "Ş": 212,
      "ş": 213,
      "Š": 214,
      "š": 215,
      "ť": 216,
      "Ū": 217,
      "ū": 218,
      "Ŭ": 219,
      "ŭ": 220,
      "ŵ": 221,
      "ź": 222,
      "ż": 223,
      "Ž": 224,
      "ž": 225,
      "ſ": 226,
      "Ə": 227,
      "ƛ": 228,
      "ơ": 229,
      "ư": 230,
      "Ʊ": 231,
      "ƻ": 232,
      "ǎ": 233,
      "ǐ": 234,
      "ǒ": 235,
      "ǔ": 236,
      "ǜ": 237,
      "ǧ": 238,
      "ǵ": 239,
      "ș": 240,
      "ț": 241,
      "ə": 242,
      "ɛ": 243,
      "ɪ": 244,
      "ɵ": 245,
      "ʃ": 246,
      "ʊ": 247,
      "ʏ": 248,
      "ʒ": 249,
      "ʺ": 250,
      "ʻ": 251,
      "ʼ": 252,
      "ʾ": 253,
      "́": 254,
      "̂": 255,
      "̆": 256,
      "̇": 257,
      "̈": 258,
      "̌": 259,
      "̧": 260,
      "̱": 261,
      "̸": 262,
      "͡": 263,
      "Ο": 264,
      "ί": 265,
      "α": 266,
      "η": 267,
      "ι": 268,
      "μ": 269,
      "ο": 270,
      "π": 271,
      "ρ": 272,
      "σ": 273,
      "υ": 274,
      "Ё": 275,
      "І": 276,
      "А": 277,
      "Б": 278,
      "В": 279,
      "Г": 280,
      "Д": 281,
      "Е": 282,
      "Ж": 283,
      "З": 284,
      "И": 285,
      "Й": 286,
      "К": 287,
      "Л": 288,
      "М": 289,
      "Н": 290,
      "О": 291,
      "П": 292,
      "Р": 293,
      "С": 294,
      "Т": 295,
      "У": 296,
      "Ф": 297,
      "Х": 298,
      "Ц": 299,
      "Ч": 300,
      "Ш": 301,
      "Щ": 302,
      "Ъ": 303,
      "Ы": 304,
      "Ь": 305,
      "Э": 306,
      "Ю": 307,
      "Я": 308,
      "а": 309,
      "б": 310,
      "в": 311,
      "г": 312,
      "д": 313,
      "е": 314,
      "ж": 315,
      "з": 316,
      "и": 317,
      "й": 318,
      "к": 319,
      "л": 320,
      "м": 321,
      "н": 322,
      "о": 323,
      "п": 324,
      "р": 325,
      "с": 326,
      "т": 327,
      "у": 328,
      "ф": 329,
      "х": 330,
      "ц": 331,
      "ч": 332,
      "ш": 333,
      "щ": 334,
      "ъ": 335,
      "ы": 336,
      "ь": 337,
      "э": 338,
      "ю": 339,
      "я": 340,
      "ё": 341,
      "є": 342,
      "і": 343,
      "ї": 344,
      "ј": 345,
      "ў": 346,
      "ѳ": 347,
      "Ґ": 348,
      "ґ": 349,
      "Ғ": 350,
      "ғ": 351,
      "Җ": 352,
      "җ": 353,
      "Қ": 354,
      "қ": 355,
      "ҡ": 356,
      "Ң": 357,
      "ң": 358,
      "ҥ": 359,
      "Ү": 360,
      "ү": 361,
      "Ұ": 362,
      "ұ": 363,
      "Ҳ": 364,
      "ҳ": 365,
      "Ҷ": 366,
      "Һ": 367,
      "һ": 368,
      "ӊ": 369,
      "Ә": 370,
      "ә": 371,
      "ӧ": 372,
      "Ө": 373,
      "ө": 374,
      "ӽ": 375,
      "Ս": 376,
      "ե": 377,
      "պ": 378,
      "ս": 379,
      "א": 380,
      "ו": 381,
      "ט": 382,
      "י": 383,
      "ל": 384,
      "ם": 385,
      "מ": 386,
      "נ": 387,
      "ע": 388,
      "ק": 389,
      "ר": 390,
      "ש": 391,
      "،": 392,
      "؛": 393,
      "؟": 394,
      "آ": 395,
      "أ": 396,
      "ؤ": 397,
      "ئ": 398,
      "ا": 399,
      "ب": 400,
      "ة": 401,
      "ت": 402,
      "ث": 403,
      "ج": 404,
      "ح": 405,
      "خ": 406,
      "د": 407,
      "ذ": 408,
      "ر": 409,
      "ز": 410,
      "س": 411,
      "ش": 412,
      "ص": 413,
      "ط": 414,
      "ع": 415,
      "غ": 416,
      "ـ": 417,
      "ف": 418,
      "ق": 419,
      "ك": 420,
      "ل": 421,
      "م": 422,
      "ن": 423,
      "ه": 424,
      "و": 425,
      "ى": 426,
      "ي": 427,
      "پ": 428,
      "ځ": 429,
      "چ": 430,
      "ژ": 431,
      "ڧ": 432,
      "ک": 433,
      "ڭ": 434,
      "گ": 435,
      "ھ": 436,
      "ۆ": 437,
      "ۇ": 438,
      "ۈ": 439,
      "ۋ": 440,
      "ی": 441,
      "ې": 442,
      "ە": 443,
      "ं": 444,
      "अ": 445,
      "आ": 446,
      "इ": 447,
      "ई": 448,
      "क": 449,
      "ख": 450,
      "ग": 451,
      "च": 452,
      "छ": 453,
      "ज": 454,
      "ट": 455,
      "ड": 456,
      "ण": 457,
      "त": 458,
      "द": 459,
      "ध": 460,
      "न": 461,
      "प": 462,
      "फ": 463,
      "ब": 464,
      "म": 465,
      "य": 466,
      "र": 467,
      "ल": 468,
      "व": 469,
      "श": 470,
      "स": 471,
      "ह": 472,
      "़": 473,
      "ा": 474,
      "ि": 475,
      "ी": 476,
      "ु": 477,
      "ू": 478,
      "े": 479,
      "ै": 480,
      "ॉ": 481,
      "ो": 482,
      "्": 483,
      "।": 484,
      "ং": 485,
      "উ": 486,
      "ক": 487,
      "গ": 488,
      "চ": 489,
      "জ": 490,
      "ড": 491,
      "ণ": 492,
      "ত": 493,
      "দ": 494,
      "ন": 495,
      "ব": 496,
      "ভ": 497,
      "ম": 498,
      "য": 499,
      "র": 500,
      "ল": 501,
      "শ": 502,
      "়": 503,
      "া": 504,
      "ি": 505,
      "ী": 506,
      "ু": 507,
      "ূ": 508,
      "ৃ": 509,
      "ে": 510,
      "ো": 511,
      "্": 512,
      "ਰ": 513,
      "ੁ": 514,
      "ં": 515,
      "એ": 516,
      "ક": 517,
      "મ": 518,
      "ી": 519,
      "ુ": 520,
      "அ": 521,
      "எ": 522,
      "த": 523,
      "ந": 524,
      "ற": 525,
      "ி": 526,
      "ை": 527,
      "்": 528,
      "ం": 529,
      "గ": 530,
      "చ": 531,
      "ణ": 532,
      "ర": 533,
      "ి": 534,
      "ు": 535,
      "్": 536,
      "ಗ": 537,
      "ಲ": 538,
      "ಳ": 539,
      "ವ": 540,
      "ಶ": 541,
      "ಷ": 542,
      "ಹ": 543,
      "ಿ": 544,
      "ೆ": 545,
      "ೇ": 546,
      "್": 547,
      "ഒ": 548,
      "ട": 549,
      "ത": 550,
      "ന": 551,
      "യ": 552,
      "ര": 553,
      "ഷ": 554,
      "സ": 555,
      "ു": 556,
      "െ": 557,
      "ോ": 558,
      "്": 559,
      "ก": 560,
      "ง": 561,
      "ด": 562,
      "ต": 563,
      "ถ": 564,
      "บ": 565,
      "ม": 566,
      "ย": 567,
      "ร": 568,
      "ล": 569,
      "ว": 570,
      "ส": 571,
      "ห": 572,
      "อ": 573,
      "ั": 574,
      "า": 575,
      "ี": 576,
      "ู": 577,
      "เ": 578,
      "โ": 579,
      "ไ": 580,
      "้": 581,
      "์": 582,
      "ა": 583,
      "ბ": 584,
      "გ": 585,
      "დ": 586,
      "ე": 587,
      "ი": 588,
      "კ": 589,
      "ლ": 590,
      "მ": 591,
      "ნ": 592,
      "ო": 593,
      "პ": 594,
      "რ": 595,
      "ს": 596,
      "ტ": 597,
      "ქ": 598,
      "შ": 599,
      "ჩ": 600,
      "ቼ": 601,
      "ኈ": 602,
      "ዙ": 603,
      "ዽ": 604,
      "ጿ": 605,
      "ច": 606,
      "ន": 607,
      "ួ": 608,
      "ំ": 609,
      "ḥ": 610,
      "ṁ": 611,
      "ṅ": 612,
      "ṗ": 613,
      "ṟ": 614,
      "ṣ": 615,
      "ṭ": 616,
      "ẩ": 617,
      "ắ": 618,
      "ặ": 619,
      "ỏ": 620,
      "ố": 621,
      "ổ": 622,
      "ờ": 623,
      "ủ": 624,
      "ữ": 625,
      "ự": 626,
      "ỳ": 627,
      "​": 628,
      "‌": 629,
      "‍": 630,
      "‎": 631,
      "‑": 632,
      "–": 633,
      "—": 634,
      "―": 635,
      "‘": 636,
      "’": 637,
      "“": 638,
      "”": 639,
      "„": 640,
      "•": 641,
      "…": 642,
      "′": 643,
      "‹": 644,
      "›": 645,
      "₀": 646,
      "₁": 647,
      "₂": 648,
      "€": 649,
      "℃": 650,
      "№": 651,
      "Ⅰ": 652,
      "Ⅲ": 653,
      "Ⅵ": 654,
      "←": 655,
      "↑": 656,
      "→": 657,
      "⇋": 658,
      "⇌": 659,
      "−": 660,
      "∙": 661,
      "√": 662,
      "∞": 663,
      "≠": 664,
      "⏰": 665,
      "│": 666,
      "▁": 667,
      "▕": 668,
      "☆": 669,
      "❤": 670,
      "⼊": 671,
      "⼥": 672,
      "　": 673,
      "、": 674,
      "。": 675,
      "々": 676,
      "〇": 677,
      "〉": 678,
      "《": 679,
      "》": 680,
      "「": 681,
      "」": 682,
      "『": 683,
      "』": 684,
      "【": 685,
      "】": 686,
      "〜": 687,
      "ぁ": 688,
      "あ": 689,
      "ぃ": 690,
      "い": 691,
      "ぅ": 692,
      "う": 693,
      "ぇ": 694,
      "え": 695,
      "ぉ": 696,
      "お": 697,
      "か": 698,
      "が": 699,
      "き": 700,
      "ぎ": 701,
      "く": 702,
      "ぐ": 703,
      "け": 704,
      "げ": 705,
      "こ": 706,
      "ご": 707,
      "さ": 708,
      "ざ": 709,
      "し": 710,
      "じ": 711,
      "す": 712,
      "ず": 713,
      "せ": 714,
      "ぜ": 715,
      "そ": 716,
      "ぞ": 717,
      "た": 718,
      "だ": 719,
      "ち": 720,
      "っ": 721,
      "つ": 722,
      "づ": 723,
      "て": 724,
      "で": 725,
      "と": 726,
      "ど": 727,
      "な": 728,
      "に": 729,
      "ぬ": 730,
      "ね": 731,
      "の": 732,
      "は": 733,
      "ば": 734,
      "ぱ": 735,
      "ひ": 736,
      "び": 737,
      "ぴ": 738,
      "ふ": 739,
      "ぶ": 740,
      "ぷ": 741,
      "へ": 742,
      "べ": 743,
      "ぺ": 744,
      "ほ": 745,
      "ぼ": 746,
      "ぽ": 747,
      "ま": 748,
      "み": 749,
      "む": 750,
      "め": 751,
      "も": 752,
      "ゃ": 753,
      "や": 754,
      "ゅ": 755,
      "ゆ": 756,
      "ょ": 757,
      "よ": 758,
      "ら": 759,
      "り": 760,
      "る": 761,
      "れ": 762,
      "ろ": 763,
      "わ": 764,
      "を": 765,
      "ん": 766,
      "ゞ": 767,
      "ァ": 768,
      "ア": 769,
      "ィ": 770,
      "イ": 771,
      "ゥ": 772,
      "ウ": 773,
      "ェ": 774,
      "エ": 775,
      "ォ": 776,
      "オ": 777,
      "カ": 778,
      "ガ": 779,
      "キ": 780,
      "ギ": 781,
      "ク": 782,
      "グ": 783,
      "ケ": 784,
      "ゲ": 785,
      "コ": 786,
      "ゴ": 787,
      "サ": 788,
      "ザ": 789,
      "シ": 790,
      "ジ": 791,
      "ス": 792,
      "ズ": 793,
      "セ": 794,
      "ゼ": 795,
      "ソ": 796,
      "ゾ": 797,
      "タ": 798,
      "ダ": 799,
      "チ": 800,
      "ヂ": 801,
      "ッ": 802,
      "ツ": 803,
      "ヅ": 804,
      "テ": 805,
      "デ": 806,
      "ト": 807,
      "ド": 808,
      "ナ": 809,
      "ニ": 810,
      "ヌ": 811,
      "ネ": 812,
      "ノ": 813,
      "ハ": 814,
      "バ": 815,
      "パ": 816,
      "ヒ": 817,
      "ビ": 818,
      "ピ": 819,
      "フ": 820,
      "ブ": 821,
      "プ": 822,
      "ヘ": 823,
      "ベ": 824,
      "ペ": 825,
      "ホ": 826,
      "ボ": 827,
      "ポ": 828,
      "マ": 829,
      "ミ": 830,
      "ム": 831,
      "メ": 832,
      "モ": 833,
      "ャ": 834,
      "ヤ": 835,
      "ュ": 836,
      "ユ": 837,
      "ョ": 838,
      "ヨ": 839,
      "ラ": 840,
      "リ": 841,
      "ル": 842,
      "レ": 843,
      "ロ": 844,
      "ワ": 845,
      "ン": 846,
      "ヴ": 847,
      "ヵ": 848,
      "ヶ": 849,
      "・": 850,
      "ー": 851,
      "一": 852,
      "丁": 853,
      "七": 854,
      "丄": 855,
      "万": 856,
      "丈": 857,
      "三": 858,
      "上": 859,
      "下": 860,
      "不": 861,
      "与": 862,
      "丐": 863,
      "丑": 864,
      "专": 865,
      "且": 866,
      "丕": 867,
      "世": 868,
      "丘": 869,
      "丙": 870,
      "业": 871,
      "丛": 872,
      "东": 873,
      "丝": 874,
      "丞": 875,
      "丟": 876,
      "両": 877,
      "丢": 878,
      "两": 879,
      "严": 880,
      "並": 881,
      "丧": 882,
      "丨": 883,
      "个": 884,
      "丫": 885,
      "中": 886,
      "丰": 887,
      "串": 888,
      "临": 889,
      "丸": 890,
      "丹": 891,
      "为": 892,
      "主": 893,
      "丽": 894,
      "举": 895,
      "乃": 896,
      "久": 897,
      "么": 898,
      "义": 899,
      "之": 900,
      "乌": 901,
      "乍": 902,
      "乎": 903,
      "乏": 904,
      "乐": 905,
      "乒": 906,
      "乓": 907,
      "乔": 908,
      "乖": 909,
      "乗": 910,
      "乘": 911,
      "乙": 912,
      "九": 913,
      "乞": 914,
      "也": 915,
      "习": 916,
      "乡": 917,
      "书": 918,
      "买": 919,
      "乱": 920,
      "乳": 921,
      "乾": 922,
      "亀": 923,
      "了": 924,
      "予": 925,
      "争": 926,
      "事": 927,
      "二": 928,
      "于": 929,
      "亏": 930,
      "云": 931,
      "互": 932,
      "五": 933,
      "井": 934,
      "亚": 935,
      "些": 936,
      "亜": 937,
      "亞": 938,
      "亟": 939,
      "亡": 940,
      "亢": 941,
      "交": 942,
      "亥": 943,
      "亦": 944,
      "产": 945,
      "亨": 946,
      "亩": 947,
      "享": 948,
      "京": 949,
      "亭": 950,
      "亮": 951,
      "亲": 952,
      "亵": 953,
      "人": 954,
      "亿": 955,
      "什": 956,
      "仁": 957,
      "仃": 958,
      "仅": 959,
      "仆": 960,
      "仇": 961,
      "今": 962,
      "介": 963,
      "仍": 964,
      "从": 965,
      "仏": 966,
      "仑": 967,
      "仓": 968,
      "仔": 969,
      "仕": 970,
      "他": 971,
      "仗": 972,
      "付": 973,
      "仙": 974,
      "代": 975,
      "令": 976,
      "以": 977,
      "仨": 978,
      "仪": 979,
      "们": 980,
      "仮": 981,
      "仰": 982,
      "仲": 983,
      "件": 984,
      "价": 985,
      "任": 986,
      "份": 987,
      "仿": 988,
      "企": 989,
      "伊": 990,
      "伍": 991,
      "伎": 992,
      "伏": 993,
      "伐": 994,
      "休": 995,
      "众": 996,
      "优": 997,
      "伙": 998,
      "会": 999,
      "伝": 1000,
      "伞": 1001,
      "伟": 1002,
      "传": 1003,
      "伤": 1004,
      "伦": 1005,
      "伪": 1006,
      "伯": 1007,
      "估": 1008,
      "伴": 1009,
      "伶": 1010,
      "伸": 1011,
      "伺": 1012,
      "似": 1013,
      "伽": 1014,
      "但": 1015,
      "佇": 1016,
      "位": 1017,
      "低": 1018,
      "住": 1019,
      "佐": 1020,
      "佑": 1021,
      "体": 1022,
      "何": 1023,
      "佗": 1024,
      "余": 1025,
      "佛": 1026,
      "作": 1027,
      "佝": 1028,
      "佟": 1029,
      "你": 1030,
      "佣": 1031,
      "佩": 1032,
      "佬": 1033,
      "佰": 1034,
      "佳": 1035,
      "併": 1036,
      "佻": 1037,
      "佼": 1038,
      "使": 1039,
      "侃": 1040,
      "侄": 1041,
      "來": 1042,
      "侈": 1043,
      "例": 1044,
      "侍": 1045,
      "侏": 1046,
      "侑": 1047,
      "供": 1048,
      "依": 1049,
      "侠": 1050,
      "価": 1051,
      "侣": 1052,
      "侥": 1053,
      "侦": 1054,
      "侧": 1055,
      "侬": 1056,
      "侮": 1057,
      "侯": 1058,
      "侵": 1059,
      "侶": 1060,
      "便": 1061,
      "係": 1062,
      "促": 1063,
      "俄": 1064,
      "俊": 1065,
      "俏": 1066,
      "俐": 1067,
      "俑": 1068,
      "俗": 1069,
      "俘": 1070,
      "俚": 1071,
      "保": 1072,
      "俞": 1073,
      "俠": 1074,
      "信": 1075,
      "俩": 1076,
      "俪": 1077,
      "俭": 1078,
      "修": 1079,
      "俯": 1080,
      "俱": 1081,
      "俳": 1082,
      "俸": 1083,
      "俺": 1084,
      "俾": 1085,
      "倉": 1086,
      "個": 1087,
      "倍": 1088,
      "們": 1089,
      "倒": 1090,
      "倔": 1091,
      "候": 1092,
      "倚": 1093,
      "借": 1094,
      "倡": 1095,
      "倣": 1096,
      "値": 1097,
      "倦": 1098,
      "倩": 1099,
      "倪": 1100,
      "倫": 1101,
      "倭": 1102,
      "倶": 1103,
      "倹": 1104,
      "债": 1105,
      "值": 1106,
      "倾": 1107,
      "偃": 1108,
      "假": 1109,
      "偉": 1110,
      "偎": 1111,
      "偏": 1112,
      "偕": 1113,
      "做": 1114,
      "停": 1115,
      "健": 1116,
      "偲": 1117,
      "側": 1118,
      "偵": 1119,
      "偶": 1120,
      "偷": 1121,
      "偻": 1122,
      "偽": 1123,
      "偿": 1124,
      "傀": 1125,
      "傅": 1126,
      "傍": 1127,
      "傑": 1128,
      "傘": 1129,
      "備": 1130,
      "储": 1131,
      "催": 1132,
      "傭": 1133,
      "傲": 1134,
      "債": 1135,
      "傷": 1136,
      "傻": 1137,
      "傾": 1138,
      "働": 1139,
      "像": 1140,
      "僕": 1141,
      "僚": 1142,
      "僧": 1143,
      "僵": 1144,
      "價": 1145,
      "僻": 1146,
      "儀": 1147,
      "億": 1148,
      "儒": 1149,
      "儚": 1150,
      "償": 1151,
      "儡": 1152,
      "優": 1153,
      "儲": 1154,
      "儷": 1155,
      "儿": 1156,
      "兀": 1157,
      "允": 1158,
      "元": 1159,
      "兄": 1160,
      "充": 1161,
      "兆": 1162,
      "先": 1163,
      "光": 1164,
      "克": 1165,
      "免": 1166,
      "兎": 1167,
      "児": 1168,
      "兑": 1169,
      "兔": 1170,
      "党": 1171,
      "兜": 1172,
      "入": 1173,
      "內": 1174,
      "全": 1175,
      "兩": 1176,
      "兪": 1177,
      "八": 1178,
      "公": 1179,
      "六": 1180,
      "兰": 1181,
      "共": 1182,
      "关": 1183,
      "兴": 1184,
      "兵": 1185,
      "其": 1186,
      "具": 1187,
      "典": 1188,
      "兹": 1189,
      "养": 1190,
      "兼": 1191,
      "兽": 1192,
      "内": 1193,
      "円": 1194,
      "冈": 1195,
      "冉": 1196,
      "冊": 1197,
      "册": 1198,
      "再": 1199,
      "冒": 1200,
      "冕": 1201,
      "冗": 1202,
      "写": 1203,
      "军": 1204,
      "农": 1205,
      "冠": 1206,
      "冢": 1207,
      "冤": 1208,
      "冥": 1209,
      "冨": 1210,
      "冪": 1211,
      "冬": 1212,
      "冯": 1213,
      "冰": 1214,
      "冲": 1215,
      "决": 1216,
      "冴": 1217,
      "况": 1218,
      "冶": 1219,
      "冷": 1220,
      "冻": 1221,
      "冼": 1222,
      "净": 1223,
      "凄": 1224,
      "准": 1225,
      "凉": 1226,
      "凋": 1227,
      "凌": 1228,
      "凍": 1229,
      "减": 1230,
      "凑": 1231,
      "凛": 1232,
      "凝": 1233,
      "几": 1234,
      "凡": 1235,
      "凤": 1236,
      "処": 1237,
      "凧": 1238,
      "凭": 1239,
      "凯": 1240,
      "凰": 1241,
      "凱": 1242,
      "凳": 1243,
      "凶": 1244,
      "凸": 1245,
      "凹": 1246,
      "出": 1247,
      "击": 1248,
      "函": 1249,
      "凿": 1250,
      "刀": 1251,
      "刁": 1252,
      "刃": 1253,
      "分": 1254,
      "切": 1255,
      "刈": 1256,
      "刊": 1257,
      "刑": 1258,
      "划": 1259,
      "列": 1260,
      "刘": 1261,
      "则": 1262,
      "刚": 1263,
      "创": 1264,
      "初": 1265,
      "删": 1266,
      "判": 1267,
      "別": 1268,
      "利": 1269,
      "别": 1270,
      "刮": 1271,
      "到": 1272,
      "制": 1273,
      "刷": 1274,
      "券": 1275,
      "刹": 1276,
      "刺": 1277,
      "刻": 1278,
      "刽": 1279,
      "剂": 1280,
      "剃": 1281,
      "則": 1282,
      "削": 1283,
      "前": 1284,
      "剑": 1285,
      "剔": 1286,
      "剖": 1287,
      "剛": 1288,
      "剜": 1289,
      "剣": 1290,
      "剤": 1291,
      "剥": 1292,
      "剧": 1293,
      "剩": 1294,
      "剪": 1295,
      "副": 1296,
      "剰": 1297,
      "割": 1298,
      "創": 1299,
      "剽": 1300,
      "剿": 1301,
      "劇": 1302,
      "劈": 1303,
      "劉": 1304,
      "劍": 1305,
      "力": 1306,
      "劝": 1307,
      "办": 1308,
      "功": 1309,
      "加": 1310,
      "务": 1311,
      "劣": 1312,
      "动": 1313,
      "助": 1314,
      "努": 1315,
      "劫": 1316,
      "励": 1317,
      "劲": 1318,
      "劳": 1319,
      "労": 1320,
      "効": 1321,
      "劾": 1322,
      "势": 1323,
      "勁": 1324,
      "勃": 1325,
      "勇": 1326,
      "勉": 1327,
      "勋": 1328,
      "勒": 1329,
      "動": 1330,
      "勘": 1331,
      "務": 1332,
      "勝": 1333,
      "勞": 1334,
      "募": 1335,
      "勢": 1336,
      "勤": 1337,
      "勧": 1338,
      "勲": 1339,
      "勺": 1340,
      "勾": 1341,
      "勿": 1342,
      "匀": 1343,
      "匂": 1344,
      "包": 1345,
      "匆": 1346,
      "匈": 1347,
      "匕": 1348,
      "化": 1349,
      "北": 1350,
      "匙": 1351,
      "匠": 1352,
      "匣": 1353,
      "匪": 1354,
      "匮": 1355,
      "匯": 1356,
      "匹": 1357,
      "区": 1358,
      "医": 1359,
      "匾": 1360,
      "匿": 1361,
      "十": 1362,
      "千": 1363,
      "升": 1364,
      "午": 1365,
      "卉": 1366,
      "半": 1367,
      "卍": 1368,
      "华": 1369,
      "协": 1370,
      "卑": 1371,
      "卒": 1372,
      "卓": 1373,
      "協": 1374,
      "单": 1375,
      "卖": 1376,
      "南": 1377,
      "単": 1378,
      "博": 1379,
      "卜": 1380,
      "卞": 1381,
      "占": 1382,
      "卡": 1383,
      "卢": 1384,
      "卦": 1385,
      "卧": 1386,
      "卫": 1387,
      "卯": 1388,
      "印": 1389,
      "危": 1390,
      "即": 1391,
      "却": 1392,
      "卵": 1393,
      "卷": 1394,
      "卸": 1395,
      "卿": 1396,
      "厂": 1397,
      "厄": 1398,
      "厅": 1399,
      "历": 1400,
      "厉": 1401,
      "压": 1402,
      "厌": 1403,
      "厍": 1404,
      "厕": 1405,
      "厘": 1406,
      "厚": 1407,
      "原": 1408,
      "厢": 1409,
      "厥": 1410,
      "厦": 1411,
      "厨": 1412,
      "厩": 1413,
      "厭": 1414,
      "厳": 1415,
      "去": 1416,
      "县": 1417,
      "参": 1418,
      "又": 1419,
      "叉": 1420,
      "及": 1421,
      "友": 1422,
      "双": 1423,
      "反": 1424,
      "収": 1425,
      "发": 1426,
      "叔": 1427,
      "取": 1428,
      "受": 1429,
      "变": 1430,
      "叙": 1431,
      "叛": 1432,
      "叠": 1433,
      "叢": 1434,
      "口": 1435,
      "古": 1436,
      "句": 1437,
      "另": 1438,
      "叨": 1439,
      "叩": 1440,
      "只": 1441,
      "叫": 1442,
      "召": 1443,
      "叭": 1444,
      "叮": 1445,
      "可": 1446,
      "台": 1447,
      "叱": 1448,
      "史": 1449,
      "右": 1450,
      "叶": 1451,
      "号": 1452,
      "司": 1453,
      "叹": 1454,
      "叼": 1455,
      "吁": 1456,
      "吃": 1457,
      "各": 1458,
      "合": 1459,
      "吉": 1460,
      "吊": 1461,
      "同": 1462,
      "名": 1463,
      "后": 1464,
      "吐": 1465,
      "向": 1466,
      "吒": 1467,
      "吓": 1468,
      "吕": 1469,
      "吗": 1470,
      "君": 1471,
      "吝": 1472,
      "吞": 1473,
      "吟": 1474,
      "吠": 1475,
      "否": 1476,
      "吧": 1477,
      "吨": 1478,
      "含": 1479,
      "听": 1480,
      "吭": 1481,
      "吮": 1482,
      "启": 1483,
      "吱": 1484,
      "吴": 1485,
      "吵": 1486,
      "吸": 1487,
      "吹": 1488,
      "吻": 1489,
      "吼": 1490,
      "吾": 1491,
      "呀": 1492,
      "呂": 1493,
      "呃": 1494,
      "呆": 1495,
      "呈": 1496,
      "呉": 1497,
      "告": 1498,
      "呐": 1499,
      "呑": 1500,
      "呕": 1501,
      "呗": 1502,
      "员": 1503,
      "呛": 1504,
      "呜": 1505,
      "呢": 1506,
      "呤": 1507,
      "呦": 1508,
      "周": 1509,
      "呪": 1510,
      "味": 1511,
      "呵": 1512,
      "呸": 1513,
      "呻": 1514,
      "呼": 1515,
      "命": 1516,
      "咀": 1517,
      "咆": 1518,
      "和": 1519,
      "咎": 1520,
      "咏": 1521,
      "咒": 1522,
      "咔": 1523,
      "咕": 1524,
      "咖": 1525,
      "咙": 1526,
      "咚": 1527,
      "咧": 1528,
      "咨": 1529,
      "咩": 1530,
      "咪": 1531,
      "咬": 1532,
      "咯": 1533,
      "咱": 1534,
      "咲": 1535,
      "咳": 1536,
      "咸": 1537,
      "咽": 1538,
      "哀": 1539,
      "品": 1540,
      "哄": 1541,
      "哆": 1542,
      "哇": 1543,
      "哈": 1544,
      "哉": 1545,
      "响": 1546,
      "哎": 1547,
      "哑": 1548,
      "哒": 1549,
      "哔": 1550,
      "哗": 1551,
      "哟": 1552,
      "員": 1553,
      "哥": 1554,
      "哦": 1555,
      "哧": 1556,
      "哨": 1557,
      "哩": 1558,
      "哪": 1559,
      "哭": 1560,
      "哮": 1561,
      "哲": 1562,
      "哺": 1563,
      "哼": 1564,
      "唁": 1565,
      "唄": 1566,
      "唆": 1567,
      "唇": 1568,
      "唉": 1569,
      "唐": 1570,
      "唑": 1571,
      "唖": 1572,
      "唠": 1573,
      "唢": 1574,
      "唤": 1575,
      "唬": 1576,
      "售": 1577,
      "唯": 1578,
      "唱": 1579,
      "唸": 1580,
      "唾": 1581,
      "啃": 1582,
      "啄": 1583,
      "商": 1584,
      "啊": 1585,
      "問": 1586,
      "啓": 1587,
      "啡": 1588,
      "啤": 1589,
      "啥": 1590,
      "啦": 1591,
      "啪": 1592,
      "啬": 1593,
      "啮": 1594,
      "啸": 1595,
      "啼": 1596,
      "喀": 1597,
      "喂": 1598,
      "善": 1599,
      "喇": 1600,
      "喉": 1601,
      "喊": 1602,
      "喋": 1603,
      "喘": 1604,
      "喙": 1605,
      "喚": 1606,
      "喜": 1607,
      "喝": 1608,
      "喧": 1609,
      "喩": 1610,
      "喪": 1611,
      "喫": 1612,
      "喬": 1613,
      "單": 1614,
      "喰": 1615,
      "喵": 1616,
      "営": 1617,
      "喷": 1618,
      "喻": 1619,
      "喽": 1620,
      "嗅": 1621,
      "嗎": 1622,
      "嗒": 1623,
      "嗓": 1624,
      "嗖": 1625,
      "嗜": 1626,
      "嗝": 1627,
      "嗡": 1628,
      "嗣": 1629,
      "嗨": 1630,
      "嗯": 1631,
      "嗳": 1632,
      "嗽": 1633,
      "嘀": 1634,
      "嘆": 1635,
      "嘈": 1636,
      "嘉": 1637,
      "嘌": 1638,
      "嘎": 1639,
      "嘏": 1640,
      "嘔": 1641,
      "嘘": 1642,
      "嘛": 1643,
      "嘟": 1644,
      "嘩": 1645,
      "嘱": 1646,
      "嘲": 1647,
      "嘴": 1648,
      "嘶": 1649,
      "嘹": 1650,
      "嘻": 1651,
      "嘿": 1652,
      "噂": 1653,
      "噌": 1654,
      "噎": 1655,
      "噗": 1656,
      "噘": 1657,
      "噛": 1658,
      "噜": 1659,
      "噢": 1660,
      "噤": 1661,
      "器": 1662,
      "噩": 1663,
      "噪": 1664,
      "噬": 1665,
      "噱": 1666,
      "噴": 1667,
      "噶": 1668,
      "噺": 1669,
      "噼": 1670,
      "嚇": 1671,
      "嚎": 1672,
      "嚏": 1673,
      "嚓": 1674,
      "嚢": 1675,
      "嚣": 1676,
      "嚥": 1677,
      "嚯": 1678,
      "嚷": 1679,
      "嚼": 1680,
      "囊": 1681,
      "囚": 1682,
      "四": 1683,
      "回": 1684,
      "因": 1685,
      "团": 1686,
      "団": 1687,
      "囤": 1688,
      "囧": 1689,
      "园": 1690,
      "困": 1691,
      "囱": 1692,
      "囲": 1693,
      "図": 1694,
      "围": 1695,
      "固": 1696,
      "国": 1697,
      "图": 1698,
      "圃": 1699,
      "圆": 1700,
      "圈": 1701,
      "國": 1702,
      "圏": 1703,
      "園": 1704,
      "土": 1705,
      "圣": 1706,
      "圧": 1707,
      "在": 1708,
      "圭": 1709,
      "地": 1710,
      "圳": 1711,
      "场": 1712,
      "圾": 1713,
      "址": 1714,
      "坂": 1715,
      "均": 1716,
      "坊": 1717,
      "坍": 1718,
      "坎": 1719,
      "坏": 1720,
      "坐": 1721,
      "坑": 1722,
      "块": 1723,
      "坚": 1724,
      "坛": 1725,
      "坝": 1726,
      "坞": 1727,
      "坟": 1728,
      "坠": 1729,
      "坡": 1730,
      "坤": 1731,
      "坦": 1732,
      "坨": 1733,
      "坪": 1734,
      "坷": 1735,
      "垂": 1736,
      "垃": 1737,
      "垄": 1738,
      "垅": 1739,
      "型": 1740,
      "垒": 1741,
      "垛": 1742,
      "垢": 1743,
      "垣": 1744,
      "垩": 1745,
      "垫": 1746,
      "垮": 1747,
      "埃": 1748,
      "埋": 1749,
      "城": 1750,
      "埔": 1751,
      "域": 1752,
      "埠": 1753,
      "執": 1754,
      "培": 1755,
      "基": 1756,
      "埼": 1757,
      "堀": 1758,
      "堂": 1759,
      "堅": 1760,
      "堆": 1761,
      "堇": 1762,
      "堕": 1763,
      "堡": 1764,
      "堤": 1765,
      "堪": 1766,
      "堯": 1767,
      "報": 1768,
      "場": 1769,
      "堵": 1770,
      "塁": 1771,
      "塊": 1772,
      "塌": 1773,
      "塑": 1774,
      "塔": 1775,
      "塗": 1776,
      "塘": 1777,
      "塚": 1778,
      "塞": 1779,
      "塩": 1780,
      "填": 1781,
      "塵": 1782,
      "塾": 1783,
      "境": 1784,
      "墅": 1785,
      "墉": 1786,
      "墓": 1787,
      "増": 1788,
      "墙": 1789,
      "墜": 1790,
      "增": 1791,
      "墟": 1792,
      "墨": 1793,
      "墩": 1794,
      "墳": 1795,
      "壁": 1796,
      "壇": 1797,
      "壊": 1798,
      "壌": 1799,
      "壑": 1800,
      "壕": 1801,
      "壤": 1802,
      "士": 1803,
      "壮": 1804,
      "声": 1805,
      "壱": 1806,
      "売": 1807,
      "壳": 1808,
      "壶": 1809,
      "壺": 1810,
      "处": 1811,
      "备": 1812,
      "変": 1813,
      "复": 1814,
      "夏": 1815,
      "夕": 1816,
      "外": 1817,
      "多": 1818,
      "夜": 1819,
      "够": 1820,
      "夢": 1821,
      "大": 1822,
      "天": 1823,
      "太": 1824,
      "夫": 1825,
      "夭": 1826,
      "央": 1827,
      "夯": 1828,
      "失": 1829,
      "头": 1830,
      "夷": 1831,
      "夸": 1832,
      "夹": 1833,
      "夺": 1834,
      "奂": 1835,
      "奄": 1836,
      "奇": 1837,
      "奈": 1838,
      "奉": 1839,
      "奋": 1840,
      "奎": 1841,
      "奏": 1842,
      "契": 1843,
      "奔": 1844,
      "奕": 1845,
      "奖": 1846,
      "套": 1847,
      "奘": 1848,
      "奚": 1849,
      "奠": 1850,
      "奢": 1851,
      "奥": 1852,
      "奧": 1853,
      "奨": 1854,
      "奪": 1855,
      "奮": 1856,
      "女": 1857,
      "奴": 1858,
      "奶": 1859,
      "奸": 1860,
      "她": 1861,
      "好": 1862,
      "如": 1863,
      "妃": 1864,
      "妄": 1865,
      "妆": 1866,
      "妇": 1867,
      "妈": 1868,
      "妊": 1869,
      "妍": 1870,
      "妒": 1871,
      "妓": 1872,
      "妖": 1873,
      "妙": 1874,
      "妥": 1875,
      "妨": 1876,
      "妩": 1877,
      "妬": 1878,
      "妮": 1879,
      "妲": 1880,
      "妳": 1881,
      "妹": 1882,
      "妻": 1883,
      "妾": 1884,
      "姆": 1885,
      "姉": 1886,
      "姊": 1887,
      "始": 1888,
      "姐": 1889,
      "姑": 1890,
      "姓": 1891,
      "委": 1892,
      "姗": 1893,
      "姚": 1894,
      "姜": 1895,
      "姝": 1896,
      "姣": 1897,
      "姥": 1898,
      "姦": 1899,
      "姨": 1900,
      "姪": 1901,
      "姫": 1902,
      "姬": 1903,
      "姻": 1904,
      "姿": 1905,
      "威": 1906,
      "娃": 1907,
      "娅": 1908,
      "娆": 1909,
      "娇": 1910,
      "娘": 1911,
      "娜": 1912,
      "娟": 1913,
      "娠": 1914,
      "娥": 1915,
      "娩": 1916,
      "娯": 1917,
      "娱": 1918,
      "娴": 1919,
      "娶": 1920,
      "娼": 1921,
      "婀": 1922,
      "婆": 1923,
      "婉": 1924,
      "婊": 1925,
      "婕": 1926,
      "婚": 1927,
      "婦": 1928,
      "婧": 1929,
      "婪": 1930,
      "婭": 1931,
      "婴": 1932,
      "婵": 1933,
      "婷": 1934,
      "婿": 1935,
      "媒": 1936,
      "媚": 1937,
      "媛": 1938,
      "媲": 1939,
      "媳": 1940,
      "嫁": 1941,
      "嫂": 1942,
      "嫉": 1943,
      "嫌": 1944,
      "嫔": 1945,
      "嫖": 1946,
      "嫡": 1947,
      "嫣": 1948,
      "嫦": 1949,
      "嫩": 1950,
      "嬉": 1951,
      "嬋": 1952,
      "嬌": 1953,
      "嬛": 1954,
      "嬢": 1955,
      "嬪": 1956,
      "嬷": 1957,
      "子": 1958,
      "孑": 1959,
      "孔": 1960,
      "孕": 1961,
      "字": 1962,
      "存": 1963,
      "孙": 1964,
      "孚": 1965,
      "孜": 1966,
      "孝": 1967,
      "孟": 1968,
      "孢": 1969,
      "季": 1970,
      "孤": 1971,
      "学": 1972,
      "孩": 1973,
      "孪": 1974,
      "孫": 1975,
      "孵": 1976,
      "學": 1977,
      "孽": 1978,
      "宁": 1979,
      "它": 1980,
      "宅": 1981,
      "宇": 1982,
      "守": 1983,
      "安": 1984,
      "宋": 1985,
      "完": 1986,
      "宏": 1987,
      "宕": 1988,
      "宗": 1989,
      "官": 1990,
      "宙": 1991,
      "定": 1992,
      "宛": 1993,
      "宜": 1994,
      "宝": 1995,
      "实": 1996,
      "実": 1997,
      "宠": 1998,
      "审": 1999,
      "客": 2000,
      "宣": 2001,
      "室": 2002,
      "宥": 2003,
      "宪": 2004,
      "宫": 2005,
      "宮": 2006,
      "宰": 2007,
      "害": 2008,
      "宴": 2009,
      "宵": 2010,
      "家": 2011,
      "宸": 2012,
      "容": 2013,
      "宽": 2014,
      "宾": 2015,
      "宿": 2016,
      "寂": 2017,
      "寄": 2018,
      "寅": 2019,
      "密": 2020,
      "寇": 2021,
      "富": 2022,
      "寐": 2023,
      "寒": 2024,
      "寓": 2025,
      "寛": 2026,
      "寝": 2027,
      "寞": 2028,
      "察": 2029,
      "寡": 2030,
      "寥": 2031,
      "實": 2032,
      "寧": 2033,
      "寨": 2034,
      "審": 2035,
      "寮": 2036,
      "寵": 2037,
      "寸": 2038,
      "对": 2039,
      "寺": 2040,
      "寻": 2041,
      "导": 2042,
      "対": 2043,
      "寿": 2044,
      "封": 2045,
      "専": 2046,
      "射": 2047,
      "将": 2048,
      "將": 2049,
      "尉": 2050,
      "尊": 2051,
      "尋": 2052,
      "導": 2053,
      "小": 2054,
      "少": 2055,
      "尔": 2056,
      "尕": 2057,
      "尖": 2058,
      "尘": 2059,
      "尚": 2060,
      "尝": 2061,
      "尤": 2062,
      "尧": 2063,
      "尬": 2064,
      "就": 2065,
      "尴": 2066,
      "尸": 2067,
      "尹": 2068,
      "尺": 2069,
      "尻": 2070,
      "尼": 2071,
      "尽": 2072,
      "尾": 2073,
      "尿": 2074,
      "局": 2075,
      "屁": 2076,
      "层": 2077,
      "居": 2078,
      "屈": 2079,
      "屉": 2080,
      "届": 2081,
      "屋": 2082,
      "屍": 2083,
      "屎": 2084,
      "屏": 2085,
      "屑": 2086,
      "屓": 2087,
      "展": 2088,
      "属": 2089,
      "屠": 2090,
      "屡": 2091,
      "層": 2092,
      "履": 2093,
      "屯": 2094,
      "山": 2095,
      "屹": 2096,
      "屿": 2097,
      "岁": 2098,
      "岂": 2099,
      "岌": 2100,
      "岐": 2101,
      "岑": 2102,
      "岔": 2103,
      "岖": 2104,
      "岗": 2105,
      "岚": 2106,
      "岛": 2107,
      "岡": 2108,
      "岩": 2109,
      "岬": 2110,
      "岭": 2111,
      "岱": 2112,
      "岳": 2113,
      "岷": 2114,
      "岸": 2115,
      "峋": 2116,
      "峙": 2117,
      "峠": 2118,
      "峡": 2119,
      "峥": 2120,
      "峦": 2121,
      "峨": 2122,
      "峭": 2123,
      "峰": 2124,
      "島": 2125,
      "峻": 2126,
      "崇": 2127,
      "崎": 2128,
      "崑": 2129,
      "崔": 2130,
      "崖": 2131,
      "崗": 2132,
      "崙": 2133,
      "崚": 2134,
      "崛": 2135,
      "崢": 2136,
      "崩": 2137,
      "崭": 2138,
      "崴": 2139,
      "崽": 2140,
      "嵌": 2141,
      "嵐": 2142,
      "嵘": 2143,
      "嵚": 2144,
      "嵩": 2145,
      "嶋": 2146,
      "嶙": 2147,
      "嶺": 2148,
      "嶼": 2149,
      "巅": 2150,
      "巍": 2151,
      "川": 2152,
      "州": 2153,
      "巡": 2154,
      "巢": 2155,
      "巣": 2156,
      "工": 2157,
      "左": 2158,
      "巧": 2159,
      "巨": 2160,
      "巩": 2161,
      "巫": 2162,
      "差": 2163,
      "己": 2164,
      "已": 2165,
      "巳": 2166,
      "巴": 2167,
      "巷": 2168,
      "巻": 2169,
      "巾": 2170,
      "币": 2171,
      "市": 2172,
      "布": 2173,
      "帅": 2174,
      "帆": 2175,
      "师": 2176,
      "希": 2177,
      "帐": 2178,
      "帕": 2179,
      "帖": 2180,
      "帘": 2181,
      "帚": 2182,
      "帜": 2183,
      "帝": 2184,
      "帥": 2185,
      "带": 2186,
      "帧": 2187,
      "師": 2188,
      "席": 2189,
      "帮": 2190,
      "帯": 2191,
      "帰": 2192,
      "帳": 2193,
      "帶": 2194,
      "帷": 2195,
      "常": 2196,
      "帽": 2197,
      "幂": 2198,
      "幅": 2199,
      "幇": 2200,
      "幌": 2201,
      "幕": 2202,
      "幣": 2203,
      "干": 2204,
      "平": 2205,
      "年": 2206,
      "并": 2207,
      "幸": 2208,
      "幹": 2209,
      "幻": 2210,
      "幼": 2211,
      "幽": 2212,
      "幾": 2213,
      "广": 2214,
      "庁": 2215,
      "広": 2216,
      "庄": 2217,
      "庆": 2218,
      "庇": 2219,
      "床": 2220,
      "序": 2221,
      "庐": 2222,
      "库": 2223,
      "应": 2224,
      "底": 2225,
      "店": 2226,
      "庙": 2227,
      "庚": 2228,
      "府": 2229,
      "庞": 2230,
      "废": 2231,
      "度": 2232,
      "座": 2233,
      "庫": 2234,
      "庭": 2235,
      "庶": 2236,
      "康": 2237,
      "庸": 2238,
      "廃": 2239,
      "廈": 2240,
      "廉": 2241,
      "廊": 2242,
      "廖": 2243,
      "廬": 2244,
      "延": 2245,
      "廷": 2246,
      "建": 2247,
      "廻": 2248,
      "开": 2249,
      "弁": 2250,
      "异": 2251,
      "弃": 2252,
      "弄": 2253,
      "弈": 2254,
      "弊": 2255,
      "弋": 2256,
      "式": 2257,
      "弓": 2258,
      "弔": 2259,
      "引": 2260,
      "弗": 2261,
      "弘": 2262,
      "弛": 2263,
      "弟": 2264,
      "张": 2265,
      "弥": 2266,
      "弦": 2267,
      "弧": 2268,
      "弯": 2269,
      "弱": 2270,
      "張": 2271,
      "強": 2272,
      "弹": 2273,
      "强": 2274,
      "弾": 2275,
      "彊": 2276,
      "归": 2277,
      "当": 2278,
      "录": 2279,
      "彗": 2280,
      "形": 2281,
      "彤": 2282,
      "彦": 2283,
      "彧": 2284,
      "彩": 2285,
      "彪": 2286,
      "彫": 2287,
      "彬": 2288,
      "彭": 2289,
      "彰": 2290,
      "影": 2291,
      "彷": 2292,
      "役": 2293,
      "彻": 2294,
      "彼": 2295,
      "彿": 2296,
      "往": 2297,
      "征": 2298,
      "径": 2299,
      "待": 2300,
      "很": 2301,
      "徊": 2302,
      "律": 2303,
      "後": 2304,
      "徐": 2305,
      "徒": 2306,
      "従": 2307,
      "徕": 2308,
      "得": 2309,
      "徘": 2310,
      "徙": 2311,
      "御": 2312,
      "徨": 2313,
      "復": 2314,
      "循": 2315,
      "微": 2316,
      "徳": 2317,
      "徴": 2318,
      "徵": 2319,
      "德": 2320,
      "徹": 2321,
      "徽": 2322,
      "心": 2323,
      "必": 2324,
      "忆": 2325,
      "忌": 2326,
      "忍": 2327,
      "忏": 2328,
      "忒": 2329,
      "忖": 2330,
      "志": 2331,
      "忘": 2332,
      "忙": 2333,
      "応": 2334,
      "忠": 2335,
      "忡": 2336,
      "忤": 2337,
      "忧": 2338,
      "快": 2339,
      "念": 2340,
      "忽": 2341,
      "怀": 2342,
      "态": 2343,
      "怎": 2344,
      "怒": 2345,
      "怕": 2346,
      "怖": 2347,
      "怜": 2348,
      "思": 2349,
      "怠": 2350,
      "怡": 2351,
      "急": 2352,
      "怦": 2353,
      "性": 2354,
      "怨": 2355,
      "怪": 2356,
      "怯": 2357,
      "总": 2358,
      "怼": 2359,
      "恋": 2360,
      "恍": 2361,
      "恐": 2362,
      "恒": 2363,
      "恕": 2364,
      "恙": 2365,
      "恢": 2366,
      "恣": 2367,
      "恤": 2368,
      "恥": 2369,
      "恨": 2370,
      "恩": 2371,
      "恪": 2372,
      "恬": 2373,
      "恭": 2374,
      "息": 2375,
      "恰": 2376,
      "恳": 2377,
      "恵": 2378,
      "恶": 2379,
      "恹": 2380,
      "恺": 2381,
      "恼": 2382,
      "悄": 2383,
      "悉": 2384,
      "悍": 2385,
      "悔": 2386,
      "悖": 2387,
      "悚": 2388,
      "悟": 2389,
      "悠": 2390,
      "患": 2391,
      "悦": 2392,
      "您": 2393,
      "悩": 2394,
      "悪": 2395,
      "悬": 2396,
      "悯": 2397,
      "悲": 2398,
      "悸": 2399,
      "悼": 2400,
      "情": 2401,
      "惇": 2402,
      "惊": 2403,
      "惋": 2404,
      "惑": 2405,
      "惕": 2406,
      "惚": 2407,
      "惜": 2408,
      "惠": 2409,
      "惣": 2410,
      "惧": 2411,
      "惨": 2412,
      "惩": 2413,
      "惫": 2414,
      "惭": 2415,
      "惯": 2416,
      "惰": 2417,
      "想": 2418,
      "惹": 2419,
      "愁": 2420,
      "愈": 2421,
      "愉": 2422,
      "意": 2423,
      "愕": 2424,
      "愚": 2425,
      "愛": 2426,
      "感": 2427,
      "愣": 2428,
      "愤": 2429,
      "愧": 2430,
      "愷": 2431,
      "愿": 2432,
      "慈": 2433,
      "態": 2434,
      "慌": 2435,
      "慎": 2436,
      "慑": 2437,
      "慕": 2438,
      "慜": 2439,
      "慢": 2440,
      "慣": 2441,
      "慧": 2442,
      "慨": 2443,
      "慮": 2444,
      "慰": 2445,
      "慶": 2446,
      "慷": 2447,
      "憂": 2448,
      "憊": 2449,
      "憋": 2450,
      "憎": 2451,
      "憐": 2452,
      "憑": 2453,
      "憚": 2454,
      "憤": 2455,
      "憧": 2456,
      "憨": 2457,
      "憩": 2458,
      "憬": 2459,
      "憲": 2460,
      "憶": 2461,
      "憾": 2462,
      "懂": 2463,
      "懇": 2464,
      "懈": 2465,
      "應": 2466,
      "懊": 2467,
      "懋": 2468,
      "懐": 2469,
      "懒": 2470,
      "懦": 2471,
      "懲": 2472,
      "懸": 2473,
      "懿": 2474,
      "戈": 2475,
      "戎": 2476,
      "戏": 2477,
      "成": 2478,
      "我": 2479,
      "戒": 2480,
      "或": 2481,
      "战": 2482,
      "戚": 2483,
      "戛": 2484,
      "戟": 2485,
      "戦": 2486,
      "戩": 2487,
      "截": 2488,
      "戬": 2489,
      "戮": 2490,
      "戯": 2491,
      "戲": 2492,
      "戳": 2493,
      "戴": 2494,
      "戶": 2495,
      "户": 2496,
      "戸": 2497,
      "戻": 2498,
      "房": 2499,
      "所": 2500,
      "扁": 2501,
      "扇": 2502,
      "扉": 2503,
      "手": 2504,
      "才": 2505,
      "扎": 2506,
      "扑": 2507,
      "扒": 2508,
      "打": 2509,
      "扔": 2510,
      "払": 2511,
      "托": 2512,
      "扛": 2513,
      "扣": 2514,
      "执": 2515,
      "扩": 2516,
      "扪": 2517,
      "扫": 2518,
      "扬": 2519,
      "扭": 2520,
      "扮": 2521,
      "扯": 2522,
      "扰": 2523,
      "扱": 2524,
      "扳": 2525,
      "扶": 2526,
      "批": 2527,
      "扼": 2528,
      "找": 2529,
      "承": 2530,
      "技": 2531,
      "抄": 2532,
      "抉": 2533,
      "把": 2534,
      "抑": 2535,
      "抒": 2536,
      "抓": 2537,
      "投": 2538,
      "抖": 2539,
      "抗": 2540,
      "折": 2541,
      "抚": 2542,
      "抛": 2543,
      "抜": 2544,
      "択": 2545,
      "抠": 2546,
      "抢": 2547,
      "护": 2548,
      "报": 2549,
      "抨": 2550,
      "披": 2551,
      "抬": 2552,
      "抱": 2553,
      "抵": 2554,
      "抹": 2555,
      "押": 2556,
      "抽": 2557,
      "拄": 2558,
      "担": 2559,
      "拆": 2560,
      "拇": 2561,
      "拈": 2562,
      "拉": 2563,
      "拌": 2564,
      "拍": 2565,
      "拐": 2566,
      "拒": 2567,
      "拓": 2568,
      "拔": 2569,
      "拖": 2570,
      "拗": 2571,
      "拘": 2572,
      "拙": 2573,
      "招": 2574,
      "拜": 2575,
      "拝": 2576,
      "拟": 2577,
      "拠": 2578,
      "拡": 2579,
      "拢": 2580,
      "拣": 2581,
      "拥": 2582,
      "拦": 2583,
      "拧": 2584,
      "拨": 2585,
      "择": 2586,
      "括": 2587,
      "拭": 2588,
      "拮": 2589,
      "拯": 2590,
      "拱": 2591,
      "拳": 2592,
      "拴": 2593,
      "拶": 2594,
      "拷": 2595,
      "拼": 2596,
      "拾": 2597,
      "拿": 2598,
      "持": 2599,
      "挂": 2600,
      "指": 2601,
      "按": 2602,
      "挑": 2603,
      "挖": 2604,
      "挙": 2605,
      "挚": 2606,
      "挛": 2607,
      "挝": 2608,
      "挟": 2609,
      "挠": 2610,
      "挡": 2611,
      "挣": 2612,
      "挤": 2613,
      "挥": 2614,
      "挨": 2615,
      "挪": 2616,
      "挫": 2617,
      "振": 2618,
      "挺": 2619,
      "挽": 2620,
      "挿": 2621,
      "捂": 2622,
      "捅": 2623,
      "捆": 2624,
      "捉": 2625,
      "捍": 2626,
      "捏": 2627,
      "捐": 2628,
      "捕": 2629,
      "捗": 2630,
      "捜": 2631,
      "捞": 2632,
      "损": 2633,
      "捡": 2634,
      "换": 2635,
      "捣": 2636,
      "捧": 2637,
      "捨": 2638,
      "据": 2639,
      "捶": 2640,
      "捷": 2641,
      "捻": 2642,
      "掀": 2643,
      "掂": 2644,
      "掃": 2645,
      "授": 2646,
      "掉": 2647,
      "掌": 2648,
      "掏": 2649,
      "掐": 2650,
      "排": 2651,
      "掘": 2652,
      "掛": 2653,
      "掠": 2654,
      "採": 2655,
      "探": 2656,
      "接": 2657,
      "控": 2658,
      "推": 2659,
      "掩": 2660,
      "措": 2661,
      "掮": 2662,
      "掰": 2663,
      "掲": 2664,
      "掳": 2665,
      "掴": 2666,
      "掷": 2667,
      "掸": 2668,
      "掺": 2669,
      "掻": 2670,
      "揃": 2671,
      "揄": 2672,
      "揉": 2673,
      "揍": 2674,
      "描": 2675,
      "提": 2676,
      "插": 2677,
      "揚": 2678,
      "換": 2679,
      "握": 2680,
      "揣": 2681,
      "揪": 2682,
      "揭": 2683,
      "揮": 2684,
      "援": 2685,
      "揶": 2686,
      "揺": 2687,
      "揽": 2688,
      "搁": 2689,
      "搂": 2690,
      "搅": 2691,
      "損": 2692,
      "搏": 2693,
      "搐": 2694,
      "搓": 2695,
      "搜": 2696,
      "搞": 2697,
      "搡": 2698,
      "搪": 2699,
      "搬": 2700,
      "搭": 2701,
      "携": 2702,
      "搾": 2703,
      "摂": 2704,
      "摄": 2705,
      "摆": 2706,
      "摇": 2707,
      "摊": 2708,
      "摒": 2709,
      "摔": 2710,
      "摘": 2711,
      "摧": 2712,
      "摩": 2713,
      "摸": 2714,
      "撃": 2715,
      "撅": 2716,
      "撇": 2717,
      "撑": 2718,
      "撒": 2719,
      "撕": 2720,
      "撞": 2721,
      "撤": 2722,
      "撩": 2723,
      "撫": 2724,
      "播": 2725,
      "撮": 2726,
      "撰": 2727,
      "撲": 2728,
      "撼": 2729,
      "擁": 2730,
      "擂": 2731,
      "擅": 2732,
      "擊": 2733,
      "操": 2734,
      "擎": 2735,
      "擘": 2736,
      "擞": 2737,
      "擢": 2738,
      "擦": 2739,
      "擬": 2740,
      "擲": 2741,
      "擺": 2742,
      "攀": 2743,
      "攒": 2744,
      "攣": 2745,
      "攫": 2746,
      "攬": 2747,
      "支": 2748,
      "收": 2749,
      "攸": 2750,
      "改": 2751,
      "攻": 2752,
      "放": 2753,
      "政": 2754,
      "故": 2755,
      "效": 2756,
      "敌": 2757,
      "敏": 2758,
      "救": 2759,
      "敖": 2760,
      "敗": 2761,
      "教": 2762,
      "敛": 2763,
      "敞": 2764,
      "敢": 2765,
      "散": 2766,
      "敦": 2767,
      "敬": 2768,
      "数": 2769,
      "敲": 2770,
      "整": 2771,
      "敵": 2772,
      "敷": 2773,
      "數": 2774,
      "文": 2775,
      "斉": 2776,
      "斋": 2777,
      "斌": 2778,
      "斎": 2779,
      "斐": 2780,
      "斑": 2781,
      "斓": 2782,
      "斗": 2783,
      "料": 2784,
      "斛": 2785,
      "斜": 2786,
      "斤": 2787,
      "斥": 2788,
      "斧": 2789,
      "斩": 2790,
      "斬": 2791,
      "断": 2792,
      "斯": 2793,
      "新": 2794,
      "方": 2795,
      "於": 2796,
      "施": 2797,
      "旁": 2798,
      "旅": 2799,
      "旋": 2800,
      "族": 2801,
      "旗": 2802,
      "无": 2803,
      "既": 2804,
      "日": 2805,
      "旦": 2806,
      "旧": 2807,
      "旨": 2808,
      "早": 2809,
      "旬": 2810,
      "旭": 2811,
      "旮": 2812,
      "旯": 2813,
      "旱": 2814,
      "时": 2815,
      "旷": 2816,
      "旺": 2817,
      "昀": 2818,
      "昂": 2819,
      "昆": 2820,
      "昇": 2821,
      "昊": 2822,
      "昌": 2823,
      "明": 2824,
      "昏": 2825,
      "易": 2826,
      "昔": 2827,
      "昕": 2828,
      "昙": 2829,
      "星": 2830,
      "映": 2831,
      "春": 2832,
      "昧": 2833,
      "昨": 2834,
      "昭": 2835,
      "是": 2836,
      "昱": 2837,
      "昵": 2838,
      "昶": 2839,
      "昼": 2840,
      "显": 2841,
      "晁": 2842,
      "時": 2843,
      "晃": 2844,
      "晋": 2845,
      "晏": 2846,
      "晒": 2847,
      "晓": 2848,
      "晕": 2849,
      "晖": 2850,
      "晗": 2851,
      "晚": 2852,
      "晟": 2853,
      "晤": 2854,
      "晦": 2855,
      "晨": 2856,
      "晩": 2857,
      "普": 2858,
      "景": 2859,
      "晰": 2860,
      "晴": 2861,
      "晶": 2862,
      "智": 2863,
      "晾": 2864,
      "暁": 2865,
      "暂": 2866,
      "暇": 2867,
      "暉": 2868,
      "暑": 2869,
      "暖": 2870,
      "暗": 2871,
      "暢": 2872,
      "暦": 2873,
      "暧": 2874,
      "暨": 2875,
      "暫": 2876,
      "暮": 2877,
      "暴": 2878,
      "暻": 2879,
      "曇": 2880,
      "曉": 2881,
      "曖": 2882,
      "曙": 2883,
      "曜": 2884,
      "曝": 2885,
      "曦": 2886,
      "曲": 2887,
      "曳": 2888,
      "更": 2889,
      "書": 2890,
      "曹": 2891,
      "曼": 2892,
      "曽": 2893,
      "曾": 2894,
      "替": 2895,
      "最": 2896,
      "會": 2897,
      "月": 2898,
      "有": 2899,
      "朋": 2900,
      "服": 2901,
      "朔": 2902,
      "朗": 2903,
      "望": 2904,
      "朝": 2905,
      "期": 2906,
      "木": 2907,
      "未": 2908,
      "末": 2909,
      "本": 2910,
      "札": 2911,
      "术": 2912,
      "朱": 2913,
      "朴": 2914,
      "朵": 2915,
      "机": 2916,
      "朽": 2917,
      "杀": 2918,
      "杂": 2919,
      "权": 2920,
      "杆": 2921,
      "杉": 2922,
      "李": 2923,
      "杏": 2924,
      "材": 2925,
      "村": 2926,
      "杓": 2927,
      "杖": 2928,
      "杜": 2929,
      "杞": 2930,
      "束": 2931,
      "杠": 2932,
      "条": 2933,
      "来": 2934,
      "杨": 2935,
      "杭": 2936,
      "杯": 2937,
      "杰": 2938,
      "東": 2939,
      "杳": 2940,
      "杵": 2941,
      "松": 2942,
      "板": 2943,
      "极": 2944,
      "构": 2945,
      "枉": 2946,
      "析": 2947,
      "枕": 2948,
      "林": 2949,
      "枚": 2950,
      "果": 2951,
      "枝": 2952,
      "枠": 2953,
      "枢": 2954,
      "枣": 2955,
      "枪": 2956,
      "枫": 2957,
      "枭": 2958,
      "枯": 2959,
      "架": 2960,
      "枷": 2961,
      "枸": 2962,
      "柄": 2963,
      "柏": 2964,
      "某": 2965,
      "柑": 2966,
      "柒": 2967,
      "染": 2968,
      "柔": 2969,
      "柚": 2970,
      "柜": 2971,
      "柞": 2972,
      "柠": 2973,
      "查": 2974,
      "柩": 2975,
      "柬": 2976,
      "柯": 2977,
      "柱": 2978,
      "柳": 2979,
      "柴": 2980,
      "柵": 2981,
      "査": 2982,
      "柽": 2983,
      "柿": 2984,
      "栄": 2985,
      "栅": 2986,
      "标": 2987,
      "栋": 2988,
      "栏": 2989,
      "树": 2990,
      "栓": 2991,
      "栖": 2992,
      "栗": 2993,
      "校": 2994,
      "栢": 2995,
      "株": 2996,
      "样": 2997,
      "核": 2998,
      "根": 2999,
      "格": 3000,
      "栽": 3001,
      "栾": 3002,
      "桁": 3003,
      "桂": 3004,
      "桃": 3005,
      "桅": 3006,
      "框": 3007,
      "案": 3008,
      "桉": 3009,
      "桌": 3010,
      "桐": 3011,
      "桑": 3012,
      "桓": 3013,
      "桔": 3014,
      "桜": 3015,
      "桟": 3016,
      "档": 3017,
      "桥": 3018,
      "桦": 3019,
      "桨": 3020,
      "桩": 3021,
      "桶": 3022,
      "桿": 3023,
      "梁": 3024,
      "梅": 3025,
      "梓": 3026,
      "梗": 3027,
      "條": 3028,
      "梢": 3029,
      "梦": 3030,
      "梧": 3031,
      "梨": 3032,
      "梭": 3033,
      "梯": 3034,
      "械": 3035,
      "梱": 3036,
      "梳": 3037,
      "梵": 3038,
      "检": 3039,
      "棄": 3040,
      "棉": 3041,
      "棋": 3042,
      "棍": 3043,
      "棒": 3044,
      "棕": 3045,
      "棘": 3046,
      "棚": 3047,
      "棟": 3048,
      "棠": 3049,
      "棣": 3050,
      "森": 3051,
      "棱": 3052,
      "棲": 3053,
      "棵": 3054,
      "棺": 3055,
      "椅": 3056,
      "椋": 3057,
      "植": 3058,
      "椎": 3059,
      "椒": 3060,
      "検": 3061,
      "椭": 3062,
      "椰": 3063,
      "椹": 3064,
      "楂": 3065,
      "楊": 3066,
      "楓": 3067,
      "楔": 3068,
      "楕": 3069,
      "楚": 3070,
      "楞": 3071,
      "楠": 3072,
      "業": 3073,
      "極": 3074,
      "楼": 3075,
      "楽": 3076,
      "概": 3077,
      "榄": 3078,
      "榈": 3079,
      "榔": 3080,
      "榕": 3081,
      "榜": 3082,
      "榨": 3083,
      "榭": 3084,
      "榮": 3085,
      "榴": 3086,
      "榻": 3087,
      "構": 3088,
      "槍": 3089,
      "槐": 3090,
      "様": 3091,
      "槛": 3092,
      "槟": 3093,
      "槽": 3094,
      "槿": 3095,
      "樂": 3096,
      "樊": 3097,
      "標": 3098,
      "樟": 3099,
      "模": 3100,
      "樣": 3101,
      "権": 3102,
      "横": 3103,
      "樱": 3104,
      "樵": 3105,
      "樹": 3106,
      "樺": 3107,
      "樽": 3108,
      "橄": 3109,
      "橇": 3110,
      "橋": 3111,
      "橘": 3112,
      "橙": 3113,
      "機": 3114,
      "橡": 3115,
      "橱": 3116,
      "檀": 3117,
      "檗": 3118,
      "檬": 3119,
      "檻": 3120,
      "櫛": 3121,
      "欄": 3122,
      "權": 3123,
      "欒": 3124,
      "欠": 3125,
      "次": 3126,
      "欢": 3127,
      "欣": 3128,
      "欧": 3129,
      "欲": 3130,
      "欺": 3131,
      "欽": 3132,
      "款": 3133,
      "歆": 3134,
      "歇": 3135,
      "歉": 3136,
      "歌": 3137,
      "歓": 3138,
      "止": 3139,
      "正": 3140,
      "此": 3141,
      "步": 3142,
      "武": 3143,
      "歧": 3144,
      "歩": 3145,
      "歪": 3146,
      "歯": 3147,
      "歳": 3148,
      "歴": 3149,
      "歷": 3150,
      "歸": 3151,
      "死": 3152,
      "歼": 3153,
      "殃": 3154,
      "殆": 3155,
      "殉": 3156,
      "殊": 3157,
      "残": 3158,
      "殖": 3159,
      "殡": 3160,
      "殴": 3161,
      "段": 3162,
      "殷": 3163,
      "殺": 3164,
      "殻": 3165,
      "殼": 3166,
      "殿": 3167,
      "毀": 3168,
      "毁": 3169,
      "毂": 3170,
      "毅": 3171,
      "毋": 3172,
      "母": 3173,
      "毎": 3174,
      "每": 3175,
      "毒": 3176,
      "毓": 3177,
      "比": 3178,
      "毕": 3179,
      "毙": 3180,
      "毛": 3181,
      "毡": 3182,
      "毫": 3183,
      "毯": 3184,
      "氏": 3185,
      "民": 3186,
      "氓": 3187,
      "气": 3188,
      "気": 3189,
      "氛": 3190,
      "氟": 3191,
      "氢": 3192,
      "氣": 3193,
      "氦": 3194,
      "氧": 3195,
      "氨": 3196,
      "氪": 3197,
      "氮": 3198,
      "氯": 3199,
      "氰": 3200,
      "水": 3201,
      "氷": 3202,
      "永": 3203,
      "汀": 3204,
      "汁": 3205,
      "求": 3206,
      "汇": 3207,
      "汉": 3208,
      "汎": 3209,
      "汐": 3210,
      "汗": 3211,
      "汚": 3212,
      "汛": 3213,
      "汝": 3214,
      "汞": 3215,
      "江": 3216,
      "池": 3217,
      "污": 3218,
      "汤": 3219,
      "汪": 3220,
      "汰": 3221,
      "汲": 3222,
      "汶": 3223,
      "汹": 3224,
      "決": 3225,
      "汽": 3226,
      "汾": 3227,
      "沁": 3228,
      "沃": 3229,
      "沅": 3230,
      "沈": 3231,
      "沉": 3232,
      "沌": 3233,
      "沐": 3234,
      "沒": 3235,
      "沓": 3236,
      "沖": 3237,
      "沙": 3238,
      "沛": 3239,
      "沟": 3240,
      "没": 3241,
      "沢": 3242,
      "沣": 3243,
      "沥": 3244,
      "沦": 3245,
      "沧": 3246,
      "沫": 3247,
      "沮": 3248,
      "沱": 3249,
      "河": 3250,
      "沸": 3251,
      "油": 3252,
      "治": 3253,
      "沼": 3254,
      "沽": 3255,
      "沾": 3256,
      "沿": 3257,
      "況": 3258,
      "泄": 3259,
      "泉": 3260,
      "泊": 3261,
      "泌": 3262,
      "泓": 3263,
      "法": 3264,
      "泛": 3265,
      "泞": 3266,
      "泡": 3267,
      "波": 3268,
      "泣": 3269,
      "泥": 3270,
      "注": 3271,
      "泪": 3272,
      "泫": 3273,
      "泰": 3274,
      "泳": 3275,
      "泵": 3276,
      "泸": 3277,
      "泻": 3278,
      "泼": 3279,
      "泽": 3280,
      "泾": 3281,
      "洁": 3282,
      "洋": 3283,
      "洒": 3284,
      "洗": 3285,
      "洙": 3286,
      "洛": 3287,
      "洞": 3288,
      "津": 3289,
      "洩": 3290,
      "洪": 3291,
      "洲": 3292,
      "洵": 3293,
      "活": 3294,
      "洼": 3295,
      "洽": 3296,
      "派": 3297,
      "流": 3298,
      "浃": 3299,
      "浄": 3300,
      "浅": 3301,
      "浆": 3302,
      "浇": 3303,
      "浊": 3304,
      "测": 3305,
      "济": 3306,
      "浏": 3307,
      "浑": 3308,
      "浒": 3309,
      "浓": 3310,
      "浙": 3311,
      "浚": 3312,
      "浜": 3313,
      "浣": 3314,
      "浦": 3315,
      "浩": 3316,
      "浪": 3317,
      "浮": 3318,
      "浴": 3319,
      "海": 3320,
      "浸": 3321,
      "涂": 3322,
      "涅": 3323,
      "涇": 3324,
      "消": 3325,
      "涉": 3326,
      "涌": 3327,
      "涎": 3328,
      "涓": 3329,
      "涕": 3330,
      "涙": 3331,
      "涛": 3332,
      "涜": 3333,
      "涝": 3334,
      "涡": 3335,
      "涣": 3336,
      "涤": 3337,
      "润": 3338,
      "涨": 3339,
      "涩": 3340,
      "涯": 3341,
      "液": 3342,
      "涵": 3343,
      "涸": 3344,
      "涼": 3345,
      "淀": 3346,
      "淄": 3347,
      "淅": 3348,
      "淆": 3349,
      "淇": 3350,
      "淋": 3351,
      "淌": 3352,
      "淑": 3353,
      "淘": 3354,
      "淡": 3355,
      "淤": 3356,
      "淫": 3357,
      "淮": 3358,
      "深": 3359,
      "淳": 3360,
      "淵": 3361,
      "混": 3362,
      "淹": 3363,
      "添": 3364,
      "淼": 3365,
      "清": 3366,
      "渇": 3367,
      "済": 3368,
      "渉": 3369,
      "渊": 3370,
      "渋": 3371,
      "渍": 3372,
      "渎": 3373,
      "渐": 3374,
      "渓": 3375,
      "渔": 3376,
      "渗": 3377,
      "減": 3378,
      "渠": 3379,
      "渡": 3380,
      "渣": 3381,
      "渤": 3382,
      "渥": 3383,
      "渦": 3384,
      "温": 3385,
      "測": 3386,
      "港": 3387,
      "渲": 3388,
      "渴": 3389,
      "游": 3390,
      "渺": 3391,
      "湃": 3392,
      "湄": 3393,
      "湍": 3394,
      "湖": 3395,
      "湘": 3396,
      "湛": 3397,
      "湧": 3398,
      "湯": 3399,
      "湾": 3400,
      "湿": 3401,
      "満": 3402,
      "溃": 3403,
      "溅": 3404,
      "溉": 3405,
      "源": 3406,
      "準": 3407,
      "溜": 3408,
      "溝": 3409,
      "溢": 3410,
      "溪": 3411,
      "溫": 3412,
      "溯": 3413,
      "溶": 3414,
      "溺": 3415,
      "滂": 3416,
      "滄": 3417,
      "滅": 3418,
      "滋": 3419,
      "滌": 3420,
      "滑": 3421,
      "滔": 3422,
      "滕": 3423,
      "滚": 3424,
      "滝": 3425,
      "滞": 3426,
      "满": 3427,
      "滤": 3428,
      "滥": 3429,
      "滨": 3430,
      "滩": 3431,
      "滴": 3432,
      "滸": 3433,
      "滾": 3434,
      "漁": 3435,
      "漂": 3436,
      "漆": 3437,
      "漏": 3438,
      "漑": 3439,
      "漓": 3440,
      "演": 3441,
      "漠": 3442,
      "漢": 3443,
      "漩": 3444,
      "漪": 3445,
      "漫": 3446,
      "漬": 3447,
      "漱": 3448,
      "漲": 3449,
      "漸": 3450,
      "漾": 3451,
      "漿": 3452,
      "潇": 3453,
      "潔": 3454,
      "潘": 3455,
      "潜": 3456,
      "潟": 3457,
      "潤": 3458,
      "潦": 3459,
      "潭": 3460,
      "潮": 3461,
      "潰": 3462,
      "潴": 3463,
      "澄": 3464,
      "澈": 3465,
      "澎": 3466,
      "澜": 3467,
      "澡": 3468,
      "澤": 3469,
      "澳": 3470,
      "激": 3471,
      "濁": 3472,
      "濃": 3473,
      "濑": 3474,
      "濒": 3475,
      "濛": 3476,
      "濡": 3477,
      "濤": 3478,
      "濯": 3479,
      "濾": 3480,
      "瀉": 3481,
      "瀋": 3482,
      "瀑": 3483,
      "瀕": 3484,
      "瀘": 3485,
      "瀚": 3486,
      "瀟": 3487,
      "瀬": 3488,
      "瀾": 3489,
      "灌": 3490,
      "灏": 3491,
      "灘": 3492,
      "火": 3493,
      "灭": 3494,
      "灯": 3495,
      "灰": 3496,
      "灵": 3497,
      "灶": 3498,
      "灸": 3499,
      "灼": 3500,
      "災": 3501,
      "灾": 3502,
      "灿": 3503,
      "炀": 3504,
      "炅": 3505,
      "炉": 3506,
      "炊": 3507,
      "炎": 3508,
      "炒": 3509,
      "炕": 3510,
      "炖": 3511,
      "炙": 3512,
      "炜": 3513,
      "炫": 3514,
      "炬": 3515,
      "炭": 3516,
      "炮": 3517,
      "炯": 3518,
      "炳": 3519,
      "炸": 3520,
      "点": 3521,
      "為": 3522,
      "炼": 3523,
      "炽": 3524,
      "烁": 3525,
      "烂": 3526,
      "烃": 3527,
      "烈": 3528,
      "烊": 3529,
      "烏": 3530,
      "烘": 3531,
      "烛": 3532,
      "烟": 3533,
      "烤": 3534,
      "烦": 3535,
      "烧": 3536,
      "烨": 3537,
      "烫": 3538,
      "烬": 3539,
      "热": 3540,
      "烯": 3541,
      "烷": 3542,
      "烹": 3543,
      "焉": 3544,
      "焊": 3545,
      "焕": 3546,
      "焚": 3547,
      "無": 3548,
      "焦": 3549,
      "焯": 3550,
      "焰": 3551,
      "然": 3552,
      "焼": 3553,
      "煉": 3554,
      "煌": 3555,
      "煎": 3556,
      "煐": 3557,
      "煒": 3558,
      "煕": 3559,
      "煙": 3560,
      "煞": 3561,
      "煤": 3562,
      "煥": 3563,
      "煦": 3564,
      "照": 3565,
      "煩": 3566,
      "煮": 3567,
      "煲": 3568,
      "煸": 3569,
      "煽": 3570,
      "熄": 3571,
      "熊": 3572,
      "熏": 3573,
      "熔": 3574,
      "熙": 3575,
      "熟": 3576,
      "熠": 3577,
      "熨": 3578,
      "熬": 3579,
      "熱": 3580,
      "熵": 3581,
      "熹": 3582,
      "熾": 3583,
      "燃": 3584,
      "燊": 3585,
      "燎": 3586,
      "燕": 3587,
      "燙": 3588,
      "燥": 3589,
      "燮": 3590,
      "燼": 3591,
      "爆": 3592,
      "爛": 3593,
      "爪": 3594,
      "爬": 3595,
      "爱": 3596,
      "爵": 3597,
      "父": 3598,
      "爷": 3599,
      "爸": 3600,
      "爹": 3601,
      "爽": 3602,
      "爾": 3603,
      "片": 3604,
      "版": 3605,
      "牌": 3606,
      "牒": 3607,
      "牙": 3608,
      "牛": 3609,
      "牝": 3610,
      "牟": 3611,
      "牡": 3612,
      "牢": 3613,
      "牦": 3614,
      "牧": 3615,
      "物": 3616,
      "牲": 3617,
      "牵": 3618,
      "特": 3619,
      "牺": 3620,
      "牽": 3621,
      "犀": 3622,
      "犁": 3623,
      "犄": 3624,
      "犊": 3625,
      "犠": 3626,
      "犬": 3627,
      "犯": 3628,
      "状": 3629,
      "犷": 3630,
      "犸": 3631,
      "犹": 3632,
      "狂": 3633,
      "狄": 3634,
      "狈": 3635,
      "狐": 3636,
      "狒": 3637,
      "狗": 3638,
      "狙": 3639,
      "狠": 3640,
      "狡": 3641,
      "狨": 3642,
      "狩": 3643,
      "独": 3644,
      "狭": 3645,
      "狮": 3646,
      "狱": 3647,
      "狸": 3648,
      "狼": 3649,
      "猁": 3650,
      "猎": 3651,
      "猕": 3652,
      "猖": 3653,
      "猗": 3654,
      "猛": 3655,
      "猜": 3656,
      "猝": 3657,
      "猞": 3658,
      "猟": 3659,
      "猥": 3660,
      "猩": 3661,
      "猪": 3662,
      "猫": 3663,
      "猬": 3664,
      "献": 3665,
      "猴": 3666,
      "猶": 3667,
      "猾": 3668,
      "猿": 3669,
      "獄": 3670,
      "獅": 3671,
      "獎": 3672,
      "獒": 3673,
      "獗": 3674,
      "獣": 3675,
      "獭": 3676,
      "獰": 3677,
      "獲": 3678,
      "獾": 3679,
      "玄": 3680,
      "率": 3681,
      "玉": 3682,
      "王": 3683,
      "玑": 3684,
      "玖": 3685,
      "玛": 3686,
      "玟": 3687,
      "玥": 3688,
      "玩": 3689,
      "玫": 3690,
      "玮": 3691,
      "环": 3692,
      "现": 3693,
      "玲": 3694,
      "玷": 3695,
      "玺": 3696,
      "玻": 3697,
      "珀": 3698,
      "珂": 3699,
      "珅": 3700,
      "珈": 3701,
      "珉": 3702,
      "珊": 3703,
      "珍": 3704,
      "珑": 3705,
      "珞": 3706,
      "珠": 3707,
      "珪": 3708,
      "班": 3709,
      "現": 3710,
      "球": 3711,
      "琅": 3712,
      "理": 3713,
      "琉": 3714,
      "琊": 3715,
      "琍": 3716,
      "琐": 3717,
      "琚": 3718,
      "琥": 3719,
      "琦": 3720,
      "琨": 3721,
      "琪": 3722,
      "琲": 3723,
      "琳": 3724,
      "琴": 3725,
      "琼": 3726,
      "瑕": 3727,
      "瑙": 3728,
      "瑚": 3729,
      "瑛": 3730,
      "瑜": 3731,
      "瑞": 3732,
      "瑟": 3733,
      "瑠": 3734,
      "瑩": 3735,
      "瑪": 3736,
      "瑰": 3737,
      "瑶": 3738,
      "璀": 3739,
      "璃": 3740,
      "璇": 3741,
      "璋": 3742,
      "璐": 3743,
      "璞": 3744,
      "璧": 3745,
      "璨": 3746,
      "環": 3747,
      "璽": 3748,
      "瓊": 3749,
      "瓏": 3750,
      "瓜": 3751,
      "瓢": 3752,
      "瓣": 3753,
      "瓦": 3754,
      "瓴": 3755,
      "瓶": 3756,
      "瓷": 3757,
      "甄": 3758,
      "甘": 3759,
      "甚": 3760,
      "甜": 3761,
      "生": 3762,
      "產": 3763,
      "産": 3764,
      "甥": 3765,
      "用": 3766,
      "甩": 3767,
      "甪": 3768,
      "甫": 3769,
      "甬": 3770,
      "甯": 3771,
      "田": 3772,
      "由": 3773,
      "甲": 3774,
      "申": 3775,
      "电": 3776,
      "男": 3777,
      "甸": 3778,
      "町": 3779,
      "画": 3780,
      "畅": 3781,
      "界": 3782,
      "畏": 3783,
      "畑": 3784,
      "畔": 3785,
      "留": 3786,
      "畜": 3787,
      "畝": 3788,
      "畢": 3789,
      "略": 3790,
      "番": 3791,
      "異": 3792,
      "畳": 3793,
      "畴": 3794,
      "畸": 3795,
      "疆": 3796,
      "疇": 3797,
      "疎": 3798,
      "疏": 3799,
      "疑": 3800,
      "疖": 3801,
      "疗": 3802,
      "疙": 3803,
      "疚": 3804,
      "疝": 3805,
      "疟": 3806,
      "疡": 3807,
      "疣": 3808,
      "疤": 3809,
      "疥": 3810,
      "疫": 3811,
      "疮": 3812,
      "疯": 3813,
      "疱": 3814,
      "疲": 3815,
      "疳": 3816,
      "疵": 3817,
      "疸": 3818,
      "疹": 3819,
      "疼": 3820,
      "疽": 3821,
      "疾": 3822,
      "痂": 3823,
      "病": 3824,
      "症": 3825,
      "痉": 3826,
      "痊": 3827,
      "痒": 3828,
      "痔": 3829,
      "痕": 3830,
      "痘": 3831,
      "痙": 3832,
      "痛": 3833,
      "痞": 3834,
      "痢": 3835,
      "痣": 3836,
      "痤": 3837,
      "痧": 3838,
      "痩": 3839,
      "痪": 3840,
      "痫": 3841,
      "痰": 3842,
      "痴": 3843,
      "痹": 3844,
      "痺": 3845,
      "痿": 3846,
      "瘀": 3847,
      "瘋": 3848,
      "瘍": 3849,
      "瘘": 3850,
      "瘙": 3851,
      "瘟": 3852,
      "瘠": 3853,
      "瘡": 3854,
      "瘤": 3855,
      "瘦": 3856,
      "瘩": 3857,
      "瘪": 3858,
      "瘫": 3859,
      "瘸": 3860,
      "瘻": 3861,
      "瘾": 3862,
      "療": 3863,
      "癇": 3864,
      "癌": 3865,
      "癒": 3866,
      "癖": 3867,
      "癜": 3868,
      "癞": 3869,
      "癣": 3870,
      "癪": 3871,
      "癫": 3872,
      "癬": 3873,
      "癮": 3874,
      "癲": 3875,
      "発": 3876,
      "登": 3877,
      "發": 3878,
      "白": 3879,
      "百": 3880,
      "皂": 3881,
      "的": 3882,
      "皆": 3883,
      "皇": 3884,
      "皑": 3885,
      "皓": 3886,
      "皙": 3887,
      "皮": 3888,
      "皱": 3889,
      "皲": 3890,
      "皿": 3891,
      "盂": 3892,
      "盃": 3893,
      "盆": 3894,
      "盈": 3895,
      "益": 3896,
      "盎": 3897,
      "盏": 3898,
      "盐": 3899,
      "监": 3900,
      "盒": 3901,
      "盔": 3902,
      "盖": 3903,
      "盗": 3904,
      "盘": 3905,
      "盛": 3906,
      "盟": 3907,
      "監": 3908,
      "盤": 3909,
      "盥": 3910,
      "盧": 3911,
      "盪": 3912,
      "目": 3913,
      "盯": 3914,
      "盲": 3915,
      "直": 3916,
      "相": 3917,
      "盹": 3918,
      "盼": 3919,
      "盾": 3920,
      "省": 3921,
      "眈": 3922,
      "眉": 3923,
      "看": 3924,
      "県": 3925,
      "真": 3926,
      "眠": 3927,
      "眨": 3928,
      "眩": 3929,
      "眶": 3930,
      "眷": 3931,
      "眸": 3932,
      "眺": 3933,
      "眼": 3934,
      "眾": 3935,
      "着": 3936,
      "睁": 3937,
      "睐": 3938,
      "睑": 3939,
      "睒": 3940,
      "睛": 3941,
      "睡": 3942,
      "督": 3943,
      "睦": 3944,
      "睫": 3945,
      "睬": 3946,
      "睹": 3947,
      "睾": 3948,
      "睿": 3949,
      "瞄": 3950,
      "瞌": 3951,
      "瞎": 3952,
      "瞑": 3953,
      "瞒": 3954,
      "瞞": 3955,
      "瞠": 3956,
      "瞥": 3957,
      "瞧": 3958,
      "瞩": 3959,
      "瞪": 3960,
      "瞬": 3961,
      "瞭": 3962,
      "瞰": 3963,
      "瞳": 3964,
      "瞻": 3965,
      "瞼": 3966,
      "矗": 3967,
      "矛": 3968,
      "矢": 3969,
      "矣": 3970,
      "知": 3971,
      "矩": 3972,
      "矫": 3973,
      "短": 3974,
      "矮": 3975,
      "矯": 3976,
      "石": 3977,
      "矶": 3978,
      "矾": 3979,
      "矿": 3980,
      "码": 3981,
      "砂": 3982,
      "砌": 3983,
      "砍": 3984,
      "砒": 3985,
      "研": 3986,
      "砕": 3987,
      "砖": 3988,
      "砚": 3989,
      "砥": 3990,
      "砦": 3991,
      "砧": 3992,
      "砰": 3993,
      "砲": 3994,
      "破": 3995,
      "砷": 3996,
      "砸": 3997,
      "砺": 3998,
      "砾": 3999,
      "础": 4000,
      "硅": 4001,
      "硒": 4002,
      "硕": 4003,
      "硝": 4004,
      "硫": 4005,
      "硬": 4006,
      "确": 4007,
      "硯": 4008,
      "碁": 4009,
      "碇": 4010,
      "碉": 4011,
      "碌": 4012,
      "碍": 4013,
      "碎": 4014,
      "碑": 4015,
      "碗": 4016,
      "碘": 4017,
      "碟": 4018,
      "碧": 4019,
      "碩": 4020,
      "碰": 4021,
      "碱": 4022,
      "碳": 4023,
      "確": 4024,
      "碾": 4025,
      "磁": 4026,
      "磅": 4027,
      "磊": 4028,
      "磋": 4029,
      "磐": 4030,
      "磚": 4031,
      "磨": 4032,
      "磯": 4033,
      "磷": 4034,
      "磺": 4035,
      "礁": 4036,
      "礎": 4037,
      "礫": 4038,
      "礴": 4039,
      "示": 4040,
      "礼": 4041,
      "社": 4042,
      "祁": 4043,
      "祈": 4044,
      "祉": 4045,
      "祎": 4046,
      "祓": 4047,
      "祖": 4048,
      "祚": 4049,
      "祛": 4050,
      "祝": 4051,
      "神": 4052,
      "祢": 4053,
      "祥": 4054,
      "票": 4055,
      "祭": 4056,
      "祯": 4057,
      "祷": 4058,
      "祸": 4059,
      "祺": 4060,
      "禀": 4061,
      "禁": 4062,
      "禄": 4063,
      "禅": 4064,
      "福": 4065,
      "禕": 4066,
      "禧": 4067,
      "禮": 4068,
      "禰": 4069,
      "禹": 4070,
      "禺": 4071,
      "离": 4072,
      "禽": 4073,
      "禿": 4074,
      "秀": 4075,
      "私": 4076,
      "秃": 4077,
      "秆": 4078,
      "秉": 4079,
      "秋": 4080,
      "种": 4081,
      "科": 4082,
      "秒": 4083,
      "秘": 4084,
      "租": 4085,
      "秤": 4086,
      "秦": 4087,
      "秧": 4088,
      "秩": 4089,
      "积": 4090,
      "称": 4091,
      "秸": 4092,
      "移": 4093,
      "秽": 4094,
      "稀": 4095,
      "程": 4096,
      "稍": 4097,
      "税": 4098,
      "稔": 4099,
      "稚": 4100,
      "稠": 4101,
      "稣": 4102,
      "種": 4103,
      "稱": 4104,
      "稲": 4105,
      "稳": 4106,
      "稻": 4107,
      "稼": 4108,
      "稽": 4109,
      "稿": 4110,
      "穀": 4111,
      "穂": 4112,
      "穆": 4113,
      "積": 4114,
      "穎": 4115,
      "穏": 4116,
      "穗": 4117,
      "穢": 4118,
      "穣": 4119,
      "穫": 4120,
      "穴": 4121,
      "究": 4122,
      "穷": 4123,
      "穹": 4124,
      "空": 4125,
      "穿": 4126,
      "突": 4127,
      "窃": 4128,
      "窄": 4129,
      "窈": 4130,
      "窍": 4131,
      "窒": 4132,
      "窓": 4133,
      "窕": 4134,
      "窖": 4135,
      "窗": 4136,
      "窘": 4137,
      "窝": 4138,
      "窟": 4139,
      "窥": 4140,
      "窦": 4141,
      "窩": 4142,
      "窪": 4143,
      "窮": 4144,
      "窯": 4145,
      "竈": 4146,
      "立": 4147,
      "竖": 4148,
      "站": 4149,
      "竜": 4150,
      "竞": 4151,
      "竟": 4152,
      "章": 4153,
      "竣": 4154,
      "童": 4155,
      "竭": 4156,
      "端": 4157,
      "競": 4158,
      "竹": 4159,
      "竿": 4160,
      "笋": 4161,
      "笏": 4162,
      "笑": 4163,
      "笔": 4164,
      "笙": 4165,
      "笛": 4166,
      "笠": 4167,
      "符": 4168,
      "笨": 4169,
      "第": 4170,
      "笼": 4171,
      "筆": 4172,
      "等": 4173,
      "筋": 4174,
      "筍": 4175,
      "筐": 4176,
      "筑": 4177,
      "筒": 4178,
      "答": 4179,
      "策": 4180,
      "筛": 4181,
      "筝": 4182,
      "筷": 4183,
      "筹": 4184,
      "签": 4185,
      "简": 4186,
      "箇": 4187,
      "箋": 4188,
      "箍": 4189,
      "箔": 4190,
      "算": 4191,
      "管": 4192,
      "箭": 4193,
      "箱": 4194,
      "箴": 4195,
      "箸": 4196,
      "節": 4197,
      "範": 4198,
      "篇": 4199,
      "築": 4200,
      "篝": 4201,
      "篡": 4202,
      "篤": 4203,
      "篩": 4204,
      "篮": 4205,
      "篷": 4206,
      "簡": 4207,
      "簸": 4208,
      "簽": 4209,
      "簿": 4210,
      "籁": 4211,
      "籍": 4212,
      "籠": 4213,
      "米": 4214,
      "类": 4215,
      "籽": 4216,
      "籾": 4217,
      "粉": 4218,
      "粋": 4219,
      "粑": 4220,
      "粒": 4221,
      "粗": 4222,
      "粘": 4223,
      "粛": 4224,
      "粟": 4225,
      "粤": 4226,
      "粥": 4227,
      "粧": 4228,
      "粪": 4229,
      "粮": 4230,
      "粱": 4231,
      "粹": 4232,
      "粽": 4233,
      "精": 4234,
      "糊": 4235,
      "糕": 4236,
      "糖": 4237,
      "糗": 4238,
      "糙": 4239,
      "糜": 4240,
      "糞": 4241,
      "糟": 4242,
      "糧": 4243,
      "糯": 4244,
      "糸": 4245,
      "系": 4246,
      "紀": 4247,
      "約": 4248,
      "紅": 4249,
      "紆": 4250,
      "紊": 4251,
      "紋": 4252,
      "納": 4253,
      "紐": 4254,
      "純": 4255,
      "紙": 4256,
      "級": 4257,
      "紛": 4258,
      "素": 4259,
      "紡": 4260,
      "索": 4261,
      "紧": 4262,
      "紫": 4263,
      "紮": 4264,
      "累": 4265,
      "細": 4266,
      "紳": 4267,
      "紹": 4268,
      "終": 4269,
      "組": 4270,
      "絆": 4271,
      "経": 4272,
      "結": 4273,
      "絕": 4274,
      "絞": 4275,
      "絡": 4276,
      "給": 4277,
      "絨": 4278,
      "絮": 4279,
      "統": 4280,
      "絲": 4281,
      "絵": 4282,
      "絶": 4283,
      "經": 4284,
      "継": 4285,
      "続": 4286,
      "綠": 4287,
      "維": 4288,
      "綱": 4289,
      "網": 4290,
      "綴": 4291,
      "綺": 4292,
      "綻": 4293,
      "綿": 4294,
      "緊": 4295,
      "緋": 4296,
      "総": 4297,
      "緑": 4298,
      "緒": 4299,
      "線": 4300,
      "締": 4301,
      "編": 4302,
      "緩": 4303,
      "緯": 4304,
      "練": 4305,
      "縁": 4306,
      "縄": 4307,
      "縊": 4308,
      "縛": 4309,
      "縞": 4310,
      "縣": 4311,
      "縦": 4312,
      "縫": 4313,
      "縮": 4314,
      "總": 4315,
      "績": 4316,
      "繁": 4317,
      "繊": 4318,
      "繋": 4319,
      "繍": 4320,
      "織": 4321,
      "繕": 4322,
      "繭": 4323,
      "繰": 4324,
      "繹": 4325,
      "纂": 4326,
      "纠": 4327,
      "红": 4328,
      "纤": 4329,
      "约": 4330,
      "级": 4331,
      "纨": 4332,
      "纪": 4333,
      "纫": 4334,
      "纬": 4335,
      "纭": 4336,
      "纯": 4337,
      "纱": 4338,
      "纲": 4339,
      "纳": 4340,
      "纵": 4341,
      "纶": 4342,
      "纷": 4343,
      "纸": 4344,
      "纹": 4345,
      "纺": 4346,
      "纽": 4347,
      "线": 4348,
      "练": 4349,
      "组": 4350,
      "绅": 4351,
      "细": 4352,
      "织": 4353,
      "终": 4354,
      "绊": 4355,
      "绌": 4356,
      "绍": 4357,
      "绎": 4358,
      "经": 4359,
      "绑": 4360,
      "绒": 4361,
      "结": 4362,
      "绔": 4363,
      "绕": 4364,
      "绘": 4365,
      "给": 4366,
      "绚": 4367,
      "络": 4368,
      "绝": 4369,
      "绞": 4370,
      "统": 4371,
      "绣": 4372,
      "绦": 4373,
      "继": 4374,
      "绩": 4375,
      "绪": 4376,
      "绫": 4377,
      "续": 4378,
      "绮": 4379,
      "绯": 4380,
      "绰": 4381,
      "绳": 4382,
      "维": 4383,
      "绵": 4384,
      "绷": 4385,
      "绸": 4386,
      "绺": 4387,
      "综": 4388,
      "绽": 4389,
      "绿": 4390,
      "缀": 4391,
      "缄": 4392,
      "缅": 4393,
      "缆": 4394,
      "缇": 4395,
      "缉": 4396,
      "缎": 4397,
      "缓": 4398,
      "缔": 4399,
      "缕": 4400,
      "编": 4401,
      "缘": 4402,
      "缚": 4403,
      "缜": 4404,
      "缝": 4405,
      "缠": 4406,
      "缢": 4407,
      "缤": 4408,
      "缩": 4409,
      "缪": 4410,
      "缭": 4411,
      "缮": 4412,
      "缰": 4413,
      "缴": 4414,
      "缶": 4415,
      "缸": 4416,
      "缺": 4417,
      "罄": 4418,
      "罐": 4419,
      "网": 4420,
      "罕": 4421,
      "罗": 4422,
      "罚": 4423,
      "罠": 4424,
      "罡": 4425,
      "罢": 4426,
      "罩": 4427,
      "罪": 4428,
      "置": 4429,
      "罰": 4430,
      "署": 4431,
      "罵": 4432,
      "罹": 4433,
      "羁": 4434,
      "羅": 4435,
      "羊": 4436,
      "羌": 4437,
      "美": 4438,
      "羔": 4439,
      "羚": 4440,
      "羞": 4441,
      "羡": 4442,
      "群": 4443,
      "羨": 4444,
      "義": 4445,
      "羯": 4446,
      "羹": 4447,
      "羽": 4448,
      "羿": 4449,
      "翀": 4450,
      "翁": 4451,
      "翅": 4452,
      "翊": 4453,
      "翌": 4454,
      "習": 4455,
      "翔": 4456,
      "翘": 4457,
      "翟": 4458,
      "翠": 4459,
      "翡": 4460,
      "翩": 4461,
      "翰": 4462,
      "翱": 4463,
      "翻": 4464,
      "翼": 4465,
      "耀": 4466,
      "老": 4467,
      "考": 4468,
      "耄": 4469,
      "者": 4470,
      "而": 4471,
      "耍": 4472,
      "耐": 4473,
      "耕": 4474,
      "耗": 4475,
      "耘": 4476,
      "耦": 4477,
      "耳": 4478,
      "耶": 4479,
      "耸": 4480,
      "耻": 4481,
      "耽": 4482,
      "聂": 4483,
      "聆": 4484,
      "聊": 4485,
      "聋": 4486,
      "职": 4487,
      "联": 4488,
      "聖": 4489,
      "聘": 4490,
      "聚": 4491,
      "聞": 4492,
      "聡": 4493,
      "聪": 4494,
      "聯": 4495,
      "聲": 4496,
      "聴": 4497,
      "職": 4498,
      "聾": 4499,
      "肃": 4500,
      "肆": 4501,
      "肇": 4502,
      "肉": 4503,
      "肋": 4504,
      "肌": 4505,
      "肖": 4506,
      "肘": 4507,
      "肚": 4508,
      "肛": 4509,
      "肝": 4510,
      "肠": 4511,
      "股": 4512,
      "肢": 4513,
      "肤": 4514,
      "肥": 4515,
      "肩": 4516,
      "肪": 4517,
      "肮": 4518,
      "肯": 4519,
      "肱": 4520,
      "育": 4521,
      "肴": 4522,
      "肺": 4523,
      "肾": 4524,
      "肿": 4525,
      "胀": 4526,
      "胁": 4527,
      "胃": 4528,
      "胆": 4529,
      "背": 4530,
      "胍": 4531,
      "胎": 4532,
      "胖": 4533,
      "胗": 4534,
      "胚": 4535,
      "胛": 4536,
      "胜": 4537,
      "胞": 4538,
      "胡": 4539,
      "胤": 4540,
      "胫": 4541,
      "胰": 4542,
      "胱": 4543,
      "胳": 4544,
      "胴": 4545,
      "胶": 4546,
      "胸": 4547,
      "胺": 4548,
      "能": 4549,
      "脂": 4550,
      "脅": 4551,
      "脆": 4552,
      "脇": 4553,
      "脈": 4554,
      "脉": 4555,
      "脊": 4556,
      "脏": 4557,
      "脐": 4558,
      "脑": 4559,
      "脓": 4560,
      "脖": 4561,
      "脚": 4562,
      "脛": 4563,
      "脫": 4564,
      "脯": 4565,
      "脱": 4566,
      "脳": 4567,
      "脸": 4568,
      "脹": 4569,
      "脾": 4570,
      "腆": 4571,
      "腊": 4572,
      "腋": 4573,
      "腌": 4574,
      "腎": 4575,
      "腐": 4576,
      "腑": 4577,
      "腓": 4578,
      "腔": 4579,
      "腕": 4580,
      "腥": 4581,
      "腦": 4582,
      "腩": 4583,
      "腫": 4584,
      "腭": 4585,
      "腮": 4586,
      "腰": 4587,
      "腱": 4588,
      "腸": 4589,
      "腹": 4590,
      "腺": 4591,
      "腻": 4592,
      "腼": 4593,
      "腾": 4594,
      "腿": 4595,
      "膀": 4596,
      "膊": 4597,
      "膏": 4598,
      "膚": 4599,
      "膛": 4600,
      "膜": 4601,
      "膝": 4602,
      "膠": 4603,
      "膣": 4604,
      "膨": 4605,
      "膳": 4606,
      "膵": 4607,
      "膺": 4608,
      "膽": 4609,
      "膿": 4610,
      "臀": 4611,
      "臂": 4612,
      "臆": 4613,
      "臍": 4614,
      "臓": 4615,
      "臘": 4616,
      "臣": 4617,
      "臥": 4618,
      "臨": 4619,
      "自": 4620,
      "臭": 4621,
      "至": 4622,
      "致": 4623,
      "臻": 4624,
      "臼": 4625,
      "舅": 4626,
      "舆": 4627,
      "與": 4628,
      "興": 4629,
      "舌": 4630,
      "舍": 4631,
      "舎": 4632,
      "舐": 4633,
      "舒": 4634,
      "舔": 4635,
      "舗": 4636,
      "舘": 4637,
      "舜": 4638,
      "舞": 4639,
      "舟": 4640,
      "航": 4641,
      "般": 4642,
      "舰": 4643,
      "舱": 4644,
      "舵": 4645,
      "舶": 4646,
      "船": 4647,
      "艇": 4648,
      "艘": 4649,
      "艦": 4650,
      "艮": 4651,
      "良": 4652,
      "艰": 4653,
      "色": 4654,
      "艳": 4655,
      "艶": 4656,
      "艷": 4657,
      "艺": 4658,
      "艾": 4659,
      "节": 4660,
      "芃": 4661,
      "芈": 4662,
      "芊": 4663,
      "芋": 4664,
      "芒": 4665,
      "芙": 4666,
      "芜": 4667,
      "芝": 4668,
      "芥": 4669,
      "芦": 4670,
      "芬": 4671,
      "芭": 4672,
      "芮": 4673,
      "芯": 4674,
      "花": 4675,
      "芳": 4676,
      "芷": 4677,
      "芸": 4678,
      "芹": 4679,
      "芽": 4680,
      "苇": 4681,
      "苋": 4682,
      "苍": 4683,
      "苏": 4684,
      "苑": 4685,
      "苒": 4686,
      "苔": 4687,
      "苗": 4688,
      "苛": 4689,
      "苜": 4690,
      "苞": 4691,
      "若": 4692,
      "苦": 4693,
      "英": 4694,
      "苹": 4695,
      "茂": 4696,
      "范": 4697,
      "茄": 4698,
      "茅": 4699,
      "茉": 4700,
      "茎": 4701,
      "茛": 4702,
      "茜": 4703,
      "茧": 4704,
      "茨": 4705,
      "茫": 4706,
      "茬": 4707,
      "茱": 4708,
      "茵": 4709,
      "茶": 4710,
      "茸": 4711,
      "茹": 4712,
      "荀": 4713,
      "荆": 4714,
      "草": 4715,
      "荊": 4716,
      "荏": 4717,
      "荐": 4718,
      "荒": 4719,
      "荔": 4720,
      "荘": 4721,
      "荞": 4722,
      "荟": 4723,
      "荡": 4724,
      "荣": 4725,
      "荧": 4726,
      "荨": 4727,
      "荪": 4728,
      "药": 4729,
      "荷": 4730,
      "荼": 4731,
      "莉": 4732,
      "莎": 4733,
      "莓": 4734,
      "莘": 4735,
      "莫": 4736,
      "莱": 4737,
      "莲": 4738,
      "莳": 4739,
      "获": 4740,
      "莹": 4741,
      "莺": 4742,
      "莽": 4743,
      "菁": 4744,
      "菇": 4745,
      "菊": 4746,
      "菌": 4747,
      "菓": 4748,
      "菘": 4749,
      "菜": 4750,
      "菠": 4751,
      "菩": 4752,
      "華": 4753,
      "菱": 4754,
      "菲": 4755,
      "萃": 4756,
      "萄": 4757,
      "萌": 4758,
      "萍": 4759,
      "萎": 4760,
      "萝": 4761,
      "萤": 4762,
      "营": 4763,
      "萦": 4764,
      "萧": 4765,
      "萨": 4766,
      "萬": 4767,
      "萱": 4768,
      "落": 4769,
      "葆": 4770,
      "葉": 4771,
      "著": 4772,
      "葚": 4773,
      "葛": 4774,
      "葡": 4775,
      "董": 4776,
      "葩": 4777,
      "葫": 4778,
      "葬": 4779,
      "葱": 4780,
      "葳": 4781,
      "葵": 4782,
      "蒂": 4783,
      "蒋": 4784,
      "蒔": 4785,
      "蒙": 4786,
      "蒜": 4787,
      "蒡": 4788,
      "蒲": 4789,
      "蒸": 4790,
      "蒼": 4791,
      "蒿": 4792,
      "蓄": 4793,
      "蓉": 4794,
      "蓋": 4795,
      "蓑": 4796,
      "蓓": 4797,
      "蓝": 4798,
      "蓬": 4799,
      "蓮": 4800,
      "蓿": 4801,
      "蔑": 4802,
      "蔓": 4803,
      "蔗": 4804,
      "蔚": 4805,
      "蔡": 4806,
      "蔬": 4807,
      "蔵": 4808,
      "蔷": 4809,
      "蔻": 4810,
      "蔼": 4811,
      "蔽": 4812,
      "蕁": 4813,
      "蕃": 4814,
      "蕉": 4815,
      "蕊": 4816,
      "蕎": 4817,
      "蕩": 4818,
      "蕴": 4819,
      "蕾": 4820,
      "薄": 4821,
      "薇": 4822,
      "薔": 4823,
      "薛": 4824,
      "薦": 4825,
      "薩": 4826,
      "薪": 4827,
      "薫": 4828,
      "薬": 4829,
      "薯": 4830,
      "薰": 4831,
      "藁": 4832,
      "藉": 4833,
      "藍": 4834,
      "藏": 4835,
      "藕": 4836,
      "藜": 4837,
      "藝": 4838,
      "藤": 4839,
      "藩": 4840,
      "藪": 4841,
      "藻": 4842,
      "蘇": 4843,
      "蘋": 4844,
      "蘑": 4845,
      "蘭": 4846,
      "蘸": 4847,
      "虎": 4848,
      "虏": 4849,
      "虐": 4850,
      "虑": 4851,
      "虔": 4852,
      "處": 4853,
      "虚": 4854,
      "虜": 4855,
      "虞": 4856,
      "虫": 4857,
      "虱": 4858,
      "虹": 4859,
      "虽": 4860,
      "虾": 4861,
      "蚀": 4862,
      "蚁": 4863,
      "蚂": 4864,
      "蚊": 4865,
      "蚌": 4866,
      "蚕": 4867,
      "蚤": 4868,
      "蚺": 4869,
      "蛀": 4870,
      "蛆": 4871,
      "蛇": 4872,
      "蛊": 4873,
      "蛋": 4874,
      "蛍": 4875,
      "蛎": 4876,
      "蛔": 4877,
      "蛙": 4878,
      "蛛": 4879,
      "蛞": 4880,
      "蛤": 4881,
      "蛭": 4882,
      "蛮": 4883,
      "蛲": 4884,
      "蛸": 4885,
      "蜀": 4886,
      "蜂": 4887,
      "蜃": 4888,
      "蜇": 4889,
      "蜉": 4890,
      "蜒": 4891,
      "蜓": 4892,
      "蜕": 4893,
      "蜗": 4894,
      "蜘": 4895,
      "蜚": 4896,
      "蜜": 4897,
      "蜡": 4898,
      "蜣": 4899,
      "蜥": 4900,
      "蜱": 4901,
      "蜴": 4902,
      "蜻": 4903,
      "蜿": 4904,
      "蝇": 4905,
      "蝉": 4906,
      "蝋": 4907,
      "蝎": 4908,
      "蝓": 4909,
      "蝕": 4910,
      "蝗": 4911,
      "蝙": 4912,
      "蝠": 4913,
      "蝣": 4914,
      "蝮": 4915,
      "蝰": 4916,
      "蝴": 4917,
      "蝶": 4918,
      "蝿": 4919,
      "螂": 4920,
      "螃": 4921,
      "螈": 4922,
      "螋": 4923,
      "融": 4924,
      "螨": 4925,
      "螳": 4926,
      "螺": 4927,
      "蟀": 4928,
      "蟆": 4929,
      "蟋": 4930,
      "蟑": 4931,
      "蟒": 4932,
      "蟠": 4933,
      "蟯": 4934,
      "蟹": 4935,
      "蟻": 4936,
      "蠍": 4937,
      "蠕": 4938,
      "蠢": 4939,
      "蠣": 4940,
      "蠼": 4941,
      "血": 4942,
      "衅": 4943,
      "衆": 4944,
      "行": 4945,
      "衍": 4946,
      "術": 4947,
      "衔": 4948,
      "街": 4949,
      "衛": 4950,
      "衝": 4951,
      "衡": 4952,
      "衣": 4953,
      "补": 4954,
      "表": 4955,
      "衫": 4956,
      "衬": 4957,
      "衰": 4958,
      "衷": 4959,
      "袁": 4960,
      "袂": 4961,
      "袄": 4962,
      "袈": 4963,
      "袋": 4964,
      "袍": 4965,
      "袒": 4966,
      "袖": 4967,
      "袜": 4968,
      "被": 4969,
      "袭": 4970,
      "袱": 4971,
      "裁": 4972,
      "裂": 4973,
      "装": 4974,
      "裆": 4975,
      "裏": 4976,
      "裔": 4977,
      "裕": 4978,
      "裘": 4979,
      "裙": 4980,
      "補": 4981,
      "裟": 4982,
      "裡": 4983,
      "裤": 4984,
      "裳": 4985,
      "裴": 4986,
      "裸": 4987,
      "裹": 4988,
      "製": 4989,
      "褂": 4990,
      "複": 4991,
      "褐": 4992,
      "褒": 4993,
      "褚": 4994,
      "褛": 4995,
      "褥": 4996,
      "褪": 4997,
      "褴": 4998,
      "褶": 4999,
      "襄": 5000,
      "襟": 5001,
      "襲": 5002,
      "西": 5003,
      "要": 5004,
      "覃": 5005,
      "覆": 5006,
      "覇": 5007,
      "見": 5008,
      "規": 5009,
      "視": 5010,
      "覗": 5011,
      "覚": 5012,
      "覧": 5013,
      "親": 5014,
      "観": 5015,
      "覺": 5016,
      "见": 5017,
      "观": 5018,
      "规": 5019,
      "觅": 5020,
      "视": 5021,
      "览": 5022,
      "觉": 5023,
      "觊": 5024,
      "觎": 5025,
      "觑": 5026,
      "角": 5027,
      "解": 5028,
      "触": 5029,
      "言": 5030,
      "訂": 5031,
      "訃": 5032,
      "計": 5033,
      "訊": 5034,
      "討": 5035,
      "訓": 5036,
      "託": 5037,
      "記": 5038,
      "訚": 5039,
      "訛": 5040,
      "訝": 5041,
      "訟": 5042,
      "訣": 5043,
      "訪": 5044,
      "設": 5045,
      "許": 5046,
      "訳": 5047,
      "訴": 5048,
      "診": 5049,
      "証": 5050,
      "詐": 5051,
      "評": 5052,
      "詛": 5053,
      "詞": 5054,
      "詠": 5055,
      "試": 5056,
      "詩": 5057,
      "詫": 5058,
      "詰": 5059,
      "話": 5060,
      "該": 5061,
      "詳": 5062,
      "詹": 5063,
      "誇": 5064,
      "誉": 5065,
      "誌": 5066,
      "認": 5067,
      "誓": 5068,
      "誕": 5069,
      "誘": 5070,
      "語": 5071,
      "誠": 5072,
      "誤": 5073,
      "説": 5074,
      "読": 5075,
      "誰": 5076,
      "課": 5077,
      "誹": 5078,
      "調": 5079,
      "談": 5080,
      "請": 5081,
      "諍": 5082,
      "諏": 5083,
      "諒": 5084,
      "論": 5085,
      "諜": 5086,
      "諦": 5087,
      "諫": 5088,
      "諭": 5089,
      "諮": 5090,
      "諯": 5091,
      "諸": 5092,
      "諺": 5093,
      "諾": 5094,
      "謀": 5095,
      "謁": 5096,
      "謄": 5097,
      "謎": 5098,
      "謖": 5099,
      "謗": 5100,
      "謙": 5101,
      "講": 5102,
      "謝": 5103,
      "謡": 5104,
      "謬": 5105,
      "謹": 5106,
      "識": 5107,
      "譚": 5108,
      "譜": 5109,
      "警": 5110,
      "議": 5111,
      "譲": 5112,
      "護": 5113,
      "變": 5114,
      "讐": 5115,
      "讓": 5116,
      "计": 5117,
      "订": 5118,
      "认": 5119,
      "讥": 5120,
      "讧": 5121,
      "讨": 5122,
      "让": 5123,
      "讪": 5124,
      "训": 5125,
      "议": 5126,
      "讯": 5127,
      "记": 5128,
      "讲": 5129,
      "讳": 5130,
      "讴": 5131,
      "讶": 5132,
      "讷": 5133,
      "许": 5134,
      "论": 5135,
      "讼": 5136,
      "讽": 5137,
      "设": 5138,
      "访": 5139,
      "诀": 5140,
      "证": 5141,
      "诃": 5142,
      "评": 5143,
      "诅": 5144,
      "识": 5145,
      "诈": 5146,
      "诉": 5147,
      "诊": 5148,
      "诋": 5149,
      "词": 5150,
      "译": 5151,
      "试": 5152,
      "诗": 5153,
      "诚": 5154,
      "诛": 5155,
      "话": 5156,
      "诞": 5157,
      "诟": 5158,
      "诠": 5159,
      "诡": 5160,
      "询": 5161,
      "诣": 5162,
      "该": 5163,
      "详": 5164,
      "诫": 5165,
      "诬": 5166,
      "语": 5167,
      "误": 5168,
      "诱": 5169,
      "诲": 5170,
      "说": 5171,
      "诵": 5172,
      "请": 5173,
      "诸": 5174,
      "诹": 5175,
      "诺": 5176,
      "读": 5177,
      "诽": 5178,
      "课": 5179,
      "谀": 5180,
      "谁": 5181,
      "调": 5182,
      "谄": 5183,
      "谅": 5184,
      "谈": 5185,
      "谊": 5186,
      "谋": 5187,
      "谌": 5188,
      "谍": 5189,
      "谎": 5190,
      "谏": 5191,
      "谐": 5192,
      "谓": 5193,
      "谚": 5194,
      "谛": 5195,
      "谜": 5196,
      "谟": 5197,
      "谡": 5198,
      "谢": 5199,
      "谣": 5200,
      "谤": 5201,
      "谦": 5202,
      "谨": 5203,
      "谬": 5204,
      "谭": 5205,
      "谱": 5206,
      "谴": 5207,
      "谷": 5208,
      "豁": 5209,
      "豆": 5210,
      "豇": 5211,
      "豊": 5212,
      "豌": 5213,
      "豚": 5214,
      "象": 5215,
      "豪": 5216,
      "豫": 5217,
      "豹": 5218,
      "豺": 5219,
      "貂": 5220,
      "貌": 5221,
      "貘": 5222,
      "貝": 5223,
      "貞": 5224,
      "負": 5225,
      "財": 5226,
      "貢": 5227,
      "貧": 5228,
      "貨": 5229,
      "販": 5230,
      "貪": 5231,
      "貫": 5232,
      "責": 5233,
      "貯": 5234,
      "貴": 5235,
      "貶": 5236,
      "買": 5237,
      "貸": 5238,
      "費": 5239,
      "貼": 5240,
      "貿": 5241,
      "賀": 5242,
      "賂": 5243,
      "賃": 5244,
      "賄": 5245,
      "資": 5246,
      "賈": 5247,
      "賊": 5248,
      "賑": 5249,
      "賓": 5250,
      "賛": 5251,
      "賜": 5252,
      "賞": 5253,
      "賠": 5254,
      "賢": 5255,
      "賦": 5256,
      "質": 5257,
      "賬": 5258,
      "賭": 5259,
      "賺": 5260,
      "購": 5261,
      "賽": 5262,
      "贅": 5263,
      "贈": 5264,
      "贋": 5265,
      "贏": 5266,
      "贔": 5267,
      "贖": 5268,
      "贝": 5269,
      "贞": 5270,
      "负": 5271,
      "贡": 5272,
      "财": 5273,
      "责": 5274,
      "贤": 5275,
      "败": 5276,
      "账": 5277,
      "货": 5278,
      "质": 5279,
      "贩": 5280,
      "贪": 5281,
      "贫": 5282,
      "贬": 5283,
      "购": 5284,
      "贯": 5285,
      "贱": 5286,
      "贲": 5287,
      "贴": 5288,
      "贵": 5289,
      "贷": 5290,
      "贸": 5291,
      "费": 5292,
      "贺": 5293,
      "贻": 5294,
      "贼": 5295,
      "贾": 5296,
      "贿": 5297,
      "赁": 5298,
      "赂": 5299,
      "赃": 5300,
      "资": 5301,
      "赈": 5302,
      "赊": 5303,
      "赋": 5304,
      "赌": 5305,
      "赎": 5306,
      "赏": 5307,
      "赐": 5308,
      "赔": 5309,
      "赖": 5310,
      "赘": 5311,
      "赚": 5312,
      "赛": 5313,
      "赝": 5314,
      "赞": 5315,
      "赠": 5316,
      "赡": 5317,
      "赢": 5318,
      "赤": 5319,
      "赦": 5320,
      "赫": 5321,
      "走": 5322,
      "赴": 5323,
      "赵": 5324,
      "赶": 5325,
      "起": 5326,
      "趁": 5327,
      "超": 5328,
      "越": 5329,
      "趋": 5330,
      "趙": 5331,
      "趟": 5332,
      "趣": 5333,
      "足": 5334,
      "趴": 5335,
      "趾": 5336,
      "跃": 5337,
      "跋": 5338,
      "跌": 5339,
      "跑": 5340,
      "跚": 5341,
      "跛": 5342,
      "距": 5343,
      "跟": 5344,
      "跡": 5345,
      "跤": 5346,
      "跨": 5347,
      "跪": 5348,
      "路": 5349,
      "跳": 5350,
      "践": 5351,
      "跷": 5352,
      "跻": 5353,
      "踊": 5354,
      "踏": 5355,
      "踝": 5356,
      "踞": 5357,
      "踢": 5358,
      "踩": 5359,
      "踪": 5360,
      "踮": 5361,
      "踵": 5362,
      "踹": 5363,
      "蹄": 5364,
      "蹈": 5365,
      "蹊": 5366,
      "蹒": 5367,
      "蹤": 5368,
      "蹦": 5369,
      "蹩": 5370,
      "蹭": 5371,
      "蹲": 5372,
      "蹴": 5373,
      "蹶": 5374,
      "躁": 5375,
      "躇": 5376,
      "躊": 5377,
      "躍": 5378,
      "躓": 5379,
      "身": 5380,
      "躬": 5381,
      "躯": 5382,
      "躲": 5383,
      "躺": 5384,
      "躾": 5385,
      "車": 5386,
      "軋": 5387,
      "軌": 5388,
      "軍": 5389,
      "軒": 5390,
      "軟": 5391,
      "転": 5392,
      "軸": 5393,
      "軻": 5394,
      "軽": 5395,
      "較": 5396,
      "載": 5397,
      "輛": 5398,
      "輝": 5399,
      "輩": 5400,
      "輪": 5401,
      "輸": 5402,
      "轄": 5403,
      "轍": 5404,
      "轟": 5405,
      "轢": 5406,
      "车": 5407,
      "轨": 5408,
      "轩": 5409,
      "转": 5410,
      "轮": 5411,
      "软": 5412,
      "轰": 5413,
      "轲": 5414,
      "轴": 5415,
      "轶": 5416,
      "轻": 5417,
      "载": 5418,
      "轿": 5419,
      "较": 5420,
      "辄": 5421,
      "辅": 5422,
      "辆": 5423,
      "辈": 5424,
      "辉": 5425,
      "辍": 5426,
      "辐": 5427,
      "辑": 5428,
      "输": 5429,
      "辖": 5430,
      "辙": 5431,
      "辛": 5432,
      "辜": 5433,
      "辞": 5434,
      "辟": 5435,
      "辣": 5436,
      "辨": 5437,
      "辩": 5438,
      "辫": 5439,
      "辰": 5440,
      "辱": 5441,
      "農": 5442,
      "辷": 5443,
      "边": 5444,
      "辺": 5445,
      "込": 5446,
      "辽": 5447,
      "达": 5448,
      "辿": 5449,
      "迁": 5450,
      "迂": 5451,
      "迄": 5452,
      "迅": 5453,
      "过": 5454,
      "迈": 5455,
      "迎": 5456,
      "运": 5457,
      "近": 5458,
      "返": 5459,
      "还": 5460,
      "这": 5461,
      "进": 5462,
      "远": 5463,
      "违": 5464,
      "连": 5465,
      "迟": 5466,
      "迦": 5467,
      "迪": 5468,
      "迫": 5469,
      "迭": 5470,
      "述": 5471,
      "迷": 5472,
      "迹": 5473,
      "追": 5474,
      "退": 5475,
      "送": 5476,
      "适": 5477,
      "逃": 5478,
      "逅": 5479,
      "逆": 5480,
      "选": 5481,
      "逊": 5482,
      "逍": 5483,
      "透": 5484,
      "逐": 5485,
      "递": 5486,
      "途": 5487,
      "逗": 5488,
      "這": 5489,
      "通": 5490,
      "逛": 5491,
      "逝": 5492,
      "速": 5493,
      "造": 5494,
      "逢": 5495,
      "連": 5496,
      "逮": 5497,
      "週": 5498,
      "進": 5499,
      "逵": 5500,
      "逸": 5501,
      "逻": 5502,
      "逼": 5503,
      "逾": 5504,
      "遁": 5505,
      "遂": 5506,
      "遅": 5507,
      "遇": 5508,
      "遊": 5509,
      "運": 5510,
      "遍": 5511,
      "過": 5512,
      "遏": 5513,
      "遐": 5514,
      "道": 5515,
      "達": 5516,
      "違": 5517,
      "遗": 5518,
      "遛": 5519,
      "遜": 5520,
      "遠": 5521,
      "遡": 5522,
      "遢": 5523,
      "遣": 5524,
      "遥": 5525,
      "適": 5526,
      "遭": 5527,
      "遮": 5528,
      "遵": 5529,
      "遷": 5530,
      "選": 5531,
      "遺": 5532,
      "遼": 5533,
      "遽": 5534,
      "避": 5535,
      "邀": 5536,
      "邁": 5537,
      "邂": 5538,
      "還": 5539,
      "邋": 5540,
      "邓": 5541,
      "邡": 5542,
      "邢": 5543,
      "那": 5544,
      "邦": 5545,
      "邪": 5546,
      "邮": 5547,
      "邱": 5548,
      "邵": 5549,
      "邸": 5550,
      "邹": 5551,
      "邻": 5552,
      "郁": 5553,
      "郃": 5554,
      "郅": 5555,
      "郊": 5556,
      "郎": 5557,
      "郑": 5558,
      "郝": 5559,
      "郡": 5560,
      "部": 5561,
      "郭": 5562,
      "郵": 5563,
      "郷": 5564,
      "都": 5565,
      "鄂": 5566,
      "鄉": 5567,
      "鄒": 5568,
      "鄙": 5569,
      "鄧": 5570,
      "鄭": 5571,
      "鄱": 5572,
      "酊": 5573,
      "酋": 5574,
      "配": 5575,
      "酒": 5576,
      "酔": 5577,
      "酗": 5578,
      "酢": 5579,
      "酥": 5580,
      "酩": 5581,
      "酪": 5582,
      "酬": 5583,
      "酮": 5584,
      "酯": 5585,
      "酰": 5586,
      "酱": 5587,
      "酵": 5588,
      "酶": 5589,
      "酷": 5590,
      "酸": 5591,
      "酿": 5592,
      "醇": 5593,
      "醉": 5594,
      "醋": 5595,
      "醒": 5596,
      "醛": 5597,
      "醜": 5598,
      "醤": 5599,
      "醫": 5600,
      "醸": 5601,
      "醺": 5602,
      "采": 5603,
      "釈": 5604,
      "释": 5605,
      "里": 5606,
      "重": 5607,
      "野": 5608,
      "量": 5609,
      "金": 5610,
      "釘": 5611,
      "釜": 5612,
      "針": 5613,
      "釣": 5614,
      "鈍": 5615,
      "鈞": 5616,
      "鈴": 5617,
      "鈺": 5618,
      "鉄": 5619,
      "鉛": 5620,
      "鉢": 5621,
      "鉤": 5622,
      "鉱": 5623,
      "鉴": 5624,
      "銀": 5625,
      "銃": 5626,
      "銅": 5627,
      "銑": 5628,
      "銘": 5629,
      "銭": 5630,
      "銮": 5631,
      "鋒": 5632,
      "鋭": 5633,
      "鋳": 5634,
      "鋼": 5635,
      "錆": 5636,
      "錠": 5637,
      "錢": 5638,
      "錤": 5639,
      "錦": 5640,
      "錫": 5641,
      "錬": 5642,
      "錮": 5643,
      "錯": 5644,
      "録": 5645,
      "鍋": 5646,
      "鍛": 5647,
      "鍬": 5648,
      "鍮": 5649,
      "鍵": 5650,
      "鍼": 5651,
      "鍾": 5652,
      "鎌": 5653,
      "鎏": 5654,
      "鎔": 5655,
      "鎖": 5656,
      "鎧": 5657,
      "鎮": 5658,
      "鏡": 5659,
      "鐘": 5660,
      "鐵": 5661,
      "鐸": 5662,
      "鑑": 5663,
      "鑫": 5664,
      "鑾": 5665,
      "针": 5666,
      "钉": 5667,
      "钓": 5668,
      "钙": 5669,
      "钛": 5670,
      "钜": 5671,
      "钝": 5672,
      "钞": 5673,
      "钟": 5674,
      "钠": 5675,
      "钢": 5676,
      "钥": 5677,
      "钦": 5678,
      "钧": 5679,
      "钨": 5680,
      "钩": 5681,
      "钮": 5682,
      "钯": 5683,
      "钰": 5684,
      "钱": 5685,
      "钳": 5686,
      "钴": 5687,
      "钻": 5688,
      "钼": 5689,
      "钽": 5690,
      "钾": 5691,
      "铀": 5692,
      "铁": 5693,
      "铂": 5694,
      "铃": 5695,
      "铅": 5696,
      "铉": 5697,
      "铎": 5698,
      "铜": 5699,
      "铝": 5700,
      "铢": 5701,
      "铤": 5702,
      "铭": 5703,
      "铲": 5704,
      "银": 5705,
      "铸": 5706,
      "铺": 5707,
      "链": 5708,
      "销": 5709,
      "锁": 5710,
      "锂": 5711,
      "锄": 5712,
      "锅": 5713,
      "锆": 5714,
      "锈": 5715,
      "锋": 5716,
      "锌": 5717,
      "锏": 5718,
      "锐": 5719,
      "锑": 5720,
      "错": 5721,
      "锚": 5722,
      "锡": 5723,
      "锤": 5724,
      "锥": 5725,
      "锦": 5726,
      "键": 5727,
      "锯": 5728,
      "锰": 5729,
      "锵": 5730,
      "锹": 5731,
      "锻": 5732,
      "锿": 5733,
      "镀": 5734,
      "镁": 5735,
      "镇": 5736,
      "镌": 5737,
      "镍": 5738,
      "镐": 5739,
      "镑": 5740,
      "镓": 5741,
      "镕": 5742,
      "镖": 5743,
      "镜": 5744,
      "镣": 5745,
      "镭": 5746,
      "镯": 5747,
      "镰": 5748,
      "镳": 5749,
      "镶": 5750,
      "長": 5751,
      "长": 5752,
      "門": 5753,
      "閃": 5754,
      "閉": 5755,
      "開": 5756,
      "閏": 5757,
      "閑": 5758,
      "間": 5759,
      "関": 5760,
      "閣": 5761,
      "閥": 5762,
      "閲": 5763,
      "閻": 5764,
      "閾": 5765,
      "闇": 5766,
      "闊": 5767,
      "闘": 5768,
      "门": 5769,
      "闪": 5770,
      "闫": 5771,
      "闭": 5772,
      "问": 5773,
      "闯": 5774,
      "闲": 5775,
      "间": 5776,
      "闷": 5777,
      "闸": 5778,
      "闹": 5779,
      "闺": 5780,
      "闻": 5781,
      "阀": 5782,
      "阁": 5783,
      "阂": 5784,
      "阅": 5785,
      "阉": 5786,
      "阎": 5787,
      "阐": 5788,
      "阑": 5789,
      "阔": 5790,
      "阚": 5791,
      "阜": 5792,
      "队": 5793,
      "阪": 5794,
      "阮": 5795,
      "阱": 5796,
      "防": 5797,
      "阳": 5798,
      "阴": 5799,
      "阵": 5800,
      "阶": 5801,
      "阻": 5802,
      "阿": 5803,
      "陀": 5804,
      "附": 5805,
      "际": 5806,
      "陆": 5807,
      "陈": 5808,
      "陋": 5809,
      "陌": 5810,
      "降": 5811,
      "限": 5812,
      "陕": 5813,
      "陛": 5814,
      "陝": 5815,
      "陡": 5816,
      "院": 5817,
      "陣": 5818,
      "除": 5819,
      "陥": 5820,
      "陨": 5821,
      "险": 5822,
      "陪": 5823,
      "陰": 5824,
      "陳": 5825,
      "陵": 5826,
      "陶": 5827,
      "陷": 5828,
      "陸": 5829,
      "険": 5830,
      "陽": 5831,
      "隅": 5832,
      "隆": 5833,
      "隈": 5834,
      "隊": 5835,
      "隋": 5836,
      "階": 5837,
      "随": 5838,
      "隐": 5839,
      "隔": 5840,
      "隕": 5841,
      "隘": 5842,
      "隙": 5843,
      "際": 5844,
      "障": 5845,
      "隠": 5846,
      "隣": 5847,
      "隧": 5848,
      "險": 5849,
      "隶": 5850,
      "隷": 5851,
      "隻": 5852,
      "隼": 5853,
      "隽": 5854,
      "难": 5855,
      "雀": 5856,
      "雁": 5857,
      "雄": 5858,
      "雅": 5859,
      "集": 5860,
      "雇": 5861,
      "雉": 5862,
      "雌": 5863,
      "雍": 5864,
      "雏": 5865,
      "雑": 5866,
      "雕": 5867,
      "雛": 5868,
      "雜": 5869,
      "離": 5870,
      "難": 5871,
      "雨": 5872,
      "雪": 5873,
      "雯": 5874,
      "雰": 5875,
      "雲": 5876,
      "雳": 5877,
      "零": 5878,
      "雷": 5879,
      "雹": 5880,
      "電": 5881,
      "雾": 5882,
      "需": 5883,
      "霁": 5884,
      "霄": 5885,
      "霆": 5886,
      "震": 5887,
      "霉": 5888,
      "霊": 5889,
      "霍": 5890,
      "霏": 5891,
      "霜": 5892,
      "霞": 5893,
      "霧": 5894,
      "露": 5895,
      "霸": 5896,
      "霹": 5897,
      "霾": 5898,
      "靂": 5899,
      "青": 5900,
      "靓": 5901,
      "靖": 5902,
      "静": 5903,
      "靛": 5904,
      "非": 5905,
      "靠": 5906,
      "靡": 5907,
      "面": 5908,
      "靥": 5909,
      "革": 5910,
      "靭": 5911,
      "靱": 5912,
      "靳": 5913,
      "靴": 5914,
      "靶": 5915,
      "鞅": 5916,
      "鞋": 5917,
      "鞍": 5918,
      "鞏": 5919,
      "鞘": 5920,
      "鞠": 5921,
      "鞣": 5922,
      "鞭": 5923,
      "韋": 5924,
      "韓": 5925,
      "韜": 5926,
      "韦": 5927,
      "韧": 5928,
      "韩": 5929,
      "韫": 5930,
      "韬": 5931,
      "韭": 5932,
      "音": 5933,
      "韵": 5934,
      "韶": 5935,
      "韻": 5936,
      "響": 5937,
      "頁": 5938,
      "頂": 5939,
      "頃": 5940,
      "項": 5941,
      "順": 5942,
      "須": 5943,
      "頌": 5944,
      "預": 5945,
      "頑": 5946,
      "頒": 5947,
      "頓": 5948,
      "領": 5949,
      "頚": 5950,
      "頤": 5951,
      "頬": 5952,
      "頭": 5953,
      "頴": 5954,
      "頸": 5955,
      "頻": 5956,
      "頼": 5957,
      "題": 5958,
      "額": 5959,
      "顎": 5960,
      "顏": 5961,
      "顔": 5962,
      "顕": 5963,
      "願": 5964,
      "類": 5965,
      "顧": 5966,
      "顴": 5967,
      "页": 5968,
      "顶": 5969,
      "顷": 5970,
      "项": 5971,
      "顺": 5972,
      "须": 5973,
      "顽": 5974,
      "顾": 5975,
      "顿": 5976,
      "颁": 5977,
      "颂": 5978,
      "预": 5979,
      "颅": 5980,
      "领": 5981,
      "颇": 5982,
      "颈": 5983,
      "颊": 5984,
      "颌": 5985,
      "颐": 5986,
      "频": 5987,
      "颓": 5988,
      "颖": 5989,
      "颗": 5990,
      "题": 5991,
      "颚": 5992,
      "颜": 5993,
      "额": 5994,
      "颠": 5995,
      "颤": 5996,
      "風": 5997,
      "颯": 5998,
      "飆": 5999,
      "风": 6000,
      "飒": 6001,
      "飓": 6002,
      "飘": 6003,
      "飙": 6004,
      "飚": 6005,
      "飛": 6006,
      "飞": 6007,
      "食": 6008,
      "飢": 6009,
      "飯": 6010,
      "飲": 6011,
      "飴": 6012,
      "飼": 6013,
      "飽": 6014,
      "飾": 6015,
      "餃": 6016,
      "餅": 6017,
      "養": 6018,
      "餌": 6019,
      "餐": 6020,
      "餓": 6021,
      "館": 6022,
      "饅": 6023,
      "饉": 6024,
      "饗": 6025,
      "饥": 6026,
      "饪": 6027,
      "饭": 6028,
      "饮": 6029,
      "饰": 6030,
      "饱": 6031,
      "饲": 6032,
      "饵": 6033,
      "饶": 6034,
      "饺": 6035,
      "饼": 6036,
      "饿": 6037,
      "馁": 6038,
      "馅": 6039,
      "馆": 6040,
      "馈": 6041,
      "馐": 6042,
      "馒": 6043,
      "馕": 6044,
      "首": 6045,
      "馗": 6046,
      "香": 6047,
      "馨": 6048,
      "馬": 6049,
      "馭": 6050,
      "馮": 6051,
      "馳": 6052,
      "馴": 6053,
      "駁": 6054,
      "駄": 6055,
      "駅": 6056,
      "駆": 6057,
      "駐": 6058,
      "駒": 6059,
      "駕": 6060,
      "駿": 6061,
      "騁": 6062,
      "騎": 6063,
      "騏": 6064,
      "騒": 6065,
      "験": 6066,
      "騙": 6067,
      "騰": 6068,
      "驅": 6069,
      "驚": 6070,
      "驟": 6071,
      "马": 6072,
      "驭": 6073,
      "驯": 6074,
      "驰": 6075,
      "驱": 6076,
      "驳": 6077,
      "驴": 6078,
      "驶": 6079,
      "驷": 6080,
      "驸": 6081,
      "驹": 6082,
      "驻": 6083,
      "驼": 6084,
      "驾": 6085,
      "驿": 6086,
      "骁": 6087,
      "骂": 6088,
      "骄": 6089,
      "骆": 6090,
      "骇": 6091,
      "骋": 6092,
      "验": 6093,
      "骏": 6094,
      "骐": 6095,
      "骑": 6096,
      "骗": 6097,
      "骚": 6098,
      "骡": 6099,
      "骤": 6100,
      "骨": 6101,
      "骶": 6102,
      "骷": 6103,
      "骸": 6104,
      "骺": 6105,
      "骼": 6106,
      "髄": 6107,
      "髅": 6108,
      "髋": 6109,
      "髓": 6110,
      "體": 6111,
      "高": 6112,
      "髦": 6113,
      "髪": 6114,
      "髭": 6115,
      "髮": 6116,
      "鬃": 6117,
      "鬆": 6118,
      "鬟": 6119,
      "鬣": 6120,
      "鬱": 6121,
      "鬼": 6122,
      "魁": 6123,
      "魂": 6124,
      "魄": 6125,
      "魅": 6126,
      "魇": 6127,
      "魏": 6128,
      "魔": 6129,
      "魚": 6130,
      "魯": 6131,
      "鮑": 6132,
      "鮫": 6133,
      "鮮": 6134,
      "鯉": 6135,
      "鯛": 6136,
      "鯤": 6137,
      "鯨": 6138,
      "鰓": 6139,
      "鰭": 6140,
      "鱗": 6141,
      "鱼": 6142,
      "鱿": 6143,
      "鲁": 6144,
      "鲍": 6145,
      "鲑": 6146,
      "鲛": 6147,
      "鲜": 6148,
      "鲟": 6149,
      "鲤": 6150,
      "鲨": 6151,
      "鲱": 6152,
      "鲲": 6153,
      "鲵": 6154,
      "鲶": 6155,
      "鲷": 6156,
      "鲸": 6157,
      "鲼": 6158,
      "鳃": 6159,
      "鳄": 6160,
      "鳅": 6161,
      "鳌": 6162,
      "鳍": 6163,
      "鳏": 6164,
      "鳔": 6165,
      "鳗": 6166,
      "鳝": 6167,
      "鳞": 6168,
      "鳥": 6169,
      "鳩": 6170,
      "鳳": 6171,
      "鳴": 6172,
      "鴨": 6173,
      "鴻": 6174,
      "鵬": 6175,
      "鵰": 6176,
      "鵲": 6177,
      "鶏": 6178,
      "鶴": 6179,
      "鷗": 6180,
      "鷲": 6181,
      "鷹": 6182,
      "鷺": 6183,
      "鸟": 6184,
      "鸠": 6185,
      "鸡": 6186,
      "鸣": 6187,
      "鸥": 6188,
      "鸦": 6189,
      "鸨": 6190,
      "鸩": 6191,
      "鸭": 6192,
      "鸮": 6193,
      "鸯": 6194,
      "鸳": 6195,
      "鸵": 6196,
      "鸸": 6197,
      "鸽": 6198,
      "鸿": 6199,
      "鹀": 6200,
      "鹃": 6201,
      "鹅": 6202,
      "鹈": 6203,
      "鹉": 6204,
      "鹊": 6205,
      "鹋": 6206,
      "鹌": 6207,
      "鹏": 6208,
      "鹑": 6209,
      "鹕": 6210,
      "鹤": 6211,
      "鹦": 6212,
      "鹫": 6213,
      "鹬": 6214,
      "鹭": 6215,
      "鹮": 6216,
      "鹰": 6217,
      "鹳": 6218,
      "鹵": 6219,
      "鹸": 6220,
      "鹿": 6221,
      "麋": 6222,
      "麒": 6223,
      "麓": 6224,
      "麗": 6225,
      "麝": 6226,
      "麟": 6227,
      "麦": 6228,
      "麸": 6229,
      "麺": 6230,
      "麻": 6231,
      "麼": 6232,
      "麽": 6233,
      "麾": 6234,
      "黄": 6235,
      "黍": 6236,
      "黎": 6237,
      "黏": 6238,
      "黑": 6239,
      "黒": 6240,
      "默": 6241,
      "黙": 6242,
      "黛": 6243,
      "黜": 6244,
      "黝": 6245,
      "點": 6246,
      "黯": 6247,
      "黴": 6248,
      "鼎": 6249,
      "鼓": 6250,
      "鼠": 6251,
      "鼩": 6252,
      "鼬": 6253,
      "鼱": 6254,
      "鼹": 6255,
      "鼻": 6256,
      "鼾": 6257,
      "齊": 6258,
      "齐": 6259,
      "齢": 6260,
      "齿": 6261,
      "龄": 6262,
      "龈": 6263,
      "龋": 6264,
      "龍": 6265,
      "龐": 6266,
      "龙": 6267,
      "龚": 6268,
      "龟": 6269,
      "ꞌ": 6270,
      "가": 6271,
      "개": 6272,
      "경": 6273,
      "고": 6274,
      "과": 6275,
      "궁": 6276,
      "근": 6277,
      "기": 6278,
      "너": 6279,
      "념": 6280,
      "는": 6281,
      "능": 6282,
      "니": 6283,
      "다": 6284,
      "단": 6285,
      "달": 6286,
      "더": 6287,
      "둔": 6288,
      "들": 6289,
      "디": 6290,
      "때": 6291,
      "떤": 6292,
      "랑": 6293,
      "러": 6294,
      "려": 6295,
      "료": 6296,
      "름": 6297,
      "리": 6298,
      "매": 6299,
      "무": 6300,
      "문": 6301,
      "박": 6302,
      "발": 6303,
      "번": 6304,
      "복": 6305,
      "빙": 6306,
      "빨": 6307,
      "사": 6308,
      "샬": 6309,
      "설": 6310,
      "섬": 6311,
      "성": 6312,
      "세": 6313,
      "섹": 6314,
      "셀": 6315,
      "속": 6316,
      "스": 6317,
      "습": 6318,
      "신": 6319,
      "않": 6320,
      "았": 6321,
      "약": 6322,
      "어": 6323,
      "에": 6324,
      "여": 6325,
      "역": 6326,
      "오": 6327,
      "와": 6328,
      "왜": 6329,
      "요": 6330,
      "용": 6331,
      "운": 6332,
      "은": 6333,
      "을": 6334,
      "이": 6335,
      "인": 6336,
      "임": 6337,
      "있": 6338,
      "자": 6339,
      "장": 6340,
      "전": 6341,
      "점": 6342,
      "정": 6343,
      "종": 6344,
      "좋": 6345,
      "주": 6346,
      "지": 6347,
      "질": 6348,
      "천": 6349,
      "청": 6350,
      "치": 6351,
      "카": 6352,
      "토": 6353,
      "투": 6354,
      "판": 6355,
      "표": 6356,
      "피": 6357,
      "필": 6358,
      "하": 6359,
      "해": 6360,
      "혜": 6361,
      "호": 6362,
      "회": 6363,
      "효": 6364,
      "히": 6365,
      "ﬁ": 6366,
      "︠": 6367,
      "︡": 6368,
      "ﻻ": 6369,
      "！": 6370,
      "％": 6371,
      "＆": 6372,
      "（": 6373,
      "）": 6374,
      "＋": 6375,
      "，": 6376,
      "－": 6377,
      "／": 6378,
      "０": 6379,
      "１": 6380,
      "２": 6381,
      "３": 6382,
      "４": 6383,
      "５": 6384,
      "６": 6385,
      "７": 6386,
      "８": 6387,
      "９": 6388,
      "：": 6389,
      "；": 6390,
      "＝": 6391,
      "＞": 6392,
      "？": 6393,
      "Ａ": 6394,
      "Ｄ": 6395,
      "Ｅ": 6396,
      "Ｇ": 6397,
      "Ｎ": 6398,
      "Ｐ": 6399,
      "Ｓ": 6400,
      "Ｕ": 6401,
      "Ｗ": 6402,
      "｜": 6403,
      "～": 6404,
      "｢": 6405,
      "｣": 6406,
      "･": 6407,
      "🐐": 6408,
      "💩": 6409,
      "😂": 6410,
      "😜": 6411,
      "🤩": 6412,
      "🤪": 6413,
      "🥇": 6414,
      "🥶": 6415,
      "in": 6416,
      "an": 6417,
      "ar": 6418,
      ".\t": 6419,
      "ан": 6420,
      "▁к": 6421,
      "ар": 6422,
      "▁t": 6423,
      "er": 6424,
      "on": 6425,
      "ал": 6426,
      "▁б": 6427,
      "▁b": 6428,
      "ен": 6429,
      "▁ئ": 6430,
      "il": 6431,
      "▁с": 6432,
      "ер": 6433,
      "en": 6434,
      "▁ж": 6435,
      "ын": 6436,
      "al": 6437,
      "▁s": 6438,
      "لى": 6439,
      "at": 6440,
      "▁o": 6441,
      "▁т": 6442,
      "as": 6443,
      "да": 6444,
      "di": 6445,
      "نى": 6446,
      "is": 6447,
      "ол": 6448,
      "▁y": 6449,
      "da": 6450,
      "\r\n": 6451,
      "▁м": 6452,
      "ды": 6453,
      "▁k": 6454,
      "or": 6455,
      "。\t": 6456,
      "▁ب": 6457,
      "ат": 6458,
      "?\t": 6459,
      "▁m": 6460,
      "ch": 6461,
      "▁п": 6462,
      "ст": 6463,
      "es": 6464,
      "دى": 6465,
      "ет": 6466,
      "ин": 6467,
      "он": 6468,
      "ir": 6469,
      "ing": 6470,
      "ان": 6471,
      "ел": 6472,
      "ay": 6473,
      "un": 6474,
      "ай": 6475,
      "li": 6476,
      "▁h": 6477,
      "▁в": 6478,
      "ас": 6479,
      "lar": 6480,
      "ed": 6481,
      "ор": 6482,
      "am": 6483,
      "el": 6484,
      "تى": 6485,
      "▁н": 6486,
      "سى": 6487,
      "▁ق": 6488,
      "▁1": 6489,
      "ار": 6490,
      "▁th": 6491,
      "▁f": 6492,
      "ил": 6493,
      "▁ك": 6494,
      "▁о": 6495,
      "ыл": 6496,
      "et": 6497,
      "▁a": 6498,
      "▁а": 6499,
      "▁p": 6500,
      "iy": 6501,
      "ия": 6502,
      "▁ت": 6503,
      "ın": 6504,
      "▁ي": 6505,
      "ов": 6506,
      "ol": 6507,
      "ur": 6508,
      "▁g": 6509,
      "▁d": 6510,
      "▁م": 6511,
      "ak": 6512,
      "ом": 6513,
      "кт": 6514,
      "▁д": 6515,
      "رى": 6516,
      ".\r\n": 6517,
      "▁q": 6518,
      "om": 6519,
      "▁ئا": 6520,
      "▁қ": 6521,
      "ес": 6522,
      "ем": 6523,
      "o'": 6524,
      "▁M": 6525,
      "▁w": 6526,
      "▁the": 6527,
      "ىل": 6528,
      "▁n": 6529,
      "ра": 6530,
      "ek": 6531,
      "ун": 6532,
      "it": 6533,
      "iz": 6534,
      "ish": 6535,
      "▁2": 6536,
      "ей": 6537,
      "نىڭ": 6538,
      "ot": 6539,
      "▁r": 6540,
      "▁э": 6541,
      "▁(": 6542,
      "ін": 6543,
      "ли": 6544,
      "▁c": 6545,
      "!\t": 6546,
      "▁S": 6547,
      "ga": 6548,
      "im": 6549,
      "▁v": 6550,
      "▁и": 6551,
      "us": 6552,
      "ді": 6553,
      "la": 6554,
      "00": 6555,
      "▁in": 6556,
      "？\t": 6557,
      "▁A": 6558,
      "ты": 6559,
      "▁ч": 6560,
      "os": 6561,
      "▁ал": 6562,
      "ул": 6563,
      "كى": 6564,
      "ог": 6565,
      "▁бол": 6566,
      "ەن": 6567,
      "した": 6568,
      "di.\t": 6569,
      "le": 6570,
      "ек": 6571,
      "gi": 6572,
      "ро": 6573,
      "ны": 6574,
      "ды.\t": 6575,
      "ит": 6576,
      "▁س": 6577,
      "ам": 6578,
      "үн": 6579,
      "ad": 6580,
      "▁B": 6581,
      "دا": 6582,
      "قى": 6583,
      "ەر": 6584,
      "уу": 6585,
      "ег": 6586,
      "ир": 6587,
      "от": 6588,
      "▁М": 6589,
      "ال": 6590,
      "ti": 6591,
      "اي": 6592,
      "сы": 6593,
      "and": 6594,
      "ەت": 6595,
      "em": 6596,
      "▁жа": 6597,
      "ini": 6598,
      "ul": 6599,
      "مى": 6600,
      "ik": 6601,
      "ду": 6602,
      "gan": 6603,
      "▁of": 6604,
      "ри": 6605,
      "▁C": 6606,
      "▁на": 6607,
      "▁з": 6608,
      "▁to": 6609,
      "▁у": 6610,
      "▁P": 6611,
      "ول": 6612,
      "▁ө": 6613,
      "ой": 6614,
      "ab": 6615,
      "ut": 6616,
      "ары": 6617,
      "چى": 6618,
      "دى\t": 6619,
      "):": 6620,
      "ка": 6621,
      "دۇ": 6622,
      "▁кө": 6623,
      "id": 6624,
      "▁e": 6625,
      "ro": 6626,
      "▁R": 6627,
      "شى": 6628,
      "▁bir": 6629,
      "ыз": 6630,
      "▁L": 6631,
      "ур": 6632,
      "де": 6633,
      "ec": 6634,
      "▁р": 6635,
      "ic": 6636,
      "ました": 6637,
      "▁u": 6638,
      "ак": 6639,
      "▁'": 6640,
      "из": 6641,
      "▁по": 6642,
      "▁T": 6643,
      "шы": 6644,
      "▁3": 6645,
      "ey": 6646,
      "ед": 6647,
      "▁ol": 6648,
      "ىلى": 6649,
      "ез": 6650,
      "ter": 6651,
      "▁г": 6652,
      "▁ү": 6653,
      "ىر": 6654,
      "av": 6655,
      "▁K": 6656,
      "▁G": 6657,
      "um": 6658,
      "ап": 6659,
      "ni": 6660,
      "ыр": 6661,
      "ash": 6662,
      "ки": 6663,
      "▁С": 6664,
      "алы": 6665,
      "▁Б": 6666,
      "ында": 6667,
      "'s": 6668,
      "▁پ": 6669,
      "▁ф": 6670,
      "ra": 6671,
      "▁ئى": 6672,
      "ғы": 6673,
      "chi": 6674,
      "об": 6675,
      "із": 6676,
      "▁ба": 6677,
      "لىق": 6678,
      "дар": 6679,
      "▁i": 6680,
      "ang": 6681,
      "ap": 6682,
      "غان": 6683,
      "دە": 6684,
      "ob": 6685,
      "▁ن": 6686,
      "но": 6687,
      "ір": 6688,
      "им": 6689,
      "?\r\n": 6690,
      "▁ھ": 6691,
      "үр": 6692,
      "ib": 6693,
      "ең": 6694,
      "az": 6695,
      "▁H": 6696,
      "ning": 6697,
      "анда": 6698,
      "аб": 6699,
      "▁К": 6700,
      "▁en": 6701,
      "ың": 6702,
      "؟\t": 6703,
      "ос": 6704,
      "か？\t": 6705,
      "ev": 6706,
      "ест": 6707,
      "غا": 6708,
      "▁o'": 6709,
      "га": 6710,
      "▁be": 6711,
      "асы": 6712,
      "та": 6713,
      "ик": 6714,
      "▁А": 6715,
      "ion": 6716,
      "ға": 6717,
      "ler": 6718,
      "02": 6719,
      "ıl": 6720,
      "▁مۇ": 6721,
      "▁ئە": 6722,
      "oy": 6723,
      "ます": 6724,
      "sh": 6725,
      "اش": 6726,
      "▁چ": 6727,
      "ти": 6728,
      "ました。\t": 6729,
      "ok": 6730,
      "وم": 6731,
      "asi": 6732,
      "гы": 6733,
      "mi": 6734,
      "ün": 6735,
      "▁خ": 6736,
      "ent": 6737,
      "▁мен": 6738,
      "▁is": 6739,
      "ta": 6740,
      "ون": 6741,
      "dan": 6742,
      "ۇر": 6743,
      "ers": 6744,
      "▁ar": 6745,
      "то": 6746,
      "аны": 6747,
      "лі": 6748,
      "▁«": 6749,
      "re": 6750,
      "lan": 6751,
      "ди": 6752,
      "▁Р": 6753,
      "ся": 6754,
      "od": 6755,
      "▁ئې": 6756,
      "dı": 6757,
      "▁j": 6758,
      "ий": 6759,
      "lik": 6760,
      "لار": 6761,
      "ig": 6762,
      "▁ç": 6763,
      "▁bu": 6764,
      "дан": 6765,
      "▁تو": 6766,
      "өр": 6767,
      "ام": 6768,
      "ık": 6769,
      "▁bo'": 6770,
      "▁ком": 6771,
      "▁D": 6772,
      "ие": 6773,
      "▁N": 6774,
      "▁qil": 6775,
      "▁5": 6776,
      "ган": 6777,
      "ac": 6778,
      "▁4": 6779,
      "үү": 6780,
      "▁بول": 6781,
      "▁Л": 6782,
      "од": 6783,
      "▁ر": 6784,
      "ің": 6785,
      "دىن": 6786,
      "си": 6787,
      "▁yo": 6788,
      "▁ма": 6789,
      "ات": 6790,
      "he": 6791,
      "дам": 6792,
      "tı": 6793,
      "ەل": 6794,
      "▁10": 6795,
      "ov": 6796,
      "ла": 6797,
      "دىكى": 6798,
      "иль": 6799,
      "тер": 6800,
      "▁кел": 6801,
      "ia": 6802,
      "ess": 6803,
      "tr": 6804,
      "ۇن": 6805,
      "өн": 6806,
      "▁не": 6807,
      "аң": 6808,
      "▁вы": 6809,
      "▁F": 6810,
      "ут": 6811,
      "▁Y": 6812,
      "！\t": 6813,
      "▁bil": 6814,
      "на": 6815,
      "ىي": 6816,
      "▁يې": 6817,
      "BA": 6818,
      "ag": 6819,
      "ow": 6820,
      "▁E": 6821,
      "▁l": 6822,
      "です": 6823,
      "▁كې": 6824,
      "ге": 6825,
      "ۈر": 6826,
      "one": 6827,
      "ев": 6828,
      "alar": 6829,
      "du": 6830,
      "ah": 6831,
      "▁про": 6832,
      "▁J": 6833,
      "obil": 6834,
      "▁al": 6835,
      "ڭى": 6836,
      "ya": 6837,
      "аты": 6838,
      "▁بىر": 6839,
      "され": 6840,
      "iv": 6841,
      "لىك": 6842,
      "ki": 6843,
      "سا": 6844,
      "dagi": 6845,
      "ына": 6846,
      "▁ш": 6847,
      "▁ли": 6848,
      "ور": 6849,
      "ле": 6850,
      ")\t": 6851,
      "▁ne": 6852,
      "ого": 6853,
      "de": 6854,
      "ly": 6855,
      "ەك": 6856,
      "▁Д": 6857,
      "▁ә": 6858,
      "ав": 6859,
      "ەي": 6860,
      "aş": 6861,
      "лы": 6862,
      "اق": 6863,
      "▁жыл": 6864,
      "▁ج": 6865,
      "lari": 6866,
      "мен": 6867,
      "▁W": 6868,
      "▁ch": 6869,
      "үй": 6870,
      ":1": 6871,
      "▁an": 6872,
      "айт": 6873,
      "▁X": 6874,
      "گە": 6875,
      "пи": 6876,
      "ining": 6877,
      "▁et": 6878,
      "ии": 6879,
      "▁di": 6880,
      "ож": 6881,
      "ған": 6882,
      "▁بۇ": 6883,
      "▁I": 6884,
      "▁(1": 6885,
      "▁da": 6886,
      "▁пр": 6887,
      "pp": 6888,
      "ong": 6889,
      "▁sh": 6890,
      "ill": 6891,
      "▁л": 6892,
      "▁yu": 6893,
      "ке": 6894,
      "▁for": 6895,
      "omobil": 6896,
      "▁П": 6897,
      "ру": 6898,
      "بى": 6899,
      "ма": 6900,
      "▁and": 6901,
      "'n": 6902,
      "дын": 6903,
      "▁U": 6904,
      "ый": 6905,
      "еш": 6906,
      "ала": 6907,
      "▁ۋ": 6908,
      "▁да": 6909,
      ".\tB": 6910,
      "ەش": 6911,
      "ок": 6912,
      "▁ст": 6913,
      "▁ئال": 6914,
      "ma": 6915,
      "リー": 6916,
      "op": 6917,
      "ır": 6918,
      "اپ": 6919,
      "том": 6920,
      "юн": 6921,
      "лан": 6922,
      "st": 6923,
      "aq": 6924,
      "тт": 6925,
      "est": 6926,
      "▁كۆ": 6927,
      "▁ئۆ": 6928,
      "\tT": 6929,
      "▁bo'l": 6930,
      "▁ай": 6931,
      "ce": 6932,
      "زى": 6933,
      "eal": 6934,
      "ax": 6935,
      "ez": 6936,
      "дер": 6937,
      "▁ав": 6938,
      "osh": 6939,
      "еп": 6940,
      "▁жаң": 6941,
      "oq": 6942,
      "арт": 6943,
      "する": 6944,
      "ынын": 6945,
      "▁менен": 6946,
      "не": 6947,
      "\tA": 6948,
      "ېر": 6949,
      "еле": 6950,
      "ۇق": 6951,
      "てい": 6952,
      "يە": 6953,
      "ele": 6954,
      "▁de": 6955,
      "▁on": 6956,
      "tir": 6957,
      "▁со": 6958,
      "لىرى": 6959,
      "iya": 6960,
      "ұл": 6961,
      "ім": 6962,
      "иг": 6963,
      "ür": 6964,
      "уд": 6965,
      "اھ": 6966,
      "ىن": 6967,
      "▁uch": 6968,
      "▁has": 6969,
      "▁202": 6970,
      "уш": 6971,
      "қты": 6972,
      "tomobil": 6973,
      "لان": 6974,
      "еб": 6975,
      "▁د": 6976,
      "▁ve": 6977,
      "يا": 6978,
      "▁قىلى": 6979,
      "ив": 6980,
      "▁ش": 6981,
      "ель": 6982,
      "▁от": 6983,
      "مۇ": 6984,
      "▁بىل": 6985,
      "ать": 6986,
      "ция": 6987,
      "adi": 6988,
      "▁O": 6989,
      "lay": 6990,
      "дө": 6991,
      "▁көр": 6992,
      "ран": 6993,
      "▁at": 6994,
      "аль": 6995,
      "▁ئۇ": 6996,
      "g'": 6997,
      "ını": 6998,
      "uv": 6999,
      "▁ö": 7000,
      "ылы": 7001,
      "ında": 7002,
      "уб": 7003,
      "ша": 7004,
      "ük": 7005,
      "▁адам": 7006,
      "іл": 7007,
      "▁V": 7008,
      ".\tA": 7009,
      "▁va": 7010,
      "000": 7011,
      "▁st": 7012,
      "▁жар": 7013,
      "▁7": 7014,
      "ları": 7015,
      "قا": 7016,
      "▁Ч": 7017,
      "▁6": 7018,
      "ск": 7019,
      "▁ой": 7020,
      "ча": 7021,
      "..": 7022,
      "art": 7023,
      "▁قىل": 7024,
      "▁il": 7025,
      "man": 7026,
      "во": 7027,
      "▁об": 7028,
      "ۇل": 7029,
      "▁8": 7030,
      "▁ko'": 7031,
      "ян": 7032,
      "ана": 7033,
      "▁گ": 7034,
      "up": 7035,
      "ный": 7036,
      "hat": 7037,
      "▁Т": 7038,
      "پت": 7039,
      "uk": 7040,
      "оч": 7041,
      "▁ар": 7042,
      "hone": 7043,
      "lı": 7044,
      "дің": 7045,
      "пион": 7046,
      "ының": 7047,
      "しました。\t": 7048,
      "ars": 7049,
      "99": 7050,
      "ент": 7051,
      "ич": 7052,
      "фон": 7053,
      "емпион": 7054,
      "▁бар": 7055,
      "った": 7056,
      "▁do": 7057,
      "ېن": 7058,
      "oun": 7059,
      "ۈن": 7060,
      "оль": 7061,
      "▁Ch": 7062,
      "ari": 7063,
      "تا": 7064,
      "ım": 7065,
      "▁z": 7066,
      "ания": 7067,
      "дин": 7068,
      "onal": 7069,
      "▁чы": 7070,
      "▁Х": 7071,
      "ho": 7072,
      "са": 7073,
      "▁бир": 7074,
      "▁ay": 7075,
      "іс": 7076,
      "▁chi": 7077,
      "▁ұ": 7078,
      "▁يا": 7079,
      "▁oy": 7080,
      "үм": 7081,
      "уна": 7082,
      "وب": 7083,
      "үл": 7084,
      "ارى": 7085,
      "уп": 7086,
      "аз": 7087,
      "▁will": 7088,
      "▁you": 7089,
      "لەر": 7090,
      "онал": 7091,
      "10": 7092,
      "ine": 7093,
      "етт": 7094,
      "eni": 7095,
      "ış": 7096,
      "илли": 7097,
      "ub": 7098,
      "سىز": 7099,
      "ati": 7100,
      "олу": 7101,
      "▁or": 7102,
      "uy": 7103,
      "؟\tW": 7104,
      "▁ю": 7105,
      "eri": 7106,
      "ля": 7107,
      "iq": 7108,
      "▁өз": 7109,
      "day": 7110,
      "▁из": 7111,
      "▁av": 7112,
      ".\tM": 7113,
      "ですか？\t": 7114,
      "ақ": 7115,
      "▁بىلەن": 7116,
      "ым": 7117,
      "▁قان": 7118,
      "ue": 7119,
      "▁eng": 7120,
      "▁Н": 7121,
      "ад": 7122,
      "ます。\t": 7123,
      "ді.\t": 7124,
      "▁ئەڭ": 7125,
      "ör": 7126,
      "▁yan": 7127,
      "▁chiq": 7128,
      "ort": 7129,
      "ith": 7130,
      "202": 7131,
      "елефон": 7132,
      "▁ра": 7133,
      "дың": 7134,
      "▁юан": 7135,
      "шт": 7136,
      "ール": 7137,
      "dir": 7138,
      "ить": 7139,
      "▁ئاپت": 7140,
      "▁ئو": 7141,
      "uz": 7142,
      "томоб": 7143,
      "▁үч": 7144,
      "ası": 7145,
      "ilm": 7146,
      "ishi": 7147,
      "▁Г": 7148,
      "は、": 7149,
      "دىغان": 7150,
      "▁ş": 7151,
      "ۈچ": 7152,
      "лен": 7153,
      "▁(2": 7154,
      "▁li": 7155,
      "ەم": 7156,
      "лар": 7157,
      "aya": 7158,
      "▁ئاپتوم": 7159,
      "▁тү": 7160,
      "▁9": 7161,
      "こと": 7162,
      "ус": 7163,
      "▁милли": 7164,
      "eng": 7165,
      "▁mil": 7166,
      "ans": 7167,
      "кты": 7168,
      "▁ئاپتوموب": 7169,
      "af": 7170,
      "دۇ\t": 7171,
      "анд": 7172,
      "ush": 7173,
      "ост": 7174,
      "▁гол": 7175,
      "▁тур": 7176,
      "▁кер": 7177,
      "ation": 7178,
      "▁шы": 7179,
      "▁x": 7180,
      "қа": 7181,
      "гі": 7182,
      "do": 7183,
      "▁жет": 7184,
      "▁te": 7185,
      "▁ئاي": 7186,
      "▁with": 7187,
      "их": 7188,
      "ци": 7189,
      "oz": 7190,
      "▁چى": 7191,
      "▁pr": 7192,
      "ist": 7193,
      "▁при": 7194,
      "ные": 7195,
      "ない": 7196,
      "لەش": 7197,
      "ېتى": 7198,
      "▁ор": 7199,
      "есси": 7200,
      "▁توپ": 7201,
      "өл": 7202,
      "▁команда": 7203,
      "مىسى": 7204,
      "!\r\n": 7205,
      "ەس": 7206,
      "▁مۇسا": 7207,
      "yor": 7208,
      "ona": 7209,
      "▁х": 7210,
      "▁телефон": 7211,
      "ды\t": 7212,
      "mi?\t": 7213,
      "ктер": 7214,
      "吗？\t": 7215,
      "الى": 7216,
      "ۈش": 7217,
      "ген": 7218,
      "▁И": 7219,
      "▁12": 7220,
      "ېم": 7221,
      "ыт": 7222,
      "оналду": 7223,
      "وڭ": 7224,
      "▁В": 7225,
      "▁مۇسابى": 7226,
      "th": 7227,
      "kin": 7228,
      "кы": 7229,
      "▁за": 7230,
      "ېس": 7231,
      "алар": 7232,
      "ız": 7233,
      "ден": 7234,
      "ard": 7235,
      "ますか？\t": 7236,
      "ېرى": 7237,
      "از": 7238,
      "▁يېڭى": 7239,
      "ىرى": 7240,
      "оп": 7241,
      "или": 7242,
      "сел": 7243,
      "▁Pro": 7244,
      "▁жары": 7245,
      "▁автомоб": 7246,
      "▁قو": 7247,
      "үрө": 7248,
      "anch": 7249,
      "▁та": 7250,
      "гер": 7251,
      "▁20": 7252,
      "ri": 7253,
      "ant": 7254,
      "essi": 7255,
      "▁11": 7256,
      "▁ma": 7257,
      "кен": 7258,
      "▁ل": 7259,
      "ку": 7260,
      "ۇپ": 7261,
      ".\tS": 7262,
      "▁мат": 7263,
      "ски": 7264,
      "▁tak": 7265,
      "▁yuan": 7266,
      "ина": 7267,
      "ных": 7268,
      "▁бір": 7269,
      "Phone": 7270,
      "داق": 7271,
      "pple": 7272,
      "анч": 7273,
      "ha": 7274,
      "üz": 7275,
      "اس": 7276,
      "ali": 7277,
      "▁uchun": 7278,
      "ят": 7279,
      "ып": 7280,
      "▁бер": 7281,
      "ەپ": 7282,
      "rid": 7283,
      "▁bilan": 7284,
      "▁قى": 7285,
      "▁Ш": 7286,
      "dı.\r\n": 7287,
      "▁son": 7288,
      "di.\r\n": 7289,
      "\tC": 7290,
      "\tS": 7291,
      "ind": 7292,
      "ېل": 7293,
      "оз": 7294,
      "\tM": 7295,
      "▁o'y": 7296,
      "▁Z": 7297,
      "ной": 7298,
      "ug": 7299,
      "үз": 7300,
      "ed.\t": 7301,
      "iş": 7302,
      "ich": 7303,
      "ilir": 7304,
      "ۈز": 7305,
      "▁ز": 7306,
      "▁ат": 7307,
      "ida": 7308,
      "ми": 7309,
      "▁er": 7310,
      "ip": 7311,
      "▁Ж": 7312,
      "▁it": 7313,
      "сп": 7314,
      "ые": 7315,
      "▁ин": 7316,
      "ep": 7317,
      "▁Ronal": 7318,
      "▁оюн": 7319,
      "\tB": 7320,
      "▁yıl": 7321,
      "ош": 7322,
      "گەن": 7323,
      "ыс": 7324,
      "ng": 7325,
      "ht": 7326,
      "ate": 7327,
      "▁0": 7328,
      "иш": 7329,
      "она": 7330,
      "iyat": 7331,
      "▁as": 7332,
      "ei": 7333,
      "什么": 7334,
      "ств": 7335,
      "amo": 7336,
      "▁жең": 7337,
      "уз": 7338,
      "▁con": 7339,
      "дег": 7340,
      "lab": 7341,
      "▁керек": 7342,
      "інің": 7343,
      "андай": 7344,
      "sa": 7345,
      "▁кар": 7346,
      "▁ish": 7347,
      "イン": 7348,
      "ая": 7349,
      "fon": 7350,
      "ші": 7351,
      "ۇش": 7352,
      "отор": 7353,
      "▁kad": 7354,
      "ood": 7355,
      "...\t": 7356,
      "ld": 7357,
      "▁Ю": 7358,
      "لا": 7359,
      "cu": 7360,
      "san": 7361,
      "сты": 7362,
      "▁қал": 7363,
      "▁ең": 7364,
      "▁بو": 7365,
      "ave": 7366,
      "eb": 7367,
      "omi": 7368,
      "▁чемпион": 7369,
      "▁un": 7370,
      "bol": 7371,
      "его": 7372,
      "лер": 7373,
      "end": 7374,
      "рид": 7375,
      "▁avtomobil": 7376,
      "аш": 7377,
      "▁үчүн": 7378,
      "all": 7379,
      "▁iç": 7380,
      "ую": 7381,
      "ерс": 7382,
      "isi": 7383,
      "▁to'": 7384,
      "may": 7385,
      "▁уна": 7386,
      "ーム": 7387,
      "ff": 7388,
      "ни": 7389,
      "▁пай": 7390,
      "amp": 7391,
      "▁эң": 7392,
      "қт": 7393,
      "мер": 7394,
      "▁قال": 7395,
      "▁بار": 7396,
      "'l": 7397,
      "▁О": 7398,
      "dam": 7399,
      "▁بىرلەش": 7400,
      "▁كوم": 7401,
      "ark": 7402,
      "ere": 7403,
      "ung": 7404,
      "▁Mad": 7405,
      "20": 7406,
      "\tК": 7407,
      "▁his": 7408,
      "ear": 7409,
      "ore": 7410,
      "اڭ": 7411,
      "esi": 7412,
      "▁was": 7413,
      "ks": 7414,
      "The": 7415,
      "▁gol": 7416,
      "iaomi": 7417,
      "▁تى": 7418,
      "▁эм": 7419,
      "tion": 7420,
      "▁Роналду": 7421,
      "үмк": 7422,
      "▁hay": 7423,
      "elefon": 7424,
      "уж": 7425,
      "ڭىز": 7426,
      "adi.\t": 7427,
      "▁ham": 7428,
      "lash": 7429,
      "▁ئۈچ": 7430,
      "eden": 7431,
      "▁can": 7432,
      "▁mu": 7433,
      "-ئ": 7434,
      "▁Madrid": 7435,
      "ның": 7436,
      "ады.\t": 7437,
      "▁мүмк": 7438,
      "leri": 7439,
      "しい": 7440,
      "▁مۇسابىقى": 7441,
      "▁kel": 7442,
      "ラン": 7443,
      "▁сво": 7444,
      "ект": 7445,
      "ター": 7446,
      "▁ü": 7447,
      "▁эк": 7448,
      "lü": 7449,
      "eli": 7450,
      "ұр": 7451,
      "▁Q": 7452,
      "ная": 7453,
      "ильм": 7454,
      "di\t": 7455,
      "tı.\r\n": 7456,
      "▁new": 7457,
      "ынан": 7458,
      "ost": 7459,
      "ağ": 7460,
      "▁Le": 7461,
      "ады": 7462,
      "▁دا": 7463,
      "уы": 7464,
      "▁ак": 7465,
      "تىن": 7466,
      "алык": 7467,
      "кө": 7468,
      "▁car": 7469,
      "50": 7470,
      "чи": 7471,
      "▁котор": 7472,
      "▁сер": 7473,
      "▁У": 7474,
      "арсел": 7475,
      "▁ex": 7476,
      "ту": 7477,
      "پى": 7478,
      "▁telefon": 7479,
      "لۇق": 7480,
      "▁иг": 7481,
      "▁se": 7482,
      "▁был": 7483,
      "дагы": 7484,
      "▁жас": 7485,
      "汽车": 7486,
      "üş": 7487,
      "cel": 7488,
      "انى": 7489,
      "▁film": 7490,
      "世界": 7491,
      "▁түр": 7492,
      "ېلى": 7493,
      "е,": 7494,
      "ял": 7495,
      "omp": 7496,
      "▁play": 7497,
      "▁re": 7498,
      ".\tБ": 7499,
      "▁baş": 7500,
      "▁он": 7501,
      "▁not": 7502,
      "▁эле": 7503,
      "▁el": 7504,
      "ima": 7505,
      "▁qo'": 7506,
      "ко": 7507,
      "aw": 7508,
      "▁kar": 7509,
      "▁fr": 7510,
      "land": 7511,
      "▁кир": 7512,
      "▁are": 7513,
      "og": 7514,
      "inin": 7515,
      "▁ден": 7516,
      "ord": 7517,
      "еч": 7518,
      "ис": 7519,
      "▁tan": 7520,
      "алық": 7521,
      "ilar": 7522,
      "▁сез": 7523,
      "▁ئىش": 7524,
      "اسى": 7525,
      "▁Sh": 7526,
      "іп": 7527,
      "▁ойын": 7528,
      "se": 7529,
      "idan": 7530,
      "дү": 7531,
      "▁كومان": 7532,
      "ams": 7533,
      "جى": 7534,
      "ına": 7535,
      "ност": 7536,
      "▁Месси": 7537,
      "ester": 7538,
      "した。\t": 7539,
      "▁oyun": 7540,
      "▁yil": 7541,
      "ach": 7542,
      "よう": 7543,
      "▁çık": 7544,
      "چە": 7545,
      "▁مە": 7546,
      "دىسى": 7547,
      "▁көп": 7548,
      "ков": 7549,
      "▁нов": 7550,
      "int": 7551,
      "▁bosh": 7552,
      ".\tY": 7553,
      "▁бул": 7554,
      "▁yangi": 7555,
      "асм": 7556,
      "\tА": 7557,
      "mer": 7558,
      "▁пер": 7559,
      "ının": 7560,
      "еал": 7561,
      "▁osh": 7562,
      "естер": 7563,
      "лем": 7564,
      "▁so": 7565,
      "▁this": 7566,
      "▁o'z": 7567,
      "▁Li": 7568,
      "▁Ф": 7569,
      "▁100": 7570,
      "▁مى": 7571,
      "▁باش": 7572,
      "яв": 7573,
      "ka": 7574,
      "▁تە": 7575,
      "▁өт": 7576,
      "е?\t": 7577,
      "ese": 7578,
      "▁kat": 7579,
      "адрид": 7580,
      "▁юань": 7581,
      "▁milli": 7582,
      "\tH": 7583,
      "▁Messi": 7584,
      "▁миллион": 7585,
      "▁сп": 7586,
      "لىقى": 7587,
      ".\tR": 7588,
      "▁13": 7589,
      "ист": 7590,
      ".\tH": 7591,
      ".\tK": 7592,
      "▁yeni": 7593,
      "▁үш": 7594,
      "ют": 7595,
      "atch": 7596,
      "me": 7597,
      "ения": 7598,
      "иров": 7599,
      "にな": 7600,
      "eki": 7601,
      "▁بىرلەشمىسى": 7602,
      "كە": 7603,
      "▁قانداق": 7604,
      "▁жария": 7605,
      "▁-": 7606,
      "атын": 7607,
      "асында": 7608,
      "كەن": 7609,
      "анды": 7610,
      "▁mum": 7611,
      "▁been": 7612,
      "خى": 7613,
      "ingiz": 7614,
      "اۋ": 7615,
      "▁mumkin": 7616,
      "ара": 7617,
      "▁yap": 7618,
      "▁have": 7619,
      "уч": 7620,
      "па": 7621,
      "ва": 7622,
      "▁под": 7623,
      "te": 7624,
      "anchester": 7625,
      "ью": 7626,
      "'nin": 7627,
      "ۇت": 7628,
      "▁кет": 7629,
      "ного": 7630,
      "if": 7631,
      "▁14": 7632,
      "өт": 7633,
      "▁Ц": 7634,
      "дыз": 7635,
      "анчестер": 7636,
      "▁jamo": 7637,
      "▁бас": 7638,
      "ех": 7639,
      "▁he": 7640,
      "улар": 7641,
      "еген": 7642,
      "ten": 7643,
      "еттер": 7644,
      "UV": 7645,
      "▁sur": 7646,
      "▁için": 7647,
      "old": 7648,
      "تە": 7649,
      "ыны": 7650,
      "\tБ": 7651,
      "ecek": 7652,
      "ial": 7653,
      "рем": 7654,
      "ced": 7655,
      "utbol": 7656,
      "ロナ": 7657,
      "اتى": 7658,
      "сыз": 7659,
      "▁from": 7660,
      "ика": 7661,
      "▁жаңа": 7662,
      "ылды.\t": 7663,
      "▁tur": 7664,
      "▁كەل": 7665,
      "▁tr": 7666,
      "anday": 7667,
      "▁sc": 7668,
      "▁фильм": 7669,
      "▁ئاش": 7670,
      "▁ئار": 7671,
      "▁сүрө": 7672,
      "رو": 7673,
      "ода": 7674,
      "\tС": 7675,
      "алды": 7676,
      "▁фот": 7677,
      "?\tB": 7678,
      "▁ik": 7679,
      "▁тар": 7680,
      "▁res": 7681,
      "шты": 7682,
      "iyon": 7683,
      "▁матч": 7684,
      "でき": 7685,
      "選手": 7686,
      "▁that": 7687,
      "されました。\t": 7688,
      "があ": 7689,
      "▁كۆر": 7690,
      "▁лю": 7691,
      "oli": 7692,
      "siz": 7693,
      "\tThe": 7694,
      "▁mi": 7695,
      "дай": 7696,
      "▁Мадрид": 7697,
      "shi": 7698,
      "ika": 7699,
      "この": 7700,
      "ىم": 7701,
      "▁su": 7702,
      "oc": 7703,
      "▁gel": 7704,
      "▁саты": 7705,
      "ік": 7706,
      "▁жана": 7707,
      "ity": 7708,
      "гө": 7709,
      "атты": 7710,
      "alı": 7711,
      "\tП": 7712,
      "üy": 7713,
      "▁im": 7714,
      "s.\t": 7715,
      "▁ئېلان": 7716,
      "gar": 7717,
      "▁قاي": 7718,
      "дун": 7719,
      "ast": 7720,
      "ожет": 7721,
      ".\tT": 7722,
      "чу": 7723,
      "бол": 7724,
      "▁sot": 7725,
      "ian": 7726,
      "ип": 7727,
      "▁жарыя": 7728,
      "инин": 7729,
      "▁кү": 7730,
      "▁ۋە": 7731,
      "▁Е": 7732,
      "▁15": 7733,
      "шк": 7734,
      "Как": 7735,
      "دۇ؟\t": 7736,
      "لىنى": 7737,
      "▁Э": 7738,
      "ба": 7739,
      "▁шығ": 7740,
      "كار": 7741,
      "▁سى": 7742,
      "ەۋ": 7743,
      "ている": 7744,
      "▁бай": 7745,
      "11": 7746,
      "▁chiqar": 7747,
      "ему": 7748,
      "قۇ": 7749,
      "ум": 7750,
      "ome": 7751,
      "▁жаңы": 7752,
      "▁sp": 7753,
      "▁Дж": 7754,
      "гон": 7755,
      "▁yet": 7756,
      "▁күн": 7757,
      "\tR": 7758,
      "▁кор": 7759,
      "гү": 7760,
      "дегі": 7761,
      "moq": 7762,
      "ىلان": 7763,
      "▁pro": 7764,
      "үк": 7765,
      "lac": 7766,
      "発表": 7767,
      "ディ": 7768,
      "これ": 7769,
      "yon": 7770,
      "▁кай": 7771,
      "ук": 7772,
      "から": 7773,
      "▁өл": 7774,
      "дағы": 7775,
      "iyor": 7776,
      "▁раз": 7777,
      "▁ئەر": 7778,
      "▁vers": 7779,
      "لۈ": 7780,
      "ۇس": 7781,
      "еж": 7782,
      "30": 7783,
      "рам": 7784,
      "دەم": 7785,
      "ылар": 7786,
      "oto": 7787,
      "дор": 7788,
      "▁who": 7789,
      "ьер": 7790,
      "ейт": 7791,
      "▁кол": 7792,
      "ン・": 7793,
      "▁wh": 7794,
      "▁qanday": 7795,
      "▁ف": 7796,
      "▁дол": 7797,
      "raf": 7798,
      "став": 7799,
      "▁سۈر": 7800,
      "▁دۇ": 7801,
      "▁болду": 7802,
      "▁bor": 7803,
      "раф": 7804,
      "рав": 7805,
      "дік": 7806,
      "\tN": 7807,
      "▁адамдар": 7808,
      "lam": 7809,
      "йел": 7810,
      "ayı": 7811,
      "チーム": 7812,
      "\tD": 7813,
      "ила": 7814,
      "ېي": 7815,
      "▁жо": 7816,
      "なた": 7817,
      "قىرى": 7818,
      "▁құ": 7819,
      "'t": 7820,
      "app": 7821,
      "ред": 7822,
      "анын": 7823,
      "тын": 7824,
      "еу": 7825,
      "ение": 7826,
      "▁чыг": 7827,
      "inde": 7828,
      "12": 7829,
      "'ın": 7830,
      "دى\tThe": 7831,
      "mas": 7832,
      "ется": 7833,
      "ara": 7834,
      "uaw": 7835,
      "uld": 7836,
      "▁le": 7837,
      "リーグ": 7838,
      "оң": 7839,
      "▁iPhone": 7840,
      "ップ": 7841,
      "して": 7842,
      "ونى": 7843,
      "▁мы": 7844,
      "iyas": 7845,
      "▁тө": 7846,
      "▁qay": 7847,
      "▁باھ": 7848,
      "つの": 7849,
      "▁takım": 7850,
      "amsung": 7851,
      "\tI": 7852,
      "▁o'yin": 7853,
      "▁ev": 7854,
      ":2": 7855,
      "▁үй": 7856,
      "ау": 7857,
      "▁oldu": 7858,
      "女性": 7859,
      "▁ed": 7860,
      "▁uz": 7861,
      "уль": 7862,
      "uawei": 7863,
      "ард": 7864,
      "▁In": 7865,
      "нын": 7866,
      "эн": 7867,
      "▁пайда": 7868,
      "▁(4": 7869,
      "▁ما": 7870,
      "emp": 7871,
      "ece": 7872,
      "▁кыз": 7873,
      "ы?\t": 7874,
      "▁gör": 7875,
      "қы": 7876,
      "تۇر": 7877,
      "▁кий": 7878,
      "▁кон": 7879,
      "▁kal": 7880,
      "ön": 7881,
      "▁30": 7882,
      "▁يىل": 7883,
      "len": 7884,
      "كا": 7885,
      "пай": 7886,
      "▁sür": 7887,
      "▁değ": 7888,
      "ji": 7889,
      "лық": 7890,
      "▁تې": 7891,
      "▁ئاپتوموبىل": 7892,
      "етті": 7893,
      "унун": 7894,
      "たち": 7895,
      "▁ма?\t": 7896,
      "▁комп": 7897,
      "iga": 7898,
      "可能": 7899,
      "▁бил": 7900,
      "ах": 7901,
      "؟\tWhat": 7902,
      "▁yax": 7903,
      "▁сат": 7904,
      "ague": 7905,
      "aning": 7906,
      "▁top": 7907,
      "ladi": 7908,
      "▁ئاپتوموبىلى": 7909,
      "her": 7910,
      "ive": 7911,
      "▁futbol": 7912,
      "ı.\r\n": 7913,
      "ги": 7914,
      "ct": 7915,
      "асынын": 7916,
      "ew": 7917,
      "іне": 7918,
      "▁эт": 7919,
      "ildi.\t": 7920,
      "Xiaomi": 7921,
      "▁кан": 7922,
      "▁так": 7923,
      "лік": 7924,
      "▁Pr": 7925,
      "mak": 7926,
      "マン": 7927,
      "▁uy": 7928,
      "ould": 7929,
      "▁ön": 7930,
      "あなた": 7931,
      "чы": 7932,
      "غۇ": 7933,
      "итель": 7934,
      "ょう": 7935,
      "▁жол": 7936,
      "ари": 7937,
      "▁көрс": 7938,
      "پىي": 7939,
      "▁تۆ": 7940,
      "▁что": 7941,
      "しょう": 7942,
      "▁شى": 7943,
      "\tТ": 7944,
      "▁ko'r": 7945,
      "▁(2)\t": 7946,
      "スト": 7947,
      "ティ": 7948,
      "مىز": 7949,
      "üm": 7950,
      "قان": 7951,
      "ット": 7952,
      "\tO": 7953,
      "▁ئور": 7954,
      "hy": 7955,
      "нов": 7956,
      "▁ek": 7957,
      "cha": 7958,
      "-ئاي": 7959,
      "али": 7960,
      "▁by": 7961,
      "ланды.\t": 7962,
      "our": 7963,
      "тар": 7964,
      "球员": 7965,
      "e.\t": 7966,
      "ейм": 7967,
      "'nın": 7968,
      "өрү": 7969,
      "ماي": 7970,
      "\tG": 7971,
      "▁neden": 7972,
      "پا": 7973,
      "fic": 7974,
      "▁qol": 7975,
      "▁сам": 7976,
      "▁yaş": 7977,
      "ەتتى": 7978,
      "▁qilin": 7979,
      "▁(7": 7980,
      "ket": 7981,
      "si": 7982,
      "スター": 7983,
      "▁ер": 7984,
      "发布": 7985,
      "▁вс": 7986,
      "удет": 7987,
      "▁erk": 7988,
      "▁ket": 7989,
      "カー": 7990,
      "инчи": 7991,
      "▁ann": 7992,
      "ori": 7993,
      "▁iy": 7994,
      "▁қыз": 7995,
      "ect": 7996,
      "لاش": 7997,
      "ック": 7998,
      "erak": 7999,
      "ейін": 8000,
      "▁жақ": 8001,
      "▁ber": 8002,
      "өрт": 8003,
      "▁для": 8004,
      "▁har": 8005,
      "▁Real": 8006,
      "iniz": 8007,
      "▁16": 8008,
      "▁ver": 8009,
      "арселона": 8010,
      "▁сатып": 8011,
      "'lon": 8012,
      "▁і": 8013,
      "ше": 8014,
      "uldu": 8015,
      "▁автомобиль": 8016,
      "قتى": 8017,
      "▁Я": 8018,
      "▁жак": 8019,
      "▁e'lon": 8020,
      "ell": 8021,
      "үйн": 8022,
      "▁Юн": 8023,
      "інде": 8024,
      "ست": 8025,
      "arcel": 8026,
      "lt": 8027,
      "enz": 8028,
      "оо": 8029,
      "▁(1)\t": 8030,
      "▁жаш": 8031,
      "-т": 8032,
      "▁Лиг": 8033,
      "▁сезон": 8034,
      "'in": 8035,
      "лив": 8036,
      "гөн": 8037,
      "▁Ronaldo": 8038,
      "ッシ": 8039,
      "lık": 8040,
      "دى\tA": 8041,
      "▁кал": 8042,
      "▁(3": 8043,
      "▁team": 8044,
      "laş": 8045,
      "ass": 8046,
      "ограф": 8047,
      ".\tD": 8048,
      "▁кез": 8049,
      "た。\t": 8050,
      "▁يۈ": 8051,
      "▁otomobil": 8052,
      "▁пос": 8053,
      "った。\t": 8054,
      "ina": 8055,
      "ид": 8056,
      "联赛": 8057,
      "لىشى": 8058,
      "▁жен": 8059,
      ".\tG": 8060,
      "ğı": 8061,
      "▁kerak": 8062,
      "▁ئام": 8063,
      "alik": 8064,
      "▁يۇ": 8065,
      "يى": 8066,
      "out": 8067,
      "▁сүй": 8068,
      "▁sev": 8069,
      "сын": 8070,
      "▁tush": 8071,
      "ve": 8072,
      "ated": 8073,
      "▁daha": 8074,
      "aba": 8075,
      "▁دە": 8076,
      "▁аз": 8077,
      "орд": 8078,
      "نيا": 8079,
      "ği": 8080,
      "▁игро": 8081,
      "ous": 8082,
      "'da": 8083,
      "акт": 8084,
      "▁қар": 8085,
      "odel": 8086,
      "ge": 8087,
      "eop": 8088,
      "▁Реал": 8089,
      "arcelona": 8090,
      "写真": 8091,
      "▁бағ": 8092,
      "▁жат": 8093,
      "\tМ": 8094,
      "▁bec": 8095,
      "▁қай": 8096,
      "▁сал": 8097,
      "▁سېتى": 8098,
      "رەك": 8099,
      "▁рек": 8100,
      "▁fir": 8101,
      "▁таб": 8102,
      "ンの": 8103,
      "стан": 8104,
      "▁ger": 8105,
      "▁ес": 8106,
      "фи": 8107,
      "▁نېم": 8108,
      "Ch": 8109,
      "alax": 8110,
      "orld": 8111,
      "alaxy": 8112,
      "▁сүрөтт": 8113,
      "ами": 8114,
      "比赛": 8115,
      "xi": 8116,
      "ren": 8117,
      "aç": 8118,
      "\tF": 8119,
      "▁سۈرەت": 8120,
      "larni": 8121,
      "چىل": 8122,
      "инь": 8123,
      "ما": 8124,
      "ani": 8125,
      "▁ка": 8126,
      "▁ph": 8127,
      "ry": 8128,
      "▁دۇنيا": 8129,
      "▁өн": 8130,
      "асын": 8131,
      "▁ц": 8132,
      "▁büy": 8133,
      "ющ": 8134,
      "▁там": 8135,
      "п,": 8136,
      "▁шығар": 8137,
      "دو": 8138,
      "▁مۇسابىقىسى": 8139,
      "ەسى": 8140,
      "▁бел": 8141,
      "sel": 8142,
      "ook": 8143,
      "▁жог": 8144,
      "\tY": 8145,
      "ۈپ": 8146,
      "еге": 8147,
      "?\tN": 8148,
      "▁dav": 8149,
      "これら": 8150,
      "unda": 8151,
      "▁your": 8152,
      "of": 8153,
      "\tЖ": 8154,
      "eople": 8155,
      "орт": 8156,
      "ров": 8157,
      "-ж": 8158,
      "シー": 8159,
      "ник": 8160,
      "▁go": 8161,
      "ых": 8162,
      "дон": 8163,
      "ませ": 8164,
      "▁كوماندىسى": 8165,
      "уға": 8166,
      "▁SUV": 8167,
      "аск": 8168,
      "▁million": 8169,
      "▁баш": 8170,
      "ame": 8171,
      "19": 8172,
      "den": 8173,
      "edi": 8174,
      "иб": 8175,
      ".\tBu": 8176,
      "уреттер": 8177,
      "▁خىل": 8178,
      "です。\t": 8179,
      "▁ab": 8180,
      "▁деп": 8181,
      "\tK": 8182,
      "\tL": 8183,
      "инг": 8184,
      ".\tК": 8185,
      "ۋال": 8186,
      "▁sat": 8187,
      "▁ئۈچۈن": 8188,
      "アル": 8189,
      "▁نە": 8190,
      "ەھ": 8191,
      "لىكى": 8192,
      "рас": 8193,
      "son": 8194,
      "ti.\r\n": 8195,
      "▁mı": 8196,
      "كىن": 8197,
      "ili": 8198,
      "▁باي": 8199,
      "▁tari": 8200,
      "どの": 8201,
      "▁يان": 8202,
      "▁قوي": 8203,
      "lig": 8204,
      "ません": 8205,
      "tar": 8206,
      "خشى": 8207,
      "▁ta": 8208,
      "үг": 8209,
      "▁ak": 8210,
      "раз": 8211,
      "▁будет": 8212,
      "▁yar": 8213,
      "▁قات": 8214,
      "▁çok": 8215,
      "▁yaxshi": 8216,
      "最も": 8217,
      "▁Manchester": 8218,
      "кка": 8219,
      "ight": 8220,
      "let": 8221,
      "ota": 8222,
      "▁Манчестер": 8223,
      "нан": 8224,
      "▁چوڭ": 8225,
      "如果": 8226,
      "▁بولى": 8227,
      "▁oyuncu": 8228,
      "▁comp": 8229,
      "▁заб": 8230,
      "▁ту": 8231,
      "siy": 8232,
      "▁ек": 8233,
      "ank": 8234,
      "for": 8235,
      "ۇڭ": 8236,
      "аңыз": 8237,
      "tal": 8238,
      "ۋى": 8239,
      "▁us": 8240,
      "ğraf": 8241,
      "qu": 8242,
      "ilan": 8243,
      "дуу": 8244,
      "▁жә": 8245,
      "otoğraf": 8246,
      "MW": 8247,
      "▁بې": 8248,
      "ете": 8249,
      "でしょう": 8250,
      "▁бұл": 8251,
      "бр": 8252,
      "ее": 8253,
      "айтед": 8254,
      "▁Юнайтед": 8255,
      "inchi": 8256,
      "▁ми": 8257,
      "го": 8258,
      "ート": 8259,
      "циаль": 8260,
      "دان": 8261,
      "ların": 8262,
      "елов": 8263,
      "▁tar": 8264,
      "?\tA": 8265,
      "ace": 8266,
      "со": 8267,
      "▁man": 8268,
      "▁пол": 8269,
      "\tE": 8270,
      "▁كى": 8271,
      "▁kadar": 8272,
      "ена": 8273,
      ".\tА": 8274,
      "udi": 8275,
      "▁كىر": 8276,
      "ман": 8277,
      "▁әйел": 8278,
      "▁كۈ": 8279,
      "ci": 8280,
      "uch": 8281,
      "▁her": 8282,
      "сым": 8283,
      "▁bel": 8284,
      "кая": 8285,
      "су": 8286,
      "-y": 8287,
      "▁kir": 8288,
      "▁aç": 8289,
      "▁50": 8290,
      "мір": 8291,
      "ңыз": 8292,
      "▁maç": 8293,
      "▁қол": 8294,
      "▁және": 8295,
      "▁ئايال": 8296,
      "▁(6": 8297,
      "▁مۇن": 8298,
      "empion": 8299,
      "▁announ": 8300,
      "▁نېمە": 8301,
      ":0": 8302,
      "▁З": 8303,
      "\tCBA": 8304,
      "▁Ar": 8305,
      "▁these": 8306,
      "mek": 8307,
      "ッド": 8308,
      "سىيە": 8309,
      "oyota": 8310,
      "なぜ": 8311,
      "▁тр": 8312,
      "кан": 8313,
      "▁бал": 8314,
      "チェ": 8315,
      "esla": 8316,
      "▁ياش": 8317,
      "әр": 8318,
      "bor": 8319,
      "▁fotoğraf": 8320,
      "最新": 8321,
      "▁элект": 8322,
      "ason": 8323,
      "▁am": 8324,
      "ۇم": 8325,
      "ану": 8326,
      "▁ئادەم": 8327,
      "▁оор": 8328,
      "lat": 8329,
      "▁düş": 8330,
      "▁يانف": 8331,
      "ня": 8332,
      "angi": 8333,
      "▁ile": 8334,
      "ited": 8335,
      "手机": 8336,
      "▁مەي": 8337,
      "imiz": 8338,
      "lak": 8339,
      "▁ko'p": 8340,
      "бор": 8341,
      "شقا": 8342,
      "▁болгон": 8343,
      "ань": 8344,
      "▁people": 8345,
      "ичес": 8346,
      "каз": 8347,
      "▁siz": 8348,
      "otos": 8349,
      "▁o'r": 8350,
      "ять": 8351,
      "しました": 8352,
      "\"\"": 8353,
      "acak": 8354,
      "di!\t": 8355,
      "一个": 8356,
      "дық": 8357,
      "كۈ": 8358,
      "▁кийин": 8359,
      "гиз": 8360,
      "▁League": 8361,
      "би": 8362,
      "▁odam": 8363,
      "ada": 8364,
      "ры": 8365,
      "ジェ": 8366,
      "ishni": 8367,
      "unu": 8368,
      "ста": 8369,
      "▁hal": 8370,
      "▁nar": 8371,
      "?\tЭ": 8372,
      "?\tS": 8373,
      "5):": 8374,
      "ollar": 8375,
      "フォ": 8376,
      "为什么": 8377,
      "映画": 8378,
      "▁la": 8379,
      "ファ": 8380,
      ".\tO": 8381,
      "مۇ؟\t": 8382,
      "lu": 8383,
      "▁кл": 8384,
      "ram": 8385,
      "▁bo": 8386,
      "ladi.\t": 8387,
      "▁жүр": 8388,
      "▁ilk": 8389,
      "▁CBA": 8390,
      "▁mus": 8391,
      "tur": 8392,
      ":3": 8393,
      "есі": 8394,
      "▁ھە": 8395,
      "ligi": 8396,
      "▁surat": 8397,
      "▁автомобил": 8398,
      "▁yak": 8399,
      "って": 8400,
      "Жер": 8401,
      "▁mi?\r\n": 8402,
      "▁оч": 8403,
      "ors": 8404,
      "How": 8405,
      "▁قىلىن": 8406,
      "試合": 8407,
      "▁ос": 8408,
      "елі": 8409,
      "▁ала": 8410,
      "ущ": 8411,
      "さい": 8412,
      "лед": 8413,
      "ern": 8414,
      "مان": 8415,
      "▁болот": 8416,
      "oh": 8417,
      "эй": 8418,
      "▁دۆ": 8419,
      "▁ras": 8420,
      "▁үшін": 8421,
      "гу": 8422,
      "uan": 8423,
      "لارنىڭ": 8424,
      "ran": 8425,
      "сли": 8426,
      "етін": 8427,
      "▁iyi": 8428,
      "PO": 8429,
      "▁төрт": 8430,
      "дал": 8431,
      "inal": 8432,
      "ени": 8433,
      "チャ": 8434,
      "8):": 8435,
      "БА": 8436,
      "утбол": 8437,
      "очему": 8438,
      "▁pay": 8439,
      "گى": 8440,
      "我们": 8441,
      "公開": 8442,
      "▁может": 8443,
      "ыңыз": 8444,
      "▁fiyat": 8445,
      "لىتى": 8446,
      "lk": 8447,
      "стр": 8448,
      "ilgan": 8449,
      "▁мүмкін": 8450,
      "ely": 8451,
      "▁مىل": 8452,
      "▁İ": 8453,
      "öz": 8454,
      "▁Un": 8455,
      "انلىق": 8456,
      "оном": 8457,
      "ıs": 8458,
      "▁تۇر": 8459,
      "▁себ": 8460,
      "があり": 8461,
      "пер": 8462,
      "ونال": 8463,
      "▁как": 8464,
      "▁Ин": 8465,
      "tü": 8466,
      ".\tL": 8467,
      "?\tБ": 8468,
      "ild": 8469,
      "40": 8470,
      "▁ئەم": 8471,
      "ロナウ": 8472,
      "▁kaz": 8473,
      "▁чыкты": 8474,
      "ным": 8475,
      "▁мүмкүн": 8476,
      "▁см": 8477,
      "unch": 8478,
      "лык": 8479,
      ".\tМ": 8480,
      "▁кандай": 8481,
      "▁An": 8482,
      "▁قىلدى\t": 8483,
      "▁مىلي": 8484,
      "▁كېرەك": 8485,
      "▁first": 8486,
      "ели": 8487,
      "电影": 8488,
      "рат": 8489,
      "ree": 8490,
      "▁رونال": 8491,
      "\tP": 8492,
      "▁par": 8493,
      "▁фотограф": 8494,
      "kor": 8495,
      "иясы": 8496,
      "dü": 8497,
      "了。\t": 8498,
      "ory": 8499,
      "▁пред": 8500,
      "▁qar": 8501,
      "▁يۈەن": 8502,
      "▁Цз": 8503,
      "▁rev": 8504,
      "чин": 8505,
      "▁жогор": 8506,
      "ful": 8507,
      "غى": 8508,
      "ano": 8509,
      "▁ياخشى": 8510,
      "▁пл": 8511,
      "lib": 8512,
      "eş": 8513,
      "▁ро": 8514,
      "دار": 8515,
      "▁ur": 8516,
      "▁чыгар": 8517,
      "ماق": 8518,
      "▁то": 8519,
      "ロナウド": 8520,
      "▁dur": 8521,
      "асс": 8522,
      "▁piyas": 8523,
      "чү": 8524,
      "есс": 8525,
      "бап": 8526,
      "▁аял": 8527,
      "▁18": 8528,
      "-ي": 8529,
      "sum": 8530,
      "пе": 8531,
      "3):": 8532,
      "▁yo'": 8533,
      "ېسسى": 8534,
      "Почему": 8535,
      "▁осы": 8536,
      "▁قار": 8537,
      "\tН": 8538,
      "ное": 8539,
      "asıl": 8540,
      "▁rek": 8541,
      "▁qiz": 8542,
      "\tД": 8543,
      "ещ": 8544,
      "?\tК": 8545,
      "▁мод": 8546,
      "▁The": 8547,
      "▁scor": 8548,
      "دۇ؟\tW": 8549,
      "▁боль": 8550,
      "олько": 8551,
      "\tО": 8552,
      "▁кыл": 8553,
      "ose": 8554,
      "der": 8555,
      "mey": 8556,
      "7):": 8557,
      "▁ort": 8558,
      "\tР": 8559,
      "▁киргиз": 8560,
      "iPhone": 8561,
      "▁эмне": 8562,
      "▁эти": 8563,
      "ver": 8564,
      "▁командасы": 8565,
      "▁haq": 8566,
      "igh": 8567,
      "▁таң": 8568,
      "FA": 8569,
      "▁دى": 8570,
      "▁ac": 8571,
      "алия": 8572,
      "のですか？\t": 8573,
      "zal": 8574,
      "▁17": 8575,
      "қан": 8576,
      "asida": 8577,
      "▁ақ": 8578,
      "▁эр": 8579,
      "▁pric": 8580,
      "үш": 8581,
      "іңіз": 8582,
      "erma": 8583,
      "eleas": 8584,
      "кер": 8585,
      "▁юаней": 8586,
      "цз": 8587,
      "ание": 8588,
      "▁Ли": 8589,
      "▁yük": 8590,
      "agen": 8591,
      "▁Чж": 8592,
      "6):": 8593,
      "▁Galaxy": 8594,
      "▁иш": 8595,
      "4):": 8596,
      "くだ": 8597,
      "уну": 8598,
      "▁ئېرى": 8599,
      "▁ياۋ": 8600,
      "▁жолу": 8601,
      "те": 8602,
      "iler": 8603,
      "▁челов": 8604,
      "▁كۆپ": 8605,
      "▁кат": 8606,
      "ください": 8607,
      "ېك": 8608,
      "chilar": 8609,
      "ivo": 8610,
      "olks": 8611,
      "esh": 8612,
      "▁ан": 8613,
      "larning": 8614,
      "▁40": 8615,
      "▁سىز": 8616,
      "wagen": 8617,
      "?\tK": 8618,
      "i:": 8619,
      "яр": 8620,
      "olkswagen": 8621,
      "▁қан": 8622,
      "▁үл": 8623,
      "▁Ligi": 8624,
      "▁ser": 8625,
      "үндө": 8626,
      "bapp": 8627,
      "за": 8628,
      "асмий": 8629,
      "es.\t": 8630,
      "▁25": 8631,
      "▁биринчи": 8632,
      "▁gir": 8633,
      ".\tP": 8634,
      "di,": 8635,
      "onda": 8636,
      "▁болды.\t": 8637,
      "▁men": 8638,
      "▁releas": 8639,
      "PPO": 8640,
      "▁mav": 8641,
      "▁5G": 8642,
      "adigan": 8643,
      "ине": 8644,
      "15": 8645,
      "▁Сен": 8646,
      "ント": 8647,
      "фициаль": 8648,
      "анк": 8649,
      "uti": 8650,
      "梅西": 8651,
      "メッシ": 8652,
      "▁св": 8653,
      "ария": 8654,
      "өз": 8655,
      "лім": 8656,
      "Вы": 8657,
      "зар": 8658,
      "вест": 8659,
      "▁gü": 8660,
      "ünya": 8661,
      "▁кейін": 8662,
      "ne": 8663,
      "男性": 8664,
      "لۈك": 8665,
      "▁بولغان": 8666,
      "▁оюнч": 8667,
      "価格": 8668,
      "▁kas": 8669,
      "▁مېسسى": 8670,
      "▁inter": 8671,
      "ンは": 8672,
      "▁Sp": 8673,
      "لىش": 8674,
      "олог": 8675,
      "▁büyük": 8676,
      "ادى": 8677,
      "есми": 8678,
      "▁مەيدان": 8679,
      "▁رونالدو": 8680,
      "лады.\t": 8681,
      "リア": 8682,
      "ындағы": 8683,
      "▁باھاسى": 8684,
      "ғары": 8685,
      "▁түс": 8686,
      "unuz": 8687,
      "▁|": 8688,
      "ime": 8689,
      "гил": 8690,
      "られ": 8691,
      "▁yosh": 8692,
      "ındaki": 8693,
      "چىلار": 8694,
      ".\tЖ": 8695,
      "нал": 8696,
      "1):": 8697,
      "▁жок": 8698,
      "try": 8699,
      "▁жал": 8700,
      "елер": 8701,
      "▁ئامېرى": 8702,
      "men": 8703,
      "▁NBA": 8704,
      "▁аб": 8705,
      "▁лиг": 8706,
      "ыркы": 8707,
      "ンピ": 8708,
      "▁insan": 8709,
      "ampiyon": 8710,
      "▁bo'lgan": 8711,
      "▁lig": 8712,
      "▁ая": 8713,
      "▁де": 8714,
      "ىلەر": 8715,
      "را": 8716,
      "ング": 8717,
      "▁چۈش": 8718,
      "▁key": 8719,
      "▁(5": 8720,
      "▁af": 8721,
      "вро": 8722,
      "▁nasıl": 8723,
      "а,": 8724,
      "іздің": 8725,
      "▁ئاشكار": 8726,
      "iyasi": 8727,
      "▁kon": 8728,
      "aman": 8729,
      "нг": 8730,
      "يىن": 8731,
      ".\tE": 8732,
      "18": 8733,
      "отр": 8734,
      "▁kun": 8735,
      "Ин": 8736,
      "aris": 8737,
      "лия": 8738,
      "asiz": 8739,
      "ampion": 8740,
      "▁most": 8741,
      "ەتلىك": 8742,
      "ud": 8743,
      "ууга": 8744,
      "di.\tБ": 8745,
      "ros": 8746,
      "▁Мен": 8747,
      "▁qilish": 8748,
      "ский": 8749,
      "ық": 8750,
      "▁tek": 8751,
      "罗纳": 8752,
      "▁верс": 8753,
      "до": 8754,
      "ۈل": 8755,
      "▁компания": 8756,
      "▁one": 8757,
      "▁offic": 8758,
      "▁تەر": 8759,
      "ьер-": 8760,
      "ктуу": 8761,
      "ris": 8762,
      "▁we": 8763,
      "ход": 8764,
      "інші": 8765,
      "▁mash": 8766,
      "▁үз": 8767,
      "аг": 8768,
      "ېتىم": 8769,
      "Do": 8770,
      "ber": 8771,
      "新疆": 8772,
      ".\tN": 8773,
      "▁يەن": 8774,
      "imi": 8775,
      "dır": 8776,
      "wood": 8777,
      "تىس": 8778,
      "罗纳尔": 8779,
      "▁авто": 8780,
      "▁наш": 8781,
      "ること": 8782,
      "▁چول": 8783,
      "▁қандай": 8784,
      "▁тап": 8785,
      "▁электр": 8786,
      ".\tJ": 8787,
      "▁old": 8788,
      "▁ياۋرو": 8789,
      "▁бес": 8790,
      "▁United": 8791,
      "'y": 8792,
      "now": 8793,
      "lim": 8794,
      "жаң": 8795,
      "▁лет": 8796,
      "▁вн": 8797,
      "▁жакшы": 8798,
      "han": 8799,
      "تۈر": 8800,
      "ilmi": 8801,
      "ary": 8802,
      "▁چېم": 8803,
      "▁алды.\t": 8804,
      "усым": 8805,
      "照片": 8806,
      "tic": 8807,
      "сті": 8808,
      "hur": 8809,
      "16": 8810,
      "9):": 8811,
      "▁coun": 8812,
      "罗纳尔多": 8813,
      "▁بە": 8814,
      "sa,": 8815,
      "▁mar": 8816,
      "▁Sa": 8817,
      "tin": 8818,
      "▁Apple": 8819,
      "▁баст": 8820,
      "▁چېمپىي": 8821,
      "туу": 8822,
      "дык": 8823,
      "sp": 8824,
      "лет": 8825,
      "di!": 8826,
      "▁em": 8827,
      "▁Milan": 8828,
      "▁маусым": 8829,
      "-Жер": 8830,
      "正式": 8831,
      "▁sah": 8832,
      "siya": 8833,
      "▁фин": 8834,
      "▁Ал": 8835,
      "▁Ş": 8836,
      "▁тарт": 8837,
      "огда": 8838,
      "нер": 8839,
      "ladı.\r\n": 8840,
      "▁жақсы": 8841,
      "-Жермен": 8842,
      "▁duy": 8843,
      "ісі": 8844,
      "▁plan": 8845,
      "100": 8846,
      "uş": 8847,
      "ұлдыз": 8848,
      "▁қалай": 8849,
      "オン": 8850,
      "ign": 8851,
      "▁birinchi": 8852,
      "▁kul": 8853,
      "▁до": 8854,
      "ゴール": 8855,
      "ерм": 8856,
      "▁if": 8857,
      ".\tU": 8858,
      "uq": 8859,
      "▁көз": 8860,
      "▁We": 8861,
      "▁ئىقتى": 8862,
      "70": 8863,
      "▁жер": 8864,
      "▁ئوي": 8865,
      "成为": 8866,
      "май": 8867,
      "▁муж": 8868,
      "▁كېيىن": 8869,
      "▁app": 8870,
      "сто": 8871,
      "2):": 8872,
      "үнүн": 8873,
      "ıyor": 8874,
      "аж": 8875,
      "аза": 8876,
      "سىنى": 8877,
      "ような": 8878,
      "uang": 8879,
      "▁бу": 8880,
      "▁قوش": 8881,
      "Chat": 8882,
      "ца": 8883,
      "fer": 8884,
      "▁көлі": 8885,
      "▁кин": 8886,
      "ась": 8887,
      "▁ye": 8888,
      "мал": 8889,
      "ции": 8890,
      "▁2022": 8891,
      "ея": 8892,
      "оллив": 8893,
      "▁ау": 8894,
      "وت": 8895,
      "ень": 8896,
      "tan": 8897,
      "▁мыкты": 8898,
      "▁يەنە": 8899,
      "larak": 8900,
      "ound": 8901,
      "са,": 8902,
      "▁announced": 8903,
      "▁күй": 8904,
      "ېت": 8905,
      "▁تار": 8906,
      "eler": 8907,
      "▁дагы": 8908,
      "▁يۇقىرى": 8909,
      "60": 8910,
      "人の": 8911,
      "▁тасм": 8912,
      "▁человек": 8913,
      "▁yok": 8914,
      "▁чоң": 8915,
      "дары": 8916,
      "・マ": 8917,
      "▁баасы": 8918,
      "▁Сен-Жермен": 8919,
      "▁تۇ": 8920,
      "нам": 8921,
      "▁چېمپىيون": 8922,
      "▁қаты": 8923,
      "ınız": 8924,
      "дей": 8925,
      "的な": 8926,
      "\tВ": 8927,
      "バル": 8928,
      "▁ad": 8929,
      "▁Bu": 8930,
      "ازار": 8931,
      "▁«ئ": 8932,
      "▁qildi.\t": 8933,
      "▁ھاي": 8934,
      "史上": 8935,
      "ды!\t": 8936,
      "▁футбол": 8937,
      "ايى": 8938,
      "tır": 8939,
      "ульт": 8940,
      ":10": 8941,
      "ョン": 8942,
      "▁wom": 8943,
      "اھى": 8944,
      "▁dön": 8945,
      "▁воз": 8946,
      "▁كىن": 8947,
      "▁жөн": 8948,
      "стор": 8949,
      "▁жұ": 8950,
      "дук": 8951,
      "▁Barcelona": 8952,
      "▁я": 8953,
      "ونا": 8954,
      "▁كىرى": 8955,
      "▁po": 8956,
      "には": 8957,
      "adan": 8958,
      "▁ئىك": 8959,
      "мне": 8960,
      "自動": 8961,
      "▁тал": 8962,
      "ite": 8963,
      "▁Чемпион": 8964,
      "ってい": 8965,
      "ном": 8966,
      "▁قېتىم": 8967,
      "▁nima": 8968,
      "ое": 8969,
      "emi": 8970,
      "▁match": 8971,
      "▁ул": 8972,
      "ide": 8973,
      "▁may": 8974,
      "асының": 8975,
      "üzel": 8976,
      "▁piyasaya": 8977,
      "されました": 8978,
      "13": 8979,
      "entus": 8980,
      "abilir": 8981,
      "uventus": 8982,
      "してい": 8983,
      "ため": 8984,
      "▁o't": 8985,
      "In": 8986,
      "▁года": 8987,
      "▁aş": 8988,
      "ulduz": 8989,
      "▁قىز": 8990,
      "▁its": 8991,
      "▁сүрөттөрү": 8992,
      "美国": 8993,
      "▁olarak": 8994,
      "und": 8995,
      "シーズ": 8996,
      "80": 8997,
      "درى": 8998,
      "▁Ар": 8999,
      "ure": 9000,
      "вент": 9001,
      "мат": 9002,
      "a,": 9003,
      "▁نۇس": 9004,
      "▁200": 9005,
      "-б": 9006,
      "▁üç": 9007,
      "ستى": 9008,
      "leş": 9009,
      "атар": 9010,
      "か？": 9011,
      "▁19": 9012,
      "▁000": 9013,
      "تىپ": 9014,
      "çek": 9015,
      "lem": 9016,
      "оду": 9017,
      "▁غ": 9018,
      "▁goal": 9019,
      "▁Al": 9020,
      "ындагы": 9021,
      "еті": 9022,
      "ите": 9023,
      "▁ist": 9024,
      "注意": 9025,
      "асыз": 9026,
      "uh": 9027,
      "▁ortaya": 9028,
      "lywood": 9029,
      "▁يو": 9030,
      "▁بولۇپ": 9031,
      "新しい": 9032,
      "德里": 9033,
      "улу": 9034,
      "اك": 9035,
      "ата": 9036,
      "lacak": 9037,
      "▁бо": 9038,
      "▁توپچى": 9039,
      "дем": 9040,
      "▁ئۇچ": 9041,
      "Жаң": 9042,
      "үйнө": 9043,
      "ۈرى": 9044,
      "fe": 9045,
      "дүү": 9046,
      "илан": 9047,
      "▁Барселона": 9048,
      "▁тұ": 9049,
      "▁рекорд": 9050,
      "▁دې": 9051,
      "14": 9052,
      "ены": 9053,
      "ektr": 9054,
      "ual": 9055,
      "хен": 9056,
      "ens": 9057,
      "унда": 9058,
      "\tW": 9059,
      "ть": 9060,
      "ومۇر": 9061,
      "еді.\t": 9062,
      "yo": 9063,
      "21": 9064,
      "قىسى": 9065,
      "уреттері": 9066,
      "ley": 9067,
      "▁1-": 9068,
      "▁per": 9069,
      "deki": 9070,
      "▁so'": 9071,
      "moqda": 9072,
      "үнө": 9073,
      "▁بازار": 9074,
      "ити": 9075,
      "?\tА": 9076,
      "▁يار": 9077,
      "сия": 9078,
      "larini": 9079,
      "▁mavsum": 9080,
      "تىكى": 9081,
      "▁قىلىش": 9082,
      "▁которые": 9083,
      "▁ол": 9084,
      "▁өмір": 9085,
      "ную": 9086,
      "▁تال": 9087,
      "вез": 9088,
      "▁açık": 9089,
      "ланы": 9090,
      "еді": 9091,
      "▁نۇسخى": 9092,
      "سە": 9093,
      "▁photos": 9094,
      "стыр": 9095,
      "ünü": 9096,
      "өө": 9097,
      "自動車": 9098,
      "▁ем": 9099,
      "дыр": 9100,
      "دى!\t": 9101,
      "s,": 9102,
      "оу": 9103,
      "▁g'": 9104,
      "-G": 9105,
      "تىنى": 9106,
      "▁жұлдыз": 9107,
      "Если": 9108,
      "▁турган": 9109,
      "▁жиз": 9110,
      "▁مان": 9111,
      "▁مىڭ": 9112,
      "aga": 9113,
      "еств": 9114,
      "s\t": 9115,
      "ollywood": 9116,
      "ился": 9117,
      "учш": 9118,
      "▁سو": 9119,
      "ies": 9120,
      "▁жылдыз": 9121,
      "バー": 9122,
      "▁iş": 9123,
      "25": 9124,
      "ской": 9125,
      "ەڭ": 9126,
      "▁сай": 9127,
      "▁уш": 9128,
      "▁21": 9129,
      "сер": 9130,
      "edmi": 9131,
      "انت": 9132,
      "▁say": 9133,
      "▁phone": 9134,
      "▁бағасы": 9135,
      "▁jamoasi": 9136,
      "べき": 9137,
      "▁дост": 9138,
      "پان": 9139,
      "ilik": 9140,
      "▁sez": 9141,
      "же": 9142,
      "emiz": 9143,
      "▁sonra": 9144,
      "▁yulduz": 9145,
      "▁эконом": 9146,
      "уст": 9147,
      "▁акт": 9148,
      "ность": 9149,
      "larda": 9150,
      "ishga": 9151,
      "▁женщ": 9152,
      "プレ": 9153,
      "▁should": 9154,
      "▁mon": 9155,
      "фф": 9156,
      "ээ": 9157,
      "▁сый": 9158,
      "▁bo'ldi.\t": 9159,
      "ou": 9160,
      "参加": 9161,
      "rit": 9162,
      "ەلى": 9163,
      "▁миллиард": 9164,
      "▁біл": 9165,
      "▁يۈر": 9166,
      "▁24": 9167,
      "▁نې": 9168,
      "шылар": 9169,
      "▁зап": 9170,
      "▁доллар": 9171,
      "▁var": 9172,
      "زگ": 9173,
      "どう": 9174,
      "يان": 9175,
      "▁Saint": 9176,
      "▁%": 9177,
      "ラー": 9178,
      "▁кош": 9179,
      "▁yana": 9180,
      "し、": 9181,
      "▁zar": 9182,
      "▁вып": 9183,
      "\tU": 9184,
      "▁تۇن": 9185,
      "ru": 9186,
      "▁know": 9187,
      "مكىن": 9188,
      "如何": 9189,
      "已经": 9190,
      "▁kur": 9191,
      "dız": 9192,
      "▁соң": 9193,
      "▁مۇمكىن": 9194,
      "▁قايسى": 9195,
      "▁болады": 9196,
      "リード": 9197,
      "ech": 9198,
      "生活": 9199,
      "▁سۈرەتلىرى": 9200,
      "юнхен": 9201,
      "arsel": 9202,
      "rt": 9203,
      "▁سېلى": 9204,
      "▁sürü": 9205,
      "Apple": 9206,
      "ı\r\n": 9207,
      "▁چولپان": 9208,
      "бы?\t": 9209,
      "▁model": 9210,
      "▁ко": 9211,
      "ды,": 9212,
      "▁бой": 9213,
      "▁Saint-G": 9214,
      "per": 9215,
      "ork": 9216,
      "мы": 9217,
      "\tNBA": 9218,
      "▁rec": 9219,
      "▁қор": 9220,
      "▁Saint-Germa": 9221,
      "سېل": 9222,
      "ibi": 9223,
      "▁reveal": 9224,
      "леду": 9225,
      "net": 9226,
      "inc": 9227,
      "▁Saint-Germain": 9228,
      "?\tH": 9229,
      "▁their": 9230,
      "akk": 9231,
      "cı": 9232,
      "▁تۇنجى": 9233,
      "▁scored": 9234,
      "YD": 9235,
      "▁lik": 9236,
      "aj": 9237,
      "▁ойыншы": 9238,
      "▁dr": 9239,
      "▁BMW": 9240,
      "баппе": 9241,
      "تىش": 9242,
      "▁launch": 9243,
      "OS": 9244,
      "ebilir": 9245,
      "айы": 9246,
      "дет": 9247,
      "сынын": 9248,
      "▁yay": 9249,
      "▁это": 9250,
      "ames": 9251,
      "убог": 9252,
      "▁kam": 9253,
      "тты": 9254,
      "▁بى": 9255,
      "şı": 9256,
      "apon": 9257,
      "▁buy": 9258,
      "▁план": 9259,
      "асына": 9260,
      "ух": 9261,
      "▁ы": 9262,
      "▁years": 9263,
      "تېر": 9264,
      "لىدى\t": 9265,
      "?\tNima": 9266,
      "▁ئاشكارىلان": 9267,
      "▁كىنو": 9268,
      "ao": 9269,
      "ктен": 9270,
      "eym": 9271,
      "qat": 9272,
      "▁tash": 9273,
      "ياۋ": 9274,
      "ix": 9275,
      "ктар": 9276,
      "発売": 9277,
      "مەك": 9278,
      "?\t你": 9279,
      "▁оп": 9280,
      "мерик": 9281,
      "iden": 9282,
      "▁автокө": 9283,
      "evro": 9284,
      "るの": 9285,
      "amlak": 9286,
      "▁country": 9287,
      "گۈز": 9288,
      "ust": 9289,
      "مەي": 9290,
      "▁about": 9291,
      "▁крас": 9292,
      "▁kim": 9293,
      "日本": 9294,
      "▁Xiaomi": 9295,
      "▁Қ": 9296,
      "▁зар": 9297,
      "есть": 9298,
      "Is": 9299,
      "▁گېر": 9300,
      "▁world": 9301,
      "?\tЭмне": 9302,
      "▁ياۋروپا": 9303,
      "▁gen": 9304,
      "▁фотографии": 9305,
      "لىۋ": 9306,
      "▁كەتتى": 9307,
      "▁kay": 9308,
      "обы": 9309,
      "odi": 9310,
      "電話": 9311,
      "риш": 9312,
      "alari": 9313,
      "үкт": 9314,
      "▁vs": 9315,
      "ремьер-": 9316,
      "17": 9317,
      "asini": 9318,
      "▁команд": 9319,
      "シャ": 9320,
      "жа": 9321,
      "。\tア": 9322,
      "▁int": 9323,
      "万元": 9324,
      "amlakat": 9325,
      "▁mark": 9326,
      "rk": 9327,
      "▁акыркы": 9328,
      "が公開": 9329,
      "авария": 9330,
      "ult": 9331,
      "тыр": 9332,
      "▁get": 9333,
      "ドリード": 9334,
      "▁расмий": 9335,
      "▁بېرى": 9336,
      "▁ھەم": 9337,
      "олливуд": 9338,
      "▁нач": 9339,
      "▁Amer": 9340,
      "andan": 9341,
      "▁تارى": 9342,
      "▁kiş": 9343,
      "▁kadın": 9344,
      "бы": 9345,
      "ンド": 9346,
      "▁filmi": 9347,
      "▁Мюнхен": 9348,
      "ация": 9349,
      "uda": 9350,
      "▁пок": 9351,
      "▁مې": 9352,
      "▁қос": 9353,
      "тип": 9354,
      "reat": 9355,
      "ония": 9356,
      "のですか？\tПочему": 9357,
      "▁ск": 9358,
      "\tTh": 9359,
      "可以": 9360,
      "?\tН": 9361,
      "▁inc": 9362,
      "▁объ": 9363,
      "ライ": 9364,
      "ltra": 9365,
      "▁elektr": 9366,
      "▁foy": 9367,
      "кү": 9368,
      "усу": 9369,
      "кектер": 9370,
      "2022": 9371,
      "日の": 9372,
      "larga": 9373,
      "▁чет": 9374,
      "▁مىليون": 9375,
      "eç": 9376,
      "стер": 9377,
      "ından": 9378,
      "miy": 9379,
      "▁gün": 9380,
      "\tИ": 9381,
      "▁22": 9382,
      "قەت": 9383,
      "▁2023": 9384,
      "нің": 9385,
      "uc": 9386,
      "90": 9387,
      "▁çek": 9388,
      "ғын": 9389,
      "▁таны": 9390,
      "уды": 9391,
      "▁Пари": 9392,
      "Что": 9393,
      "دۇ؟\tWhy": 9394,
      "▁тол": 9395,
      "ожно": 9396,
      "ەتتە": 9397,
      "orm": 9398,
      "ңүз": 9399,
      "▁ел": 9400,
      "درىد": 9401,
      "امدۇ؟\t": 9402,
      ",000": 9403,
      "ある": 9404,
      "лю": 9405,
      "▁نام": 9406,
      "▁avtomobili": 9407,
      "シア": 9408,
      "ldü": 9409,
      "▁топ": 9410,
      "▁Lig": 9411,
      "▁players": 9412,
      "▁مادرىد": 9413,
      "▁boy": 9414,
      "rup": 9415,
      "▁erkak": 9416,
      "▁um": 9417,
      "ıt": 9418,
      "▁sayı": 9419,
      "▁لوڭ": 9420,
      "▁VS": 9421,
      "لىپ": 9422,
      "арых": 9423,
      "azar": 9424,
      "sek": 9425,
      "قار": 9426,
      "れば": 9427,
      "▁exp": 9428,
      "сіз": 9429,
      "ура": 9430,
      "▁Кар": 9431,
      "▁ئۆزى": 9432,
      "landı.\r\n": 9433,
      "ile": 9434,
      "▁ресми": 9435,
      "▁sotib": 9436,
      "еси": 9437,
      "ится": 9438,
      "▁kasal": 9439,
      "indi": 9440,
      "bappe": 9441,
      "унд": 9442,
      "▁كىرگۈز": 9443,
      "ffic": 9444,
      "!\tB": 9445,
      "ード": 9446,
      "▁следу": 9447,
      "'un": 9448,
      "jiang": 9449,
      "rag": 9450,
      "马德里": 9451,
      "▁(8": 9452,
      ".\tТ": 9453,
      "▁dis": 9454,
      "ID": 9455,
      "▁sab": 9456,
      "تۇ": 9457,
      "?\tЖ": 9458,
      "▁بالى": 9459,
      "yan": 9460,
      "▁بولدى\t": 9461,
      "▁ئىككى": 9462,
      "▁me": 9463,
      "яд": 9464,
      "▁trans": 9465,
      "チャンピ": 9466,
      "▁полу": 9467,
      "▁dev": 9468,
      "ы:": 9469,
      "▁во": 9470,
      "▁үздік": 9471,
      "ло": 9472,
      "сқ": 9473,
      "ola": 9474,
      "▁rol": 9475,
      "・マドリード": 9476,
      "▁bea": 9477,
      "пен": 9478,
      "аның": 9479,
      "▁но": 9480,
      "kan": 9481,
      "▁сә": 9482,
      "لەن": 9483,
      "？\tなぜ": 9484,
      "قە": 9485,
      "▁sar": 9486,
      "これらの": 9487,
      "リカ": 9488,
      "的人": 9489,
      "ская": 9490,
      "▁перв": 9491,
      "▁ئېرىش": 9492,
      "塞罗": 9493,
      "▁байланы": 9494,
      "セロナ": 9495,
      "バルセロナ": 9496,
      "携帯": 9497,
      "імді": 9498,
      "▁ачы": 9499,
      "▁more": 9500,
      "より": 9501,
      "гент": 9502,
      "over": 9503,
      "▁бы": 9504,
      "▁лига": 9505,
      "▁рет": 9506,
      "▁2021": 9507,
      "-жыл": 9508,
      ".\tС": 9509,
      "▁after": 9510,
      "سىز؟\t": 9511,
      "巴塞罗": 9512,
      "巴塞罗那": 9513,
      "▁official": 9514,
      "wo": 9515,
      "erman": 9516,
      "▁qo'l": 9517,
      ")\r\n": 9518,
      "チャンピオン": 9519,
      "▁ап": 9520,
      "▁yuq": 9521,
      "レアル": 9522,
      "langan": 9523,
      "▁эмес": 9524,
      "ように": 9525,
      "لەت": 9526,
      "▁بارسېل": 9527,
      "▁like": 9528,
      "▁پۇل": 9529,
      "▁St": 9530,
      "▁دو": 9531,
      "▁истор": 9532,
      "▁oldu.\r\n": 9533,
      "▁بەش": 9534,
      "ュー": 9535,
      "▁дең": 9536,
      "いて": 9537,
      "инде": 9538,
      "▁алдын": 9539,
      "ekler": 9540,
      "▁жарияланды.\t": 9541,
      "o'y": 9542,
      "onom": 9543,
      "ment": 9544,
      "▁ашы": 9545,
      "қта": 9546,
      "aland": 9547,
      "▁child": 9548,
      "ond": 9549,
      "▁توخ": 9550,
      "▁27": 9551,
      "дел": 9552,
      "▁Милан": 9553,
      "▁duyur": 9554,
      "▁нег": 9555,
      "ret": 9556,
      "もし": 9557,
      "گان": 9558,
      "сон": 9559,
      "国の": 9560,
      "▁mov": 9561,
      "▁туралы": 9562,
      "2021": 9563,
      ".\tF": 9564,
      "▁يى": 9565,
      "▁сег": 9566,
      "еттеш": 9567,
      "ды:": 9568,
      "▁уч": 9569,
      "▁клуб": 9570,
      "になり": 9571,
      "qi": 9572,
      "уляр": 9573,
      "▁yıldız": 9574,
      "дик": 9575,
      "ности": 9576,
      "вер": 9577,
      "▁str": 9578,
      "▁төмен": 9579,
      "gain": 9580,
      "мөн": 9581,
      "рен": 9582,
      "▁келди": 9583,
      "▁рын": 9584,
      "ows": 9585,
      "▁three": 9586,
      "ily": 9587,
      "ジャ": 9588,
      "▁каты": 9589,
      "された": 9590,
      "▁fotoğrafları": 9591,
      "▁yer": 9592,
      "▁актер": 9593,
      "▁high": 9594,
      "дия": 9595,
      "چىلىك": 9596,
      "▁سا": 9597,
      "omon": 9598,
      "有名": 9599,
      "▁жағ": 9600,
      "ғаш": 9601,
      "ません。\t": 9602,
      "最高": 9603,
      "は何": 9604,
      "▁does": 9605,
      "دى،": 9606,
      "▁колдон": 9607,
      "▁point": 9608,
      "这些": 9609,
      "tik": 9610,
      "пис": 9611,
      "dir?\r\n": 9612,
      "өй": 9613,
      "ети": 9614,
      "▁qilindi.\t": 9615,
      "▁want": 9616,
      "▁сиз": 9617,
      "nun": 9618,
      "»نىڭ": 9619,
      "enc": 9620,
      "ришти": 9621,
      "22": 9622,
      "▁بارسېلونا": 9623,
      "مىي": 9624,
      "риштиану": 9625,
      "▁نى": 9626,
      "убли": 9627,
      "▁вер": 9628,
      "ted": 9629,
      "ony": 9630,
      "\tJ": 9631,
      "が発表": 9632,
      "ster": 9633,
      "▁тем": 9634,
      "携帯電話": 9635,
      "ию": 9636,
      "▁يانفونى": 9637,
      "ермания": 9638,
      "alan": 9639,
      "健康": 9640,
      "▁Toyota": 9641,
      "▁Кор": 9642,
      "тив": 9643,
      "▁tu": 9644,
      "▁but": 9645,
      "دارى": 9646,
      "▁аны": 9647,
      "▁году": 9648,
      "▁qanch": 9649,
      "?\tY": 9650,
      "▁ئۆت": 9651,
      "▁Ultra": 9652,
      "▁och": 9653,
      "▁mak": 9654,
      "▁бі": 9655,
      "нглия": 9656,
      "▁23": 9657,
      "?\t为什么": 9658,
      "▁again": 9659,
      "▁foyd": 9660,
      "ически": 9661,
      "▁لوڭقىسى": 9662,
      "▁بازارغا": 9663,
      "вентус": 9664,
      "рит": 9665,
      "gun": 9666,
      "ыш": 9667,
      "▁мұ": 9668,
      "▁исп": 9669,
      "ىيە": 9670,
      "23": 9671,
      "▁беттеш": 9672,
      "ытай": 9673,
      "▁сіз": 9674,
      "ink": 9675,
      "өлүк": 9676,
      "▁произ": 9677,
      "стар": 9678,
      "rans": 9679,
      "▁Av": 9680,
      "ーロ": 9681,
      "its": 9682,
      "▁им": 9683,
      "▁Премьер-": 9684,
      "▁унаасы": 9685,
      "арселон": 9686,
      "lub": 9687,
      "▁мест": 9688,
      "▁26": 9689,
      "ант": 9690,
      "▁қаб": 9691,
      "シーズン": 9692,
      "▁женщин": 9693,
      "を見": 9694,
      "нет": 9695,
      "▁season": 9696,
      "изм": 9697,
      "▁әлем": 9698,
      "▁2024": 9699,
      "bir": 9700,
      "ۋېلى": 9701,
      "▁его": 9702,
      "алды.\t": 9703,
      "▁pre": 9704,
      "Бул": 9705,
      "▁doğ": 9706,
      "ۇلى": 9707,
      "ick": 9708,
      "▁бе?\t": 9709,
      "ib,": 9710,
      "ەب": 9711,
      "hen": 9712,
      "▁врем": 9713,
      "ней": 9714,
      "▁yen": 9715,
      "forman": 9716,
      "вар": 9717,
      "ماقچى": 9718,
      "▁Mar": 9719,
      "ランド": 9720,
      "▁oshkor": 9721,
      "价格": 9722,
      "皇家": 9723,
      "▁жоғары": 9724,
      "ком": 9725,
      "kaz": 9726,
      "na": 9727,
      "▁tez": 9728,
      "EFA": 9729,
      "▁соңғы": 9730,
      "▁hol": 9731,
      "▁нұ": 9732,
      "している": 9733,
      "▁güzel": 9734,
      "ставлен": 9735,
      "Егер": 9736,
      "CBA": 9737,
      "▁если": 9738,
      "レアル・マドリード": 9739,
      "▁AC": 9740,
      "атель": 9741,
      "انىيە": 9742,
      "▁кантип": 9743,
      "ец": 9744,
      "▁چېمپىيونلۇق": 9745,
      "деги": 9746,
      "тың": 9747,
      "▁نومۇر": 9748,
      "▁өтк": 9749,
      "тү": 9750,
      "▁don": 9751,
      "▁уп": 9752,
      "aus": 9753,
      "▁сек": 9754,
      "ef": 9755,
      "▁gö": 9756,
      "▁Евро": 9757,
      "▁olish": 9758,
      "ірі": 9759,
      "сь": 9760,
      "фер": 9761,
      "كۈنى": 9762,
      "PV": 9763,
      "子供": 9764,
      "▁گۈز": 9765,
      "oda": 9766,
      "ayern": 9767,
      "▁kez": 9768,
      "lkemiz": 9769,
      "食べ": 9770,
      "ham": 9771,
      "▁sm": 9772,
      "چېس": 9773,
      "رېن": 9774,
      "▁es": 9775,
      "▁خانلىق": 9776,
      "▁aylan": 9777,
      "▁kız": 9778,
      "▁يول": 9779,
      "دۇر": 9780,
      "янь": 9781,
      "ことを": 9782,
      "方法": 9783,
      "چىسى": 9784,
      "▁Ronald": 9785,
      "▁люб": 9786,
      "unyo": 9787,
      "▁سەپ": 9788,
      ".\tV": 9789,
      "999": 9790,
      "maz": 9791,
      "olo": 9792,
      "شىنى": 9793,
      "лам": 9794,
      "ower": 9795,
      "ings": 9796,
      "ain": 9797,
      "▁player": 9798,
      "▁keyin": 9799,
      "▁беш": 9800,
      "▁year": 9801,
      "rol": 9802,
      "▁قول": 9803,
      "لاپ": 9804,
      "▁olan": 9805,
      "тан": 9806,
      "ындай": 9807,
      "ope": 9808,
      "▁sav": 9809,
      "reas": 9810,
      "kat": 9811,
      "▁рез": 9812,
      "?\tE": 9813,
      "▁көң": 9814,
      "▁gerçek": 9815,
      "▁final": 9816,
      "аша": 9817,
      "）：": 9818,
      "issan": 9819,
      "▁GT": 9820,
      "▁эки": 9821,
      "pt": 9822,
      "▁Paris": 9823,
      "аться": 9824,
      "ai": 9825,
      "сен": 9826,
      "▁oladi": 9827,
      "▁Сити": 9828,
      "▁bas": 9829,
      "ができ": 9830,
      "ıldı.\r\n": 9831,
      "▁milyon": 9832,
      "دى!": 9833,
      "улуу": 9834,
      "▁тұр": 9835,
      "able": 9836,
      "公布": 9837,
      "▁алма": 9838,
      "digan": 9839,
      "ed\t": 9840,
      "lus": 9841,
      "▁стан": 9842,
      "▁list": 9843,
      "Дж": 9844,
      "уро": 9845,
      "▁geç": 9846,
      "سىلى": 9847,
      "▁аур": 9848,
      "没有": 9849,
      "дардын": 9850,
      "▁ата": 9851,
      "▁төмөн": 9852,
      "مە": 9853,
      "▁ас": 9854,
      "дөгү": 9855,
      "でしょうか？\t": 9856,
      "ocuk": 9857,
      "SA": 9858,
      "larını": 9859,
      "皇家马德里": 9860,
      "▁qo'sh": 9861,
      "▁sal": 9862,
      "▁тех": 9863,
      "▁Rus": 9864,
      "magan": 9865,
      "ازى": 9866,
      "▁out": 9867,
      "▁көрсөт": 9868,
      "▁іш": 9869,
      "zil": 9870,
      "осм": 9871,
      "▁екі": 9872,
      "әс": 9873,
      "oot": 9874,
      "amlakatimiz": 9875,
      "рал": 9876,
      "unuz?\r\n": 9877,
      "arselona": 9878,
      "▁besh": 9879,
      "ating": 9880,
      "▁ئىس": 9881,
      "ける": 9882,
      "indist": 9883,
      "ron": 9884,
      "サン": 9885,
      "得点": 9886,
      "▁etti.\r\n": 9887,
      "-yil": 9888,
      "▁cons": 9889,
      "▁од": 9890,
      "▁тарых": 9891,
      "▁chempion": 9892,
      "チェスター": 9893,
      "マンチェスター": 9894,
      "се": 9895,
      "▁بەر": 9896,
      "ört": 9897,
      "ольз": 9898,
      "▁suratlari": 9899,
      "idagi": 9900,
      "▁tam": 9901,
      "мерика": 9902,
      "way": 9903,
      "▁май": 9904,
      "▁стал": 9905,
      "▁нұсқ": 9906,
      "нді": 9907,
      "ерп": 9908,
      "▁шықты": 9909,
      "ragon": 9910,
      "▁түш": 9911,
      "ті": 9912,
      "labilir": 9913,
      "▁became": 9914,
      "arli": 9915,
      "▁kuch": 9916,
      "▁упай": 9917,
      "▁oyn": 9918,
      "-ئاينىڭ": 9919,
      "▁зав": 9920,
      "▁رۇ": 9921,
      "US": 9922,
      "öy": 9923,
      "▁when": 9924,
      "▁katta": 9925,
      "▁тарих": 9926,
      "иц": 9927,
      "非常": 9928,
      "ekt": 9929,
      "24": 9930,
      "▁без": 9931,
      "▁интер": 9932,
      "▁жылы": 9933,
      "тагы": 9934,
      "убликов": 9935,
      "لىقىنى": 9936,
      "▁yayın": 9937,
      "▁سەۋ": 9938,
      "での": 9939,
      "▁пен": 9940,
      "▁мир": 9941,
      "?\tM": 9942,
      "еймс": 9943,
      "▁him": 9944,
      "▁up": 9945,
      "Әлем": 9946,
      "▁Inter": 9947,
      "▁уча": 9948,
      "▁قىلغان": 9949,
      "кта": 9950,
      "ۋەن": 9951,
      "ウェ": 9952,
      "▁ұпай": 9953,
      "▁öz": 9954,
      "▁داڭ": 9955,
      "▁گۈزەل": 9956,
      "\tЛ": 9957,
      "o'r": 9958,
      "▁كۈچ": 9959,
      "ij": 9960,
      "▁Th": 9961,
      "пы": 9962,
      "▁beş": 9963,
      "▁прода": 9964,
      "؟\tHow": 9965,
      "لۇ": 9966,
      "▁ئورگان": 9967,
      "▁yuqori": 9968,
      "!!": 9969,
      "▁كار": 9970,
      "sen": 9971,
      "ао": 9972,
      "▁مو": 9973,
      "өм": 9974,
      "▁kirit": 9975,
      "maya": 9976,
      "▁чемпионат": 9977,
      "joy": 9978,
      "ana": 9979,
      "▁boz": 9980,
      "メリカ": 9981,
      "tiv": 9982,
      "سىي": 9983,
      "▁коман": 9984,
      "▁tarih": 9985,
      "бу": 9986,
      "руг": 9987,
      "▁çıktı.\r\n": 9988,
      "ade": 9989,
      "ner": 9990,
      "▁تۆت": 9991,
      "Samsung": 9992,
      "国家": 9993,
      "iver": 9994,
      "▁مانچېس": 9995,
      "ますか？\tКак": 9996,
      "可能性": 9997,
      "түү": 9998,
      "▁narxi": 9999,
      ".5": 10000,
      "مەن": 10001,
      "indeki": 10002,
      "NBA": 10003,
      "ада": 10004,
      "بول": 10005,
      "▁түрде": 10006,
      "▁yol": 10007,
      "▁şey": 10008,
      "ie": 10009,
      "▁did": 10010,
      "では": 10011,
      "руп": 10012,
      "ですか？\tКак": 10013,
      "لارنى": 10014,
      "қтар": 10015,
      "تۇن": 10016,
      "ote": 10017,
      "▁olur": 10018,
      "Huawei": 10019,
      "غۇل": 10020,
      "▁автокөлі": 10021,
      "ۋان": 10022,
      "キャ": 10023,
      "今年": 10024,
      "IDS": 10025,
      "ing.\t": 10026,
      "▁juda": 10027,
      "▁500": 10028,
      "▁ئىن": 10029,
      "▁تۆۋەن": 10030,
      "▁келиш": 10031,
      "▁биз": 10032,
      "▁башт": 10033,
      "▁после": 10034,
      "▁دۆلىتى": 10035,
      "▁mı?\r\n": 10036,
      "бат": 10037,
      "інен": 10038,
      "ship": 10039,
      "ейк": 10040,
      "usu": 10041,
      "明星": 10042,
      "▁sır": 10043,
      "▁sezon": 10044,
      "ууну": 10045,
      "▁нашей": 10046,
      "ология": 10047,
      "▁прев": 10048,
      "▁ди": 10049,
      "roq": 10050,
      "unday": 10051,
      "▁матча": 10052,
      "上市": 10053,
      "▁our": 10054,
      "▁аш": 10055,
      "▁Tesla": 10056,
      "еліктен": 10057,
      "?\tT": 10058,
      "risti": 10059,
      "第一": 10060,
      "▁City": 10061,
      "▁лучш": 10062,
      "▁hist": 10063,
      "▁ئايلان": 10064,
      "▁چىقى": 10065,
      "▁belir": 10066,
      "pa": 10067,
      "дүн": 10068,
      "ери": 10069,
      "▁iki": 10070,
      "arak": 10071,
      "▁ئاخ": 10072,
      "▁ئالى": 10073,
      "▁ür": 10074,
      "▁sin": 10075,
      "arm": 10076,
      "!\tA": 10077,
      "\tCh": 10078,
      "▁ئامېرىكا": 10079,
      "огут": 10080,
      "айтын": 10081,
      "uar": 10082,
      "деш": 10083,
      "كىتى": 10084,
      "▁Гу": 10085,
      "▁фотос": 10086,
      "eg": 10087,
      "なく": 10088,
      "?\tС": 10089,
      "▁жарыяланды.\t": 10090,
      "▁ваш": 10091,
      "other": 10092,
      "▁were": 10093,
      "▁co": 10094,
      "▁жетк": 10095,
      "▁үлкен": 10096,
      "▁кам": 10097,
      "unun": 10098,
      "▁миң": 10099,
      "▁оюнчулар": 10100,
      "▁performan": 10101,
      "اچ": 10102,
      "غرى": 10103,
      "urn": 10104,
      "▁go'": 10105,
      "我国": 10106,
      "سان": 10107,
      "▁so'ng": 10108,
      "獲得": 10109,
      "▁چې": 10110,
      "▁women": 10111,
      "▁seç": 10112,
      "adı": 10113,
      "tra": 10114,
      "орм": 10115,
      "▁ھەر": 10116,
      "a:": 10117,
      "ыть": 10118,
      "уда": 10119,
      "▁іс": 10120,
      "▁получ": 10121,
      "▁ойыншылар": 10122,
      "di:": 10123,
      "ugh": 10124,
      "▁автомобиля": 10125,
      "▁مانچېستېر": 10126,
      "▁ئەرلەر": 10127,
      "球队": 10128,
      "▁karşı": 10129,
      "▁Kup": 10130,
      "айн": 10131,
      "ушу": 10132,
      "\tЧ": 10133,
      "カップ": 10134,
      "кон": 10135,
      "▁nam": 10136,
      "Can": 10137,
      "di.\tА": 10138,
      "▁сем": 10139,
      "otor": 10140,
      "ۇشى": 10141,
      "нь": 10142,
      "▁imp": 10143,
      "▁ئۇز": 10144,
      "▁سال": 10145,
      "any": 10146,
      "▁28": 10147,
      "angiz": 10148,
      "▁sabab": 10149,
      "аст": 10150,
      "ство": 10151,
      "iladi.\t": 10152,
      "进球": 10153,
      "▁300": 10154,
      "▁жағдай": 10155,
      "الاي": 10156,
      "▁Cup": 10157,
      "ач": 10158,
      "abr": 10159,
      "▁ming": 10160,
      "▁price": 10161,
      "ствен": 10162,
      "min": 10163,
      "есь": 10164,
      "▁توپچىلار": 10165,
      "ледн": 10166,
      "ft": 10167,
      "сының": 10168,
      "▁نېمى": 10169,
      "xt": 10170,
      "で最も": 10171,
      "раж": 10172,
      "▁kullan": 10173,
      "кті": 10174,
      "▁60": 10175,
      "▁version": 10176,
      "▁стран": 10177,
      "кек": 10178,
      "ıldı": 10179,
      "бай": 10180,
      "▁bo'ladi": 10181,
      "ранция": 10182,
      "▁дел": 10183,
      "энь": 10184,
      "ball": 10185,
      "▁этом": 10186,
      "リス": 10187,
      "▁рейт": 10188,
      "кет": 10189,
      "▁деңг": 10190,
      "ale": 10191,
      "▁болуп": 10192,
      "▁داڭلىق": 10193,
      "▁мә": 10194,
      "utomobil": 10195,
      "ください。\t": 10196,
      "رىك": 10197,
      "されます。\t": 10198,
      "-كۈنى": 10199,
      "tı\r\n": 10200,
      "пар": 10201,
      "▁ئۈ": 10202,
      "ыла": 10203,
      "сү": 10204,
      "▁پاي": 10205,
      "▁deb": 10206,
      "aceX": 10207,
      "記録": 10208,
      "▁دۆلىتىمىز": 10209,
      "▁НБА": 10210,
      "ФА": 10211,
      "冠军": 10212,
      "ligini": 10213,
      "ғам": 10214,
      "▁алтын": 10215,
      "▁مۇھ": 10216,
      "ылған": 10217,
      "罗斯": 10218,
      "so": 10219,
      "ший": 10220,
      "▁0:1": 10221,
      "▁жариялан": 10222,
      "▁70": 10223,
      "araj": 10224,
      "'a": 10225,
      "زىم": 10226,
      "жи": 10227,
      "▁bak": 10228,
      "▁دائ": 10229,
      "گۈ": 10230,
      "ular": 10231,
      "▁тек": 10232,
      "▁чей": 10233,
      "▁версия": 10234,
      "dim": 10235,
      "▁прод": 10236,
      "▁real": 10237,
      "уге": 10238,
      "injiang": 10239,
      "нен": 10240,
      "▁art": 10241,
      "ارا": 10242,
      "▁تام": 10243,
      "▁ikki": 10244,
      "▁деген": 10245,
      "▁алғаш": 10246,
      "oning": 10247,
      "▁Bir": 10248,
      "▁ئوت": 10249,
      "\tГ": 10250,
      "マンチェスター・": 10251,
      "▁تاش": 10252,
      "▁Интер": 10253,
      "dro": 10254,
      "o'nun": 10255,
      "▁ئىچى": 10256,
      "ove": 10257,
      "中国": 10258,
      "amous": 10259,
      ".\tQ": 10260,
      "▁قالتىس": 10261,
      "لەپ": 10262,
      "ery": 10263,
      "▁жел": 10264,
      "кой": 10265,
      "▁Kupası": 10266,
      "OO": 10267,
      "ması": 10268,
      "▁жаб": 10269,
      "\tЕ": 10270,
      "вел": 10271,
      "дір": 10272,
      "▁жаз": 10273,
      "▁üst": 10274,
      "демі": 10275,
      "▁time": 10276,
      "age": 10277,
      "Sh": 10278,
      "вод": 10279,
      "гын": 10280,
      "ack": 10281,
      "▁официаль": 10282,
      "arı": 10283,
      "▁to'rt": 10284,
      "ает": 10285,
      "yn": 10286,
      "欧洲": 10287,
      "▁hayat": 10288,
      "ҚШ": 10289,
      "▁yüksek": 10290,
      "-s": 10291,
      "yp": 10292,
      "▁арт": 10293,
      "atest": 10294,
      "▁كىي": 10295,
      "qa": 10296,
      "ting": 10297,
      "▁kazan": 10298,
      "▁لى": 10299,
      "▁уақ": 10300,
      "ristiano": 10301,
      "онун": 10302,
      "ябр": 10303,
      "▁би": 10304,
      "▁start": 10305,
      "▁شىر": 10306,
      "にお": 10307,
      "▁мың": 10308,
      "スは": 10309,
      "ence": 10310,
      "\tİ": 10311,
      "emli": 10312,
      "▁игроков": 10313,
      "▁سۈرى": 10314,
      "▁нары": 10315,
      "▁Audi": 10316,
      "▁سۆ": 10317,
      "alam": 10318,
      "▁күч": 10319,
      "▁ещ": 10320,
      "公式": 10321,
      "asında": 10322,
      "ұрын": 10323,
      "о:": 10324,
      "▁оң": 10325,
      "▁прин": 10326,
      "なか": 10327,
      "▁дв": 10328,
      "daki": 10329,
      "du.\r\n": 10330,
      "▁звез": 10331,
      "出现": 10332,
      "▁Барселон": 10333,
      "▁ich": 10334,
      "▁bul": 10335,
      "qar": 10336,
      "есіз": 10337,
      "acak.\r\n": 10338,
      "▁айт": 10339,
      "liq": 10340,
      "▁алып": 10341,
      "biy": 10342,
      "erson": 10343,
      "▁مۇسابىقە": 10344,
      "▁شىن": 10345,
      "▁قىزى": 10346,
      "れた": 10347,
      "ンが": 10348,
      "▁поб": 10349,
      "-يىلى": 10350,
      "mat": 10351,
      "ool": 10352,
      "ША": 10353,
      "▁сл": 10354,
      "инист": 10355,
      "▁ئالتۇن": 10356,
      "онс": 10357,
      "тобы": 10358,
      "▁тел": 10359,
      "んな": 10360,
      "utiful": 10361,
      "елси": 10362,
      "ken": 10363,
      "▁кур": 10364,
      "▁сөз": 10365,
      "شنى": 10366,
      "yunda": 10367,
      "▁than": 10368,
      "cak": 10369,
      "сүз": 10370,
      "inden": 10371,
      "абы?\t": 10372,
      "үгүн": 10373,
      "Роналду": 10374,
      "▁star": 10375,
      "▁كەت": 10376,
      "ۇرۇن": 10377,
      "اپى": 10378,
      "▁Volkswagen": 10379,
      "ormal": 10380,
      "талия": 10381,
      "Эгер": 10382,
      "ilen": 10383,
      "ampions": 10384,
      "ини": 10385,
      "тті": 10386,
      "алары": 10387,
      "үнү": 10388,
      "AC": 10389,
      "sat": 10390,
      "ынды": 10391,
      "олот": 10392,
      "▁to'p": 10393,
      "▁ич": 10394,
      "di.\tМ": 10395,
      "▁Yun": 10396,
      "yun": 10397,
      "КШ": 10398,
      "▁уз": 10399,
      "rat": 10400,
      "▁history": 10401,
      "▁tas": 10402,
      "▁tal": 10403,
      "кра": 10404,
      "▁\"\"": 10405,
      "If": 10406,
      "moqchi": 10407,
      "ğu": 10408,
      "ются": 10409,
      "ңуз": 10410,
      "енз": 10411,
      "，你": 10412,
      "▁же": 10413,
      "▁dört": 10414,
      "▁appear": 10415,
      "▁سۇ": 10416,
      "эм": 10417,
      "▁ев": 10418,
      "aviy": 10419,
      "▁Kore": 10420,
      "アー": 10421,
      "▁көб": 10422,
      "hou": 10423,
      "?\tO": 10424,
      "eymar": 10425,
      "▁yem": 10426,
      "ら、": 10427,
      "▁fa": 10428,
      "▁уб": 10429,
      "了一": 10430,
      "人が": 10431,
      "ayot": 10432,
      "▁бірінші": 10433,
      "▁бур": 10434,
      "▁алты": 10435,
      "▁през": 10436,
      "▁истории": 10437,
      "▁унаа": 10438,
      "▁алуу": 10439,
      "中的": 10440,
      "ahon": 10441,
      "▁paydo": 10442,
      "\tФ": 10443,
      "▁туу": 10444,
      "▁болып": 10445,
      "▁bol": 10446,
      "▁один": 10447,
      "olog": 10448,
      "cc": 10449,
      "▁won": 10450,
      "цион": 10451,
      "стық": 10452,
      "▁narx": 10453,
      "▁буду": 10454,
      "rash": 10455,
      "る。\t": 10456,
      "▁emas": 10457,
      "▁faz": 10458,
      "▁two": 10459,
      "ими": 10460,
      "erg": 10461,
      "vel": 10462,
      "ward": 10463,
      "ящ": 10464,
      "▁келіс": 10465,
      "孩子": 10466,
      "▁takımı": 10467,
      "ыры": 10468,
      "droid": 10469,
      "onor": 10470,
      "▁دائىم": 10471,
      "ider": 10472,
      "著名": 10473,
      "▁2020": 10474,
      "\tҚ": 10475,
      "غل": 10476,
      "▁mag": 10477,
      "▁алган": 10478,
      "ілер": 10479,
      "▁кино": 10480,
      "▁35": 10481,
      "штыр": 10482,
      "ecek.\r\n": 10483,
      "▁ئاۋ": 10484,
      "uvga": 10485,
      "bat": 10486,
      "▁еще": 10487,
      "市場": 10488,
      "▁ماي": 10489,
      "aki": 10490,
      "ИД": 10491,
      "eh": 10492,
      "еть": 10493,
      "▁Синь": 10494,
      "あり": 10495,
      "▁ئەھ": 10496,
      "ского": 10497,
      "▁сыйлы": 10498,
      "ズリーグ": 10499,
      "▁they": 10500,
      "індегі": 10501,
      "▁life": 10502,
      "زەر": 10503,
      "▁мо": 10504,
      "есей": 10505,
      "▁гла": 10506,
      "yundai": 10507,
      "dition": 10508,
      "▁تەن": 10509,
      "ورت": 10510,
      "rupa": 10511,
      "▁five": 10512,
      "onaldo": 10513,
      "ских": 10514,
      "ngil": 10515,
      "▁кем": 10516,
      "BD": 10517,
      "We": 10518,
      "ül": 10519,
      "▁мужчин": 10520,
      "ПИД": 10521,
      "▁gibi": 10522,
      "▁durum": 10523,
      "▁объяв": 10524,
      "▁сбор": 10525,
      "知道": 10526,
      "огу": 10527,
      "ğer": 10528,
      "ko": 10529,
      "chisi": 10530,
      "lion": 10531,
      "▁ئەي": 10532,
      "لىيە": 10533,
      "▁يەر": 10534,
      "▁карьер": 10535,
      "сына": 10536,
      "ASA": 10537,
      "▁ئېن": 10538,
      "ғанда": 10539,
      "▁sit": 10540,
      "iyle": 10541,
      "▁ayol": 10542,
      "开始": 10543,
      "aytir": 10544,
      "症状": 10545,
      "▁gerek": 10546,
      "ampiyonlar": 10547,
      "ль": 10548,
      "死亡": 10549,
      "iverp": 10550,
      "▁bos": 10551,
      "▁arr": 10552,
      "▁versiyon": 10553,
      "あなたの": 10554,
      "俄罗斯": 10555,
      "▁ئەس": 10556,
      "ロシア": 10557,
      "赛季": 10558,
      "илась": 10559,
      "esini": 10560,
      "امى": 10561,
      "▁жұм": 10562,
      "سىنىڭ": 10563,
      "ступ": 10564,
      "▁hayot": 10565,
      "gent": 10566,
      "\tIn": 10567,
      "▁США": 10568,
      "▁экономик": 10569,
      "▁кый": 10570,
      "▁іст": 10571,
      "иверп": 10572,
      "▁ме?\t": 10573,
      "asining": 10574,
      "▁появ": 10575,
      "алам": 10576,
      "liği": 10577,
      "▁дев": 10578,
      "どのような": 10579,
      "▁internet": 10580,
      "▁тағы": 10581,
      "ident": 10582,
      "▁day": 10583,
      "チャンピオンズリーグ": 10584,
      "ナイ": 10585,
      "ody": 10586,
      "ەسىل": 10587,
      "we": 10588,
      "ырт": 10589,
      "SUV": 10590,
      "原因": 10591,
      "?\tQ": 10592,
      "▁1:2": 10593,
      "▁dar": 10594,
      "▁день": 10595,
      "▁كىم": 10596,
      "▁vaq": 10597,
      "▁تور": 10598,
      "▁Eur": 10599,
      "iri": 10600,
      "شىپ": 10601,
      "▁орн": 10602,
      "empionlar": 10603,
      "үт": 10604,
      "ルの": 10605,
      "ance": 10606,
      "уучу": 10607,
      "lar:": 10608,
      "!\tM": 10609,
      "▁dik": 10610,
      "します。\t": 10611,
      ".\tİ": 10612,
      "ۈگ": 10613,
      "lardan": 10614,
      "▁daraj": 10615,
      "2023": 10616,
      "ۈم": 10617,
      "قىي": 10618,
      "▁görün": 10619,
      "200": 10620,
      "\tУ": 10621,
      "имп": 10622,
      "▁который": 10623,
      "▁поп": 10624,
      "ルー": 10625,
      "ару": 10626,
      "▁кір": 10627,
      "ские": 10628,
      "▁мира": 10629,
      "▁بىلى": 10630,
      "▁фун": 10631,
      "ران": 10632,
      "▁Хан": 10633,
      "▁конт": 10634,
      "дарды": 10635,
      "▁оюнчу": 10636,
      "-й": 10637,
      "еңіз": 10638,
      "▁экран": 10639,
      "自己": 10640,
      "▁sı": 10641,
      "iyor.\r\n": 10642,
      "▁رۇسىيە": 10643,
      "Pro": 10644,
      "▁بېل": 10645,
      "▁zaman": 10646,
      "▁win": 10647,
      "ктыр": 10648,
      "-с": 10649,
      "?\tТ": 10650,
      "▁финал": 10651,
      "▁жарыялан": 10652,
      ":9": 10653,
      "яз": 10654,
      "を発表": 10655,
      "▁чтобы": 10656,
      "ось": 10657,
      "zi": 10658,
      "ih": 10659,
      "▁тер": 10660,
      "▁qiy": 10661,
      "▁әр": 10662,
      "▁дай": 10663,
      "的球员": 10664,
      "арри": 10665,
      "دى\tM": 10666,
      "新型": 10667,
      "▁otomobili": 10668,
      "ED": 10669,
      "▁يانفون": 10670,
      "▁qaysi": 10671,
      "▁دۆلەت": 10672,
      "バイ": 10673,
      "▁–": 10674,
      "asizmi?\t": 10675,
      "орту": 10676,
      "جاڭ": 10677,
      "ление": 10678,
      "▁yoq": 10679,
      "üc": 10680,
      "дөн": 10681,
      "كاپ": 10682,
      "▁Ronaldu": 10683,
      "ости": 10684,
      "▁быть": 10685,
      "▁دەرى": 10686,
      "pr": 10687,
      "▁Tian": 10688,
      "ildi.\r\n": 10689,
      "▁كېسىلى": 10690,
      "үйнөлүк": 10691,
      "▁nars": 10692,
      "くの": 10693,
      "▁mashhur": 10694,
      "ەچ": 10695,
      "▁san": 10696,
      "▁есть": 10697,
      "ルト": 10698,
      "▁мер": 10699,
      "公司": 10700,
      "ロー": 10701,
      "他们": 10702,
      ".\tCh": 10703,
      "دى:": 10704,
      "▁қа": 10705,
      "▁yo'q": 10706,
      "▁kil": 10707,
      "داش": 10708,
      "▁look": 10709,
      "▁شياۋ": 10710,
      "lov": 10711,
      "▁Huawei": 10712,
      "▁market": 10713,
      "тор": 10714,
      "▁değiş": 10715,
      "аман": 10716,
      "mayı": 10717,
      "▁время": 10718,
      "▁актри": 10719,
      "▁Бавария": 10720,
      "▁رەس": 10721,
      "Өз": 10722,
      "▁كۈن": 10723,
      "тып": 10724,
      "我が": 10725,
      "▁best": 10726,
      ":4": 10727,
      "获得": 10728,
      "▁توي": 10729,
      "▁көңүл": 10730,
      "кі": 10731,
      "рок": 10732,
      "'daki": 10733,
      "nap": 10734,
      "2020": 10735,
      "erced": 10736,
      "▁Мар": 10737,
      "айт:": 10738,
      "▁(9": 10739,
      "орош": 10740,
      "▁pul": 10741,
      "▁جى": 10742,
      "▁چىقتى": 10743,
      "▁өлкө": 10744,
      "▁bet": 10745,
      "▁ئۆزگ": 10746,
      "ca": 10747,
      "▁sürüldü": 10748,
      "で、": 10749,
      "ды!": 10750,
      "▁тұра": 10751,
      "ercedes": 10752,
      "өк": 10753,
      "▁met": 10754,
      "▁zarar": 10755,
      "ета": 10756,
      "eti": 10757,
      "o's": 10758,
      "▁پى": 10759,
      "ۋالى": 10760,
      "▁кайра": 10761,
      "▁емес": 10762,
      "▁kut": 10763,
      "اتتى": 10764,
      "liğ": 10765,
      "لە": 10766,
      "▁против": 10767,
      "▁каб": 10768,
      "utomobile": 10769,
      "\tQ": 10770,
      "▁қат": 10771,
      "▁ئالدى": 10772,
      "▁فىلى": 10773,
      "dat": 10774,
      "ЕФА": 10775,
      "▁0:2": 10776,
      "人的": 10777,
      "▁свою": 10778,
      "▁become": 10779,
      "▁four": 10780,
      "ылды\t": 10781,
      "▁бола": 10782,
      "ох": 10783,
      "разил": 10784,
      "у:": 10785,
      "▁güç": 10786,
      "Pad": 10787,
      "adece": 10788,
      "▁рас": 10789,
      "▁өлт": 10790,
      "ational": 10791,
      "▁زىي": 10792,
      "が、": 10793,
      "bu": 10794,
      "لىرىنىڭ": 10795,
      "ви": 10796,
      "▁Ö": 10797,
      "emier": 10798,
      "mo": 10799,
      "につ": 10800,
      "▁Honda": 10801,
      "▁komp": 10802,
      "▁ساق": 10803,
      "ирован": 10804,
      "▁чемпионов": 10805,
      "▁мур": 10806,
      "▁تورى": 10807,
      "▁людей": 10808,
      "еванд": 10809,
      "发布。\t": 10810,
      "▁increas": 10811,
      "станов": 10812,
      "▁или": 10813,
      "евандов": 10814,
      "▁yur": 10815,
      "▁Khan": 10816,
      "dragon": 10817,
[...]
