{
  "version": "1.0",
  "truncation": null,
  "padding": null,
  "added_tokens": [
    {
      "id": 0,
      "content": "<PAD>",
      "single_word": false,
      "lstrip": false,
      "rstrip": false,
      "normalized": false,
      "special": true
    },
    {
      "id": 1,
      "content": "<UNK>",
      "single_word": false,
      "lstrip": false,
      "rstrip": false,
      "normalized": false,
      "special": true
    },
    {
      "id": 2,
      "content": "<SOS>",
      "single_word": false,
      "lstrip": false,
      "rstrip": false,
      "normalized": false,
      "special": true
    },
    {
      "id": 3,
      "content": "<EOS>",
      "single_word": false,
      "lstrip": false,
      "rstrip": false,
      "normalized": false,
      "special": true
    }
  ],
  "normalizer": null,
  "pre_tokenizer": {
    "type": "Metaspace",
    "replacement": "▁",
    "prepend_scheme": "always",
    "split": true
  },
  "post_processor": null,
  "decoder": null,
  "model": {
    "type": "BPE",
    "dropout": null,
    "unk_token": "<UNK>",
    "continuing_subword_prefix": null,
    "end_of_word_suffix": null,
    "fuse_unk": false,
    "byte_fallback": false,
    "ignore_merges": false,
    "vocab": {
      "<PAD>": 0,
      "<UNK>": 1,
      "<SOS>": 2,
      "<EOS>": 3,
      "!": 4,
      "\"": 5,
      "#": 6,
      "$": 7,
      "%": 8,
      "'": 9,
      "(": 10,
      ")": 11,
      "*": 12,
      "+": 13,
      ",": 14,
      "-": 15,
      ".": 16,
      "/": 17,
      "0": 18,
      "1": 19,
      "2": 20,
      "3": 21,
      "4": 22,
      "5": 23,
      "6": 24,
      "7": 25,
      "8": 26,
      "9": 27,
      ":": 28,
      "<": 29,
      "=": 30,
      ">": 31,
      "?": 32,
      "@": 33,
      "[": 34,
      "\\": 35,
      "]": 36,
      "^": 37,
      "_": 38,
      "a": 39,
      "b": 40,
      "c": 41,
      "d": 42,
      "e": 43,
      "f": 44,
      "g": 45,
      "h": 46,
      "i": 47,
      "j": 48,
      "k": 49,
      "l": 50,
      "m": 51,
      "n": 52,
      "o": 53,
      "p": 54,
      "q": 55,
      "r": 56,
      "s": 57,
      "t": 58,
      "u": 59,
      "v": 60,
      "w": 61,
      "x": 62,
      "y": 63,
      "z": 64,
      "{": 65,
      "|": 66,
      "}": 67,
      "£": 68,
      "¥": 69,
      "«": 70,
      "»": 71,
      "،": 72,
      "؛": 73,
      "؟": 74,
      "ئ": 75,
      "ا": 76,
      "ب": 77,
      "ت": 78,
      "ج": 79,
      "خ": 80,
      "د": 81,
      "ر": 82,
      "ز": 83,
      "س": 84,
      "ش": 85,
      "غ": 86,
      "ف": 87,
      "ق": 88,
      "ك": 89,
      "ل": 90,
      "م": 91,
      "ن": 92,
      "و": 93,
      "ى": 94,
      "ي": 95,
      "پ": 96,
      "چ": 97,
      "ژ": 98,
      "ڭ": 99,
      "گ": 100,
      "ھ": 101,
      "ۆ": 102,
      "ۇ": 103,
      "ۈ": 104,
      "ۋ": 105,
      "ې": 106,
      "ە": 107,
      "‹": 108,
      "›": 109,
      "€": 110,
      "▁": 111,
      "▁ئ": 112,
      "لى": 113,
      "نى": 114,
      "▁ب": 115,
      "ان": 116,
      "▁ت": 117,
      "دى": 118,
      "رى": 119,
      "▁ق": 120,
      "▁ك": 121,
      "سى": 122,
      "تى": 123,
      "ار": 124,
      "▁ي": 125,
      "▁م": 126,
      "ەن": 127,
      "نىڭ": 128,
      "ىل": 129,
      "▁ئا": 130,
      "كى": 131,
      "ەر": 132,
      "قى": 133,
      "دا": 134,
      "ول": 135,
      "ەت": 136,
      "شى": 137,
      "غان": 138,
      "مى": 139,
      "اي": 140,
      "▁\"": 141,
      "▁ئى": 142,
      "\",": 143,
      "ۇر": 144,
      "▁س": 145,
      "دە": 146,
      "ال": 147,
      "▁ھ": 148,
      "دۇ": 149,
      "ىر": 150,
      "چى": 151,
      "▁بول": 152,
      "ىلى": 153,
      "▁ئۇ": 154,
      "اش": 155,
      "لىق": 156,
      "▁ن": 157,
      "▁پ": 158,
      "غا": 159,
      "▁ئە": 160,
      "دىن": 161,
      ".\",": 162,
      "لار": 163,
      "▁مۇ": 164,
      "▁تو": 165,
      "▁ۋ": 166,
      "ات": 167,
      "گە": 168,
      "زى": 169,
      "▁چ": 170,
      "▁ئې": 171,
      "▁خ": 172,
      "ەل": 173,
      "ەي": 174,
      "▁كۆ": 175,
      "مۇ": 176,
      "▁كې": 177,
      "ەك": 178,
      "لا": 179,
      "▁بىر": 180,
      "▁بۇ": 181,
      "▁ئو": 182,
      "▁ئۆ": 183,
      "سا": 184,
      "پ،": 185,
      "لىك": 186,
      "ۈر": 187,
      "ۇن": 188,
      "اق": 189,
      "▁ش": 190,
      "ىن": 191,
      "▁بىل": 192,
      "ىرى": 193,
      "▁ج": 194,
      "قا": 195,
      "وم": 196,
      "▁قىلى": 197,
      "ىي": 198,
      "گەن": 199,
      "تا": 200,
      "▁د": 201,
      "▁بولۇ": 202,
      "ىز": 203,
      "دىكى": 204,
      "ۇق": 205,
      "▁يا": 206,
      "▁بىلەن": 207,
      "ۈن": 208,
      "▁ر": 209,
      "▁يې": 210,
      "بى": 211,
      "▁ۋە": 212,
      "ون": 213,
      "ام": 214,
      "ەم": 215,
      "▁تە": 216,
      "چە": 217,
      "دۇ،": 218,
      "لىرى": 219,
      "▁بې": 220,
      "ۇل": 221,
      "▁قو": 222,
      "▁ئال": 223,
      "▁مە": 224,
      "▁بو": 225,
      "اپ": 226,
      "جى": 227,
      "ەپ": 228,
      "ۈش": 229,
      "مىسى": 230,
      "يا": 231,
      "▁قىل": 232,
      "▁تې": 233,
      "كەن": 234,
      "قان": 235,
      "تە": 236,
      "▁گ": 237,
      "دىغان": 238,
      "لىقى": 239,
      "اھ": 240,
      "▁سى": 241,
      "لىنى": 242,
      "▁ئۈ": 243,
      "لەر": 244,
      "ېتى": 245,
      "اس": 246,
      "▁چى": 247,
      "ۇرۇ": 248,
      "▁كۆر": 249,
      "دۇ.": 250,
      "▁1": 251,
      "ېر": 252,
      "▁تەر": 253,
      "ەۋ": 254,
      "كىن": 255,
      "مە": 256,
      "ارى": 257,
      "▁باش": 258,
      "ور": 259,
      "يە": 260,
      "الى": 261,
      "داق": 262,
      "▁ل": 263,
      "▁دە": 264,
      "ەش": 265,
      "پى": 266,
      "▁«": 267,
      "▁ئىش": 268,
      "تىن": 269,
      "▁\"ئ": 270,
      "كە": 271,
      "لىشى": 272,
      "دۇ.\",": 273,
      "▁2": 274,
      "▁تورى": 275,
      "وڭ": 276,
      "ۇم": 277,
      "سابى": 278,
      "▁كى": 279,
      "قىرى": 280,
      "▁بولغان": 281,
      "▁مۇسابى": 282,
      "از": 283,
      "▁بولۇپ،": 284,
      "▁ئاي": 285,
      "لان": 286,
      "▁ئۇنىڭ": 287,
      "ۈز": 288,
      "لاش": 289,
      "▁بولى": 290,
      "ۈپ": 291,
      "دىسى": 292,
      "يى": 293,
      "ست": 294,
      "دەم": 295,
      "▁كۈ": 296,
      "دى،": 297,
      "▁ئار": 298,
      "▁قات": 299,
      "▁بار": 300,
      "ماي": 301,
      "-ئ": 302,
      "▁قال": 303,
      "ما": 304,
      "▁نۇر": 305,
      "▁دا": 306,
      "ېن": 307,
      "▁دې": 308,
      "▁توپ": 309,
      "▁(": 310,
      "يىن": 311,
      "ۇت": 312,
      "لۇق": 313,
      "ۈك": 314,
      "مىز": 315,
      "▁كوم": 316,
      "پت": 317,
      "▁مەي": 318,
      "▁كۆپ": 319,
      "خى": 320,
      "لىش": 321,
      "لارنىڭ": 322,
      "▁كەل": 323,
      "▁كېيىن": 324,
      "وب": 325,
      "خشى": 326,
      "▁ئۆزى": 327,
      "ىتى": 328,
      "▁شۇ": 329,
      "▁كومان": 330,
      "لىكى": 331,
      "لەش": 332,
      "▁ھەم": 333,
      "▁قان": 334,
      "دا،": 335,
      "ڭىز": 336,
      "▁قى": 337,
      "غۇ": 338,
      "▁بە": 339,
      "▁ز": 340,
      "دان": 341,
      "سىز": 342,
      "رەك": 343,
      "قۇ": 344,
      "▁ھە": 345,
      "اسى": 346,
      "ېرى": 347,
      "اتى": 348,
      "ەتتە": 349,
      "ىلەر": 350,
      "اڭ": 351,
      "ەنە": 352,
      "▁قېتى": 353,
      "▁\"ب": 354,
      "▁خەۋ": 355,
      "غى": 356,
      "▁قىلىش": 357,
      "اۋ": 358,
      "▁ئۈچ": 359,
      "انى": 360,
      "▁ئەڭ": 361,
      "▁ئاپت": 362,
      "▁قېتىم": 363,
      "▁تۆ": 364,
      "▁يەنە": 365,
      "▁قار": 366,
      "تىش": 367,
      "وموب": 368,
      "▁ياخشى": 369,
      "▁مى": 370,
      "▁مۇسابىقى": 371,
      "ەھ": 372,
      ":\",": 373,
      "ۇش": 374,
      "▁ئور": 375,
      "ۋال": 376,
      "▁مەيدان": 377,
      "تۇر": 378,
      "▁ھې": 379,
      "▁چوڭ": 380,
      "▁ئىك": 381,
      "▁يۇ": 382,
      "▁لې": 383,
      "ستى": 384,
      "▁بېرى": 385,
      "▁ئاپتوموب": 386,
      "تۈر": 387,
      "▁نە": 388,
      "ڭى": 389,
      "ارلىق": 390,
      "▁ئۆز": 391,
      "لىپ": 392,
      "▁قوي": 393,
      "گەر": 394,
      "▁مې": 395,
      "▁پە": 396,
      "-ي": 397,
      "لەن": 398,
      "ۇپ": 399,
      "ىم": 400,
      "▁كېرەك": 401,
      "لۈك": 402,
      "گى": 403,
      "▁قىلغان": 404,
      "▁تۇر": 405,
      "▁ھەر": 406,
      "▁ئەمە": 407,
      "▁كوماندىسى": 408,
      "ىلار": 409,
      "▁قاي": 410,
      "كا": 411,
      "▁ئاپتوموبىل": 412,
      "▁ئادەم": 413,
      "▁تۇ": 414,
      "دى.": 415,
      "▁لېكىن": 416,
      "ۈل": 417,
      "اقى": 418,
      "▁ف": 419,
      "▁ئىن": 420,
      "▁يو": 421,
      "لىقىنى": 422,
      "شىنى": 423,
      "▁ئىچى": 424,
      "▁خەۋىرى": 425,
      "▁ئىككى": 426,
      "▁خىل": 427,
      "▁تېخى": 428,
      "ۇرۇش": 429,
      "تىپ": 430,
      "▁مۇن": 431,
      "قەت": 432,
      "▁يۇقىرى": 433,
      "قە": 434,
      "▁بولۇپ": 435,
      "▁تەرجى": 436,
      "كۈ": 437,
      "▁ئوي": 438,
      "▁يىل": 439,
      "رو": 440,
      "▁تەرجىمىسى": 441,
      "دى.\",": 442,
      "تىكى": 443,
      "اك": 444,
      "تۇ": 445,
      "لىي": 446,
      "ائ": 447,
      "00": 448,
      "▁كە": 449,
      "ەتلىك": 450,
      "لارنى": 451,
      "▁چې": 452,
      "▁قارى": 453,
      "▁مىل": 454,
      "▁كەت": 455,
      "▁سىز": 456,
      "سىنى": 457,
      "لۇ": 458,
      "قتى": 459,
      "▁خەۋىرى،": 460,
      "▁ئۇچ": 461,
      "▁ئام": 462,
      "▁3": 463,
      "اغ": 464,
      "پىي": 465,
      "ۆل": 466,
      "▁تەرجىمىسى:\",": 467,
      "اقىت": 468,
      "▁تى": 469,
      "دارى": 470,
      "پا": 471,
      "▁تېخىمۇ": 472,
      "▁نى": 473,
      "غان،": 474,
      "▁بىز": 475,
      "▁دەپ": 476,
      "مەي": 477,
      "▁شى": 478,
      "گىرى": 479,
      "▁قاتارلىق": 480,
      "▁سۈر": 481,
      "مان": 482,
      "▁ۋاقىت": 483,
      "▁يېڭى": 484,
      "▁كىر": 485,
      "سىنىڭ": 486,
      "▁سې": 487,
      "مەن": 488,
      "▁تار": 489,
      "▁ئاش": 490,
      "▁چۈش": 491,
      "-يىلى": 492,
      "▁يۈ": 493,
      "شىلەر": 494,
      "ۋەن": 495,
      "▁قول": 496,
      "▁ئىقتى": 497,
      "▁كىشىلەر": 498,
      "▁ئەر": 499,
      "▁ئۆت": 500,
      "-ئاي": 501,
      "▁ئېرى": 502,
      "خش": 503,
      "▁دو": 504,
      "▁ئۈچۈن": 505,
      "▁ئاسا": 506,
      "▁ئەم": 507,
      "▁ئەھ": 508,
      "▁مۇھ": 509,
      "غۇن": 510,
      "مكىن": 511,
      "ايى": 512,
      "▁مۇمكىن": 513,
      "▁ئاخ": 514,
      "ۈرۈش": 515,
      "تىنى": 516,
      "▁ياش": 517,
      "ۇرۇپ": 518,
      "▁ئىل": 519,
      "ومۇر": 520,
      "▁تۆۋەن": 521,
      "▁ئالدى": 522,
      "▁تەرەپ": 523,
      "▁مەن": 524,
      "▁بىرلەش": 525,
      "▁ساق": 526,
      "▁دۇ": 527,
      "لې": 528,
      "لىنىش": 529,
      "▁بەر": 530,
      "ۇس": 531,
      "▁20": 532,
      "ەنى": 533,
      "مەت": 534,
      "▁ياكى": 535,
      "▁باي": 536,
      "سىي": 537,
      "▁ما": 538,
      "▁ئالا": 539,
      "لاپ": 540,
      "گىلى": 541,
      "مىن": 542,
      "ايىتى": 543,
      "ازىر": 544,
      "▁بولسا": 545,
      "▁مىلي": 546,
      "▁يەر": 547,
      "▁ناھ": 548,
      "دەك": 549,
      "دار": 550,
      "▁باشقا": 551,
      "ەڭ": 552,
      "▁ھال": 553,
      "گۈ": 554,
      "▁ئارقى": 555,
      "▁سو": 556,
      "▁غ": 557,
      "▁سۇ": 558,
      "▁نومۇر": 559,
      "▁دەرى": 560,
      "▁ئەمەس": 561,
      "مىغان": 562,
      "سلى": 563,
      "سىيە": 564,
      "ۇنداق": 565,
      "▁بەل": 566,
      "▁چىق": 567,
      "▁دى": 568,
      "را": 569,
      "▁كۈچ": 570,
      "ۈت": 571,
      "▁ناھايىتى": 572,
      "▁يار": 573,
      "▁ھاي": 574,
      "▁ئاز": 575,
      "ۈم": 576,
      "سىمۇ": 577,
      "▁ئوخش": 578,
      "▁ئان": 579,
      "مەك": 580,
      "انلىق": 581,
      "▁چىقى": 582,
      "ۋى": 583,
      "▁كىن": 584,
      "سە": 585,
      "▁زى": 586,
      "ونى": 587,
      "▁قە": 588,
      "▁چىقىرى": 589,
      "▁ئاس": 590,
      "▁يەنى": 591,
      "ڭا": 592,
      "▁ئاد": 593,
      "▁تال": 594,
      "▁يول": 595,
      "تقان": 596,
      "▁ئوت": 597,
      "بەت": 598,
      "رىسى": 599,
      "▁بولۇش": 600,
      "▁كىرى": 601,
      "نيا": 602,
      "نداق": 603,
      "ۋې": 604,
      "▁نۇرغۇن": 605,
      "تى،": 606,
      "ئىي": 607,
      "▁()": 608,
      "كەت": 609,
      "▁ھازىر": 610,
      "▁ۋاق": 611,
      "يان": 612,
      "لە": 613,
      "لىتى": 614,
      "▁4": 615,
      "چىلار": 616,
      "قىي": 617,
      "ىيە": 618,
      "▁نەتى": 619,
      "دە،": 620,
      "▁كەلتۈر": 621,
      "چە،": 622,
      "▁ئىس": 623,
      "▁قې": 624,
      "سىم": 625,
      "قىن": 626,
      "▁ئاساس": 627,
      "▁مەسى": 628,
      "▁ئۇز": 629,
      "لىكىنى": 630,
      "▁سەۋ": 631,
      "▁5": 632,
      "سەل": 633,
      "▁پەقەت": 634,
      "لەپ": 635,
      "ەب": 636,
      "▁ئۇلار": 637,
      "▁قىلىپ": 638,
      "ماق": 639,
      "▁كىنو": 640,
      "غاندا،": 641,
      "ايىن": 642,
      "▁ئايال": 643,
      "اتقان": 644,
      "وت": 645,
      "▁ئۆزىنىڭ": 646,
      "▁دۇنيا": 647,
      "▁ئارقىلىق": 648,
      "▁تام": 649,
      "ماس": 650,
      "▁قوش": 651,
      "ستې": 652,
      "▁باھ": 653,
      "▁بىرلەشمىسى": 654,
      "▁نې": 655,
      "▁ئىكەن": 656,
      "▁شۇڭا": 657,
      "▁بى": 658,
      "دىكەن": 659,
      "▁مىليون": 660,
      "▁كۈن": 661,
      "▁مۇسابىقە": 662,
      "مىي": 663,
      "ۇرۇن": 664,
      "غان.": 665,
      "لەرنى": 666,
      "▁نىس": 667,
      "سىر": 668,
      "▁ئوخشاش": 669,
      "ادى": 670,
      "▁دېگەن": 671,
      "▁نام": 672,
      "▁سۆ": 673,
      "▁تاش": 674,
      "گۈز": 675,
      "لىرىنى": 676,
      "▁ۋاقتى": 677,
      "▁بولۇشى": 678,
      "▁ئېي": 679,
      "▁تۇرمۇ": 680,
      "▁\"بۇ": 681,
      "▁بۇنىڭ": 682,
      "دۈر": 683,
      "▁يى": 684,
      "لىرىنىڭ": 685,
      "بە": 686,
      "▁كېسەل": 687,
      "ېل": 688,
      "▁ئېرىش": 689,
      "▁ئەگەر": 690,
      "▁تەك": 691,
      "گەن،": 692,
      "مال": 693,
      "▁بولىدۇ،": 694,
      "دۇر": 695,
      "▁رو": 696,
      "▁پۈت": 697,
      "▁پەي": 698,
      "▁كېلى": 699,
      "ددى": 700,
      "▁قىز": 701,
      "▁كۆرۈ": 702,
      "چىسى": 703,
      "ياۋ": 704,
      "▁بىرى": 705,
      "▁ئىنت": 706,
      "▁سال": 707,
      "▁ئۇس": 708,
      "ۋەت": 709,
      "▁ياۋ": 710,
      "▁ھەرى": 711,
      "شىپ": 712,
      "▁بالى": 713,
      "▁كېتى": 714,
      "▁بولماي": 715,
      "▁مىڭ": 716,
      "▁ئىنتايىن": 717,
      "غىلى": 718,
      "▁توخ": 719,
      "▁\"ت": 720,
      "▁سان": 721,
      "▁ئىلگىرى": 722,
      "▁سۈ": 723,
      "▁يوق": 724,
      "▁قۇ": 725,
      "الاي": 726,
      "▁كىرگۈز": 727,
      "▁كۈچى": 728,
      "▁ئامېرى": 729,
      "چىك": 730,
      "▁ئورۇن": 731,
      "▁كېيىن،": 732,
      "ۇڭ": 733,
      "لارغا": 734,
      "▁كۆرسى": 735,
      "اب": 736,
      "لۇقى": 737,
      "▁ياردەم": 738,
      "لىن": 739,
      "غان.\",": 740,
      "▁قانداق": 741,
      "اچ": 742,
      "▁شەك": 743,
      "▁مەز": 744,
      "▁ئۆل": 745,
      "كۈنى": 746,
      "دەن": 747,
      "▁ئۈستى": 748,
      "▁ئېلىپ": 749,
      "▁بولسىمۇ": 750,
      "▁«ئ": 751,
      "ارا": 752,
      "▁ئىقتىدارى": 753,
      "▁باشق": 754,
      "؟\",": 755,
      "▁تەڭ": 756,
      "▁ئېغ": 757,
      "▁ئەمما": 758,
      "▁سەپ": 759,
      "▁پەر": 760,
      "▁سېتى": 761,
      "▁توغ": 762,
      "▁قىس": 763,
      "لەرنىڭ": 764,
      "▁6": 765,
      "▁جى": 766,
      "▁جەھ": 767,
      "▁\"1": 768,
      "▁ھېس": 769,
      "رىم": 770,
      "ېي": 771,
      "▁نەتىجى": 772,
      "ۋا": 773,
      "▁ئېلىش": 774,
      "▁\"2": 775,
      "اپى": 776,
      "▁يەنىلا": 777,
      "ھە": 778,
      "▁پاي": 779,
      "ۇلى": 780,
      "ېت": 781,
      "▁پى": 782,
      "داش": 783,
      "غىنى": 784,
      "▁يەت": 785,
      "▁دەرىجى": 786,
      "▁شۇنداق": 787,
      "وق": 788,
      "▁بەدەن": 789,
      "▁يۈز": 790,
      "▁پەيدا": 791,
      "▁مۇناسى": 792,
      "▁يان": 793,
      "چىلىك": 794,
      "ۈنكى": 795,
      "▁ھەمدە": 796,
      "▁بولىدۇ.\",": 797,
      "▁ياۋرو": 798,
      "▁\"ي": 799,
      "▁بەك": 800,
      "▁بولىدۇ.": 801,
      "▁يۈەن": 802,
      "▁يېقىن": 803,
      "ەرلىك": 804,
      "▁ئەمەلىي": 805,
      "-ئاينىڭ": 806,
      "▁مىق": 807,
      "▁تول": 808,
      "▁ئىگە": 809,
      "▁ئۇنى": 810,
      "▁دائ": 811,
      "-كۈنى": 812,
      "▁پۇل": 813,
      "لاي": 814,
      "لەت": 815,
      "▁بەزى": 816,
      "▁ئەي": 817,
      "مىنى": 818,
      "▁قىلىپ،": 819,
      "كۈز": 820,
      "ھى": 821,
      "▁قۇر": 822,
      "▁تېز": 823,
      "▁دۆل": 824,
      "ۈشى": 825,
      "كىتى": 826,
      "▁تور": 827,
      "▁تەسىر": 828,
      "▁7": 829,
      "▁ۋاقىتتا": 830,
      "▁ھەي": 831,
      "▁تۇرمۇش": 832,
      "تى.": 833,
      "▁بۇرۇن": 834,
      "▁كېسى": 835,
      "تۇرۇش": 836,
      "▁پار": 837,
      "▁مۇسابىقىدە": 838,
      "▁پۈتۈن": 839,
      "▁ھەقى": 840,
      "ران": 841,
      "ەتكە": 842,
      "▁8": 843,
      "▁ئىز": 844,
      "دىغانلىقىنى": 845,
      "▁سىر": 846,
      "شىغا": 847,
      "▁ئالدىن": 848,
      "لىشىش": 849,
      "▁كەلتۈرۈپ": 850,
      "خانى": 851,
      "▁قور": 852,
      "▁ئەھۋال": 853,
      "▁رول": 854,
      "ساب": 855,
      "▁كەلگەن": 856,
      "مپىي": 857,
      "▁شىر": 858,
      "▁كۆز": 859,
      "ۋاتقان": 860,
      "كى،": 861,
      "گىل": 862,
      "▁كىچىك": 863,
      "▁ئىچىدە": 864,
      "▁كەتكەن": 865,
      "▁كېسەللىك": 866,
      "▁ئىچ": 867,
      "▁ھېساب": 868,
      "نا": 869,
      "▁ئائ": 870,
      "▁كىي": 871,
      "تىس": 872,
      "شۇ": 873,
      "▁ماس": 874,
      "غاندا": 875,
      "-ب": 876,
      "▁يېتى": 877,
      "▁دۆلەت": 878,
      "▁راي": 879,
      "▁كون": 880,
      "▁ئېغىر": 881,
      "▁گە": 882,
      "▁ئىپا": 883,
      "غاندىن": 884,
      "ەلۇم": 885,
      "▁ئۇلارنىڭ": 886,
      "دىم": 887,
      "▁چېمپىي": 888,
      "▁خىز": 889,
      "▁ئۈن": 890,
      "▁تەكش": 891,
      "▁ئاخىرى": 892,
      "▁ھەرىكەت": 893,
      "ۈپ،": 894,
      "شىش": 895,
      "ۈرى": 896,
      "چچە": 897,
      "▁مۇنداق": 898,
      "لام": 899,
      "▁كۈچلۈك": 900,
      "ۇج": 901,
      "ۋان": 902,
      "▁شۇنىڭ": 903,
      "▁پاس": 904,
      "لەي": 905,
      "▁تەن": 906,
      "▁سىستې": 907,
      "▁ئېلان": 908,
      "سا،": 909,
      "▁تۇي": 910,
      "▁ئامېرىكا": 911,
      "سىدە": 912,
      "نچى": 913,
      "لىنىپ": 914,
      "▁10": 915,
      "دەر": 916,
      "▁ئەت": 917,
      "▁بېسى": 918,
      "▁كار": 919,
      "▁تۈر": 920,
      "▁ئۇزۇن": 921,
      "سەت": 922,
      "▁ئورنى": 923,
      "▁ئەس": 924,
      "دىنى": 925,
      "▁يېمەك": 926,
      "▁بولسىمۇ،": 927,
      "يۇ": 928,
      "▁نەچچە": 929,
      "▁باق": 930,
      "▁تۇت": 931,
      "▁داۋ": 932,
      "▁كۆڭ": 933,
      "ۇرى": 934,
      "دو": 935,
      "▁كۆرسىتى": 936,
      "▁رە": 937,
      "▁رې": 938,
      "بىي": 939,
      "▁\"«": 940,
      "ۈگ": 941,
      "▁مەلۇم": 942,
      "بول": 943,
      "▁202": 944,
      "لىپ،": 945,
      "ەلەي": 946,
      "ۇنجى": 947,
      "سۇن": 948,
      "▁چېمپىيون": 949,
      "▁زور": 950,
      "▁ئاخىر": 951,
      "▁جىن": 952,
      "▁بەلكى": 953,
      "▁ماي": 954,
      "زىم": 955,
      "▁قىي": 956,
      "▁قارشى": 957,
      "▁ئەمەس،": 958,
      "قىل": 959,
      "▁كۆرۈن": 960,
      "سىل": 961,
      "▁%": 962,
      "▁بۇنداق": 963,
      "▁باشقىلار": 964,
      "بىر": 965,
      "▁كېرەك.\",": 966,
      "▁ساھ": 967,
      "▁تەت": 968,
      "▁بېرىش": 969,
      "▁تۇنجى": 970,
      "سىگە": 971,
      "امى": 972,
      "ەز": 973,
      "ىلىم": 974,
      "غۇل": 975,
      "▁جەم": 976,
      "▁نۇق": 977,
      "▁مۇۋ": 978,
      "▁كەي": 979,
      "ەلى": 980,
      "وۋ": 981,
      "▁ئايلان": 982,
      "▁ئارى": 983,
      "ارەت": 984,
      "▁قىزى": 985,
      "▁كېرەك.": 986,
      "▁9": 987,
      "ېڭ": 988,
      "▁مۇھىم": 989,
      "نىق": 990,
      "▁لى": 991,
      "راق": 992,
      "▁يۈر": 993,
      "▁شارى": 994,
      "قىسى": 995,
      "▁كېيىنكى": 996,
      "ىلىك": 997,
      "▁ئاغ": 998,
      "▁ئېيتقان": 999,
      "تىسى": 1000,
      "غاچ": 1001,
      "▁مەغ": 1002,
      "▁رەڭ": 1003,
      "▁كەس": 1004,
      "ناش": 1005,
      "▁\"ئۇ": 1006,
      "▁ئاۋ": 1007,
      "▁ئەن": 1008,
      "▁ئالدىنقى": 1009,
      "لاردا": 1010,
      "▁ئۈستىگە": 1011,
      "▁چەك": 1012,
      "درى": 1013,
      "▁ياۋروپا": 1014,
      "▁ھۆ": 1015,
      "▁چوق": 1016,
      "▁چۈنكى": 1017,
      "▁ئۆس": 1018,
      "▁كەچ": 1019,
      "▁ئەسلى": 1020,
      "▁ئالى": 1021,
      "▁ھەممىسى": 1022,
      "▁ماھ": 1023,
      "زا": 1024,
      "ەلق": 1025,
      "▁شەھ": 1026,
      "▁لايى": 1027,
      "▁دائىم": 1028,
      "چىل": 1029,
      "پە": 1030,
      "▁داۋام": 1031,
      "▁\"ك": 1032,
      "▁ئات": 1033,
      "▁باھاسى": 1034,
      "▁بوش": 1035,
      "▁ھۇج": 1036,
      "بىتى": 1037,
      "كىنى": 1038,
      "▁كېسىلى": 1039,
      "▁يال": 1040,
      "ققى": 1041,
      "▁كۈنى": 1042,
      "▁سۈرئ": 1043,
      "ۋالى": 1044,
      "▁مەس": 1045,
      "تۇرى": 1046,
      "لەنگەن": 1047,
      "الماي": 1048,
      "▁سىستېمىسى": 1049,
      "▁ئۇچرى": 1050,
      "ۋە": 1051,
      "▁ھېچ": 1052,
      "ھتى": 1053,
      "ۋېتى": 1054,
      "سان": 1055,
      "▁قىلىن": 1056,
      "▁كىشى": 1057,
      "فون": 1058,
      "تر": 1059,
      "▁ھالدا": 1060,
      "▁ئاسان": 1061,
      "▁چىر": 1062,
      "▁تۆت": 1063,
      "مەس": 1064,
      "مىتى": 1065,
      "▁پەسلى": 1066,
      "ېس": 1067,
      "ائەت": 1068,
      "▁قىلىشى": 1069,
      "▁مار": 1070,
      "▁ئاندىن": 1071,
      "▁ئۈمى": 1072,
      "▁ئۇنداق": 1073,
      "▁ئاج": 1074,
      "▁مىقدارى": 1075,
      "▁ئۆزگىرى": 1076,
      "تى.\",": 1077,
      "▁ئېھتى": 1078,
      "▁قالغان": 1079,
      "كار": 1080,
      "گىيە": 1081,
      "اكت": 1082,
      "▁تەش": 1083,
      "ۇلۇ": 1084,
      "▁پۇر": 1085,
      "▁بال": 1086,
      "قىق": 1087,
      "ەتتە،": 1088,
      "▁ئومۇ": 1089,
      "▁ئۆزىنى": 1090,
      "يىش": 1091,
      "▁چوقۇم": 1092,
      "لۇپ": 1093,
      "گىنى": 1094,
      "▁ئۆزگەر": 1095,
      "▁ئىم": 1096,
      "چىلىق": 1097,
      "▁ئالەم": 1098,
      "▁چىققان": 1099,
      "▁بىلى": 1100,
      "▁بويى": 1101,
      "▁تولۇق": 1102,
      "▁مۇناسىۋ": 1103,
      "كىسى": 1104,
      "▁مۇك": 1105,
      "▁رى": 1106,
      "▁غەلى": 1107,
      "سىڭىز": 1108,
      "▁ئاق": 1109,
      "-ت": 1110,
      "▁ئايرى": 1111,
      "▁چىقار": 1112,
      "▁ئۆي": 1113,
      "▁خۇ": 1114,
      "لىشىپ": 1115,
      "ېتىر": 1116,
      "▁ئۈمىد": 1117,
      "▁بار،": 1118,
      "پىنى": 1119,
      "▁باشقا،": 1120,
      "قىنى": 1121,
      "▁خىزمەت": 1122,
      "▁\"ھ": 1123,
      "ەتتا": 1124,
      "ياڭ": 1125,
      "غاچقا": 1126,
      "▁نىسبەت": 1127,
      "▁قەدەر": 1128,
      "▁مەغلۇپ": 1129,
      "لىگەن": 1130,
      "اتقۇ": 1131,
      "ازى": 1132,
      "▁بولسا،": 1133,
      "▁19": 1134,
      "▁پۇت": 1135,
      "ساق": 1136,
      "▁12": 1137,
      "▁يېرىم": 1138,
      "▁مو": 1139,
      "▁ئاستى": 1140,
      "▁ئېرىشكەن": 1141,
      "▁تاپ": 1142,
      "▁چاغ": 1143,
      "▁ھەتتا": 1144,
      "▁ئاچ": 1145,
      "دىلا": 1146,
      "▁ھۇجۇم": 1147,
      "▁ئالاھى": 1148,
      "▁خەلق": 1149,
      "▁لوڭ": 1150,
      "▁نىسبەتەن": 1151,
      "▁گېر": 1152,
      "▁كېرەك،": 1153,
      "تۇرا": 1154,
      "اۋا": 1155,
      "چې": 1156,
      "بۇل": 1157,
      "ەتتىكى": 1158,
      "▁خار": 1159,
      "لىغان": 1160,
      "غۇچ": 1161,
      "▁تەرە": 1162,
      "▁داۋال": 1163,
      "▁تۇرى": 1164,
      "▁گەر": 1165,
      "▁ئاغرى": 1166,
      "▁يېمەكلىك": 1167,
      "▁ئېن": 1168,
      "▁ئېنىق": 1169,
      "سە،": 1170,
      "خنى": 1171,
      "▁ئىچكى": 1172,
      "ىلان": 1173,
      "گىز": 1174,
      "▁توغرا": 1175,
      "▁دەر": 1176,
      "▁قالى": 1177,
      "▁كوماندى": 1178,
      "▁گار": 1179,
      "تەك": 1180,
      "▁تەتقىق": 1181,
      "▁جاي": 1182,
      "راپ": 1183,
      "..": 1184,
      "ەخ": 1185,
      "▁دول": 1186,
      "▁قىم": 1187,
      "▁گەرچە": 1188,
      "▁ئائىلى": 1189,
      "▁مان": 1190,
      "!\",": 1191,
      "▁جەر": 1192,
      "▁شۇنداقلا": 1193,
      "ورى": 1194,
      "▁تون": 1195,
      "نىشى": 1196,
      "▁قىسىم": 1197,
      "▁يۇق": 1198,
      "▁خەۋەر": 1199,
      "▁بىراق": 1200,
      "اخ": 1201,
      "▁نۇس": 1202,
      "لىتىش": 1203,
      "غۇچى": 1204,
      "تۇرۇپ": 1205,
      "▁قوغ": 1206,
      "▁يۆ": 1207,
      "▁بولمى": 1208,
      "▁دەرىج": 1209,
      "▁قوبۇل": 1210,
      "▁فىلىم": 1211,
      "▁ئۇنىڭغا": 1212,
      "▁قاتناش": 1213,
      "▁ھەل": 1214,
      "▁بەرگەن": 1215,
      "لاشقان": 1216,
      "ازار": 1217,
      "▁قاپ": 1218,
      "لەرگە": 1219,
      ")\",": 1220,
      "▁مەھ": 1221,
      "مىش": 1222,
      "▁قايتقان": 1223,
      "▁ئىسپ": 1224,
      "▁قۇي": 1225,
      "▁مىن": 1226,
      "▁بولمىغان": 1227,
      "▁بىم": 1228,
      "ونا": 1229,
      "▁نېمە": 1230,
      "ڭىزنى": 1231,
      "▁ئوتتۇرا": 1232,
      "▁مۇھەب": 1233,
      "ۇقلۇق": 1234,
      "پىسى": 1235,
      "▁يارى": 1236,
      "تۇن": 1237,
      "▁كېلىپ": 1238,
      "دىي": 1239,
      "▁بۆل": 1240,
      "▁شەكىل": 1241,
      "تۇق": 1242,
      "▁\"3": 1243,
      "▁تەپ": 1244,
      "▁تىي": 1245,
      "▁\"ن": 1246,
      "▁بەش": 1247,
      "▁بۆ": 1248,
      "▁\"ئى": 1249,
      "▁سىرت": 1250,
      "تۇرۇ": 1251,
      "▁نۇسخى": 1252,
      "▁ئىپادىسى": 1253,
      "▁ئۇنداقتا": 1254,
      "▁داڭ": 1255,
      "ستېر": 1256,
      "▁ئىج": 1257,
      "▁قارا": 1258,
      "مىگەن": 1259,
      "كر": 1260,
      "يەت": 1261,
      "يەن": 1262,
      "گو": 1263,
      "▁سۆز": 1264,
      "اتىر": 1265,
      "▁قىلىشقا": 1266,
      "▁مەيداندا": 1267,
      "مىنىڭ": 1268,
      "▁ئاخىرىدا": 1269,
      "▁ئىكەنلىكىنى": 1270,
      "▁تۇيغۇ": 1271,
      "كىنىڭ": 1272,
      "▁مەسىلەن": 1273,
      "▁جەمئىي": 1274,
      "▁ياز": 1275,
      "▁دەرىجىلىك": 1276,
      "ۋېلىش": 1277,
      "»\",": 1278,
      "كىنچى": 1279,
      "ئارا": 1280,
      "▁گاردىن": 1281,
      "▁ئىشلىتى": 1282,
      "▁پايدى": 1283,
      "▁ئۈز": 1284,
      "ەبى": 1285,
      "▁ساغ": 1286,
      "▁سەۋەب": 1287,
      "▁ھاياتى": 1288,
      "▁چېمپىيونلۇق": 1289,
      "▁يۈرۈش": 1290,
      "▁نومۇر،": 1291,
      "▁مەسىلى": 1292,
      "▁ماڭ": 1293,
      "قانداق": 1294,
      "ېك": 1295,
      "▁ئاتا": 1296,
      "▁بازار": 1297,
      "▁كۆرۈش": 1298,
      "ېرات": 1299,
      "▁دوخ": 1300,
      "قىش": 1301,
      "▁نەر": 1302,
      "ىلە": 1303,
      "▁بىمار": 1304,
      "▁تارى": 1305,
      "▁تېلې": 1306,
      "لاشتۇر": 1307,
      "قۇر": 1308,
      "سىدىكى": 1309,
      "▁كۆتۈر": 1310,
      "▁سائەت": 1311,
      "تىل": 1312,
      "▁ئادەمنىڭ": 1313,
      "▁ئۆتكۈز": 1314,
      "▁ياردەمچى": 1315,
      "▁كىشىلەرنىڭ": 1316,
      "▁سۈپى": 1317,
      "▁بېرىپ": 1318,
      "▁سەۋەبى": 1319,
      "▁كەم": 1320,
      "▁لوڭقىسى": 1321,
      "تىق": 1322,
      "▁گۈز": 1323,
      "▁قاراپ": 1324,
      "نىدا": 1325,
      "چان": 1326,
      "ترول": 1327,
      "▁11": 1328,
      "سېل": 1329,
      "▁تەركى": 1330,
      "▁201": 1331,
      "دۇق": 1332,
      "▁بەدىنى": 1333,
      "▁سېلىش": 1334,
      "تانى": 1335,
      "▁لايىھە": 1336,
      "▁a": 1337,
      "غاچقا،": 1338,
      "▁مەر": 1339,
      "ققەت": 1340,
      "▁كونترول": 1341,
      "لاردىن": 1342,
      "▁گۈزەل": 1343,
      "▁كۆرى": 1344,
      "▁سىن": 1345,
      "ۇلغان": 1346,
      "گېن": 1347,
      "لىنىشى": 1348,
      "▁ئوقۇ": 1349,
      "▁توس": 1350,
      "▁تىپ": 1351,
      "▁ئېچى": 1352,
      "ماسلىق": 1353,
      "لىيە": 1354,
      "»نىڭ": 1355,
      "▁شەكلى": 1356,
      "▁ئەھۋالى": 1357,
      "▁مۇمكىن،": 1358,
      "▁گەپ": 1359,
      "▁ساغلام": 1360,
      "ارد": 1361,
      "▁توي": 1362,
      "وپ": 1363,
      "يىتى": 1364,
      "▁ئۇنىڭدىن": 1365,
      "ۆۋ": 1366,
      "▁ئومۇمىي": 1367,
      "ەتتىن": 1368,
      "▁مەزگىل": 1369,
      "ڭ،": 1370,
      "▁تەس": 1371,
      "▁نىسبىتى": 1372,
      "سسى": 1373,
      "قۇن": 1374,
      "▁ئېيتقاندا،": 1375,
      "▁گۇرۇپ": 1376,
      "▁ھەقىقىي": 1377,
      "▁يۇقۇم": 1378,
      "▁بارلىق": 1379,
      "دىمۇ": 1380,
      "-يىل": 1381,
      "رىنى": 1382,
      "▁ھالى": 1383,
      "غىچە": 1384,
      "▁ئادەتتە": 1385,
      "▁قاتتىق": 1386,
      "مانى": 1387,
      "▁دوختۇر": 1388,
      "▁تىرى": 1389,
      "▁گې": 1390,
      "▁ھېسابلىنى": 1391,
      "ىت": 1392,
      "لاپ،": 1393,
      "▁داۋالاش": 1394,
      "▁ئۇچر": 1395,
      "▁توختا": 1396,
      "ماش": 1397,
      "▁ھايات": 1398,
      "ىيى": 1399,
      "▁توك": 1400,
      "▁تەكشۈرۈش": 1401,
      "▁ئول": 1402,
      "▁ئاڭ": 1403,
      "▁بولىدۇ": 1404,
      "▁قارىغاندا،": 1405,
      "▁رايون": 1406,
      "اتا": 1407,
      "▁تەمىن": 1408,
      "شنى": 1409,
      "ىراق": 1410,
      "جىڭ": 1411,
      ")،": 1412,
      "▁تىپى": 1413,
      "▁ناملىق": 1414,
      "خەت": 1415,
      "تا،": 1416,
      "▁\"س": 1417,
      "▁سۈرەت": 1418,
      "▁قوز": 1419,
      "شىپ،": 1420,
      "▁ئىنسان": 1421,
      "▁چول": 1422,
      "▁بويىچە": 1423,
      "▁بولسۇن": 1424,
      "▁كو": 1425,
      "▁ئەپ": 1426,
      "▁بىلدۈر": 1427,
      "▁كۆرۈپ": 1428,
      "▁سۈپىتى": 1429,
      "گۈچ": 1430,
      "▁داڭلىق": 1431,
      "خان": 1432,
      "▁رۇ": 1433,
      "دىز": 1434,
      "▁دوست": 1435,
      "▁تېپى": 1436,
      "▁ئالتۇن": 1437,
      "لەندۈر": 1438,
      "▁مۇمكىن.": 1439,
      "▁شىركىتى": 1440,
      "دې": 1441,
      "ۈشىنى": 1442,
      "▁ئىت": 1443,
      "▁خاراكت": 1444,
      "ئەت": 1445,
      "▁كۆرۈل": 1446,
      "چاق": 1447,
      "▁ئەمەلىيەتتە": 1448,
      "▁قالماي": 1449,
      "ئە": 1450,
      "▁جەريا": 1451,
      "▁توختى": 1452,
      "▁مۇكاپ": 1453,
      "20": 1454,
      "قىم": 1455,
      "▁كال": 1456,
      "▁تەرى": 1457,
      "▁ئىچىگە": 1458,
      "▁مۇس": 1459,
      "▁نەتىجىدە": 1460,
      "▁دىققەت": 1461,
      "لىقىغا": 1462,
      "دىكەن.\",": 1463,
      "▁كۆڭۈل": 1464,
      "▁كىل": 1465,
      "▁بۇيان": 1466,
      "▁مۇمكىن.\",": 1467,
      "كىل": 1468,
      "ورمال": 1469,
      "▁خۇش": 1470,
      "غىن": 1471,
      "▁ئالماش": 1472,
      "▁ئىگىلى": 1473,
      "▁ئىستې": 1474,
      "اج": 1475,
      "رە": 1476,
      "▁جىنسىي": 1477,
      "ۈگۈن": 1478,
      "▁يۈرەك": 1479,
      "▁يانفون": 1480,
      "▁i": 1481,
      "▁سىزنىڭ": 1482,
      "▁دۆ": 1483,
      "▁باس": 1484,
      "پېرات": 1485,
      "▁قاتارلىقلار": 1486,
      "رىسىدا": 1487,
      "درىد": 1488,
      "اكى": 1489,
      "▁ئەرلەر": 1490,
      "ۋاتى": 1491,
      "▁بەلكىم": 1492,
      "▁بوشلۇقى": 1493,
      "▁ئەتر": 1494,
      "▁چوڭقۇر": 1495,
      "▁بېسىپ": 1496,
      "زان": 1497,
      "▁ئەۋ": 1498,
      "ققىي": 1499,
      "▁\"-": 1500,
      "▁15": 1501,
      "نج": 1502,
      "▁ناماي": 1503,
      "خۇ": 1504,
      "لىدىغان": 1505,
      "سۇل": 1506,
      "▁\"2.": 1507,
      "▁ھازىرقى": 1508,
      "▁ئېلىپ،": 1509,
      "رېن": 1510,
      "▁ھەقىقەت": 1511,
      "▁تەرەققىي": 1512,
      "▁مۇھەببەت": 1513,
      "▁مادرىد": 1514,
      "▁ساھە": 1515,
      "▁توپچى": 1516,
      "▁تىر": 1517,
      "▁ئۇي": 1518,
      "▁كىرىمى": 1519,
      "▁ئارتىس": 1520,
      "▁قىسمى": 1521,
      "مىنەن": 1522,
      "خمىنەن": 1523,
      "دى:": 1524,
      "گان": 1525,
      "▁ھايۋان": 1526,
      "▁\"1.": 1527,
      "تىم": 1528,
      "▁دېڭىز": 1529,
      "▁ئۆزىگە": 1530,
      "▁مىنۇت": 1531,
      "زىنى": 1532,
      "▁ئېلې": 1533,
      "سىغا": 1534,
      "▁غەلىبە": 1535,
      "وك": 1536,
      "مىز،": 1537,
      "▁ۋاس": 1538,
      "▁چىقىپ": 1539,
      "▁ئىستېمال": 1540,
      "▁ئادى": 1541,
      "ونال": 1542,
      "▁ئاشك": 1543,
      "▁ئالاھىدە": 1544,
      "▁ئەگى": 1545,
      "▁كوماندىسىنىڭ": 1546,
      "مۇن": 1547,
      "▁ئىككىنچى": 1548,
      "اپىق": 1549,
      "زۇ": 1550,
      "ەلمەي": 1551,
      "▁يولى": 1552,
      "▁چۈشەن": 1553,
      "▁قىلىدۇ،": 1554,
      "▁ھەقىقەتەن": 1555,
      "چېستېر": 1556,
      "▁تۇرۇ": 1557,
      "▁ئاسانلا": 1558,
      "▁بېلەت": 1559,
      "▁يىلى": 1560,
      "يار": 1561,
      "لانغان": 1562,
      "قۇچى": 1563,
      "▁سەھ": 1564,
      "▁داۋاملىق": 1565,
      "▁تېخنى": 1566,
      "▁كەيپىي": 1567,
      "ۈمى": 1568,
      "▁ئەتراپى": 1569,
      "لاند": 1570,
      "بۇ": 1571,
      "ايلى": 1572,
      "راھ": 1573,
      "▁شياۋ": 1574,
      "ماقچى": 1575,
      "▁\"جى": 1576,
      "▁ئېشىپ": 1577,
      "▁ئوخشى": 1578,
      "▁\"يې": 1579,
      "گەندىن": 1580,
      "گەن.\",": 1581,
      "▁قىلغۇچ": 1582,
      "▁\"م": 1583,
      "جە": 1584,
      "▁مەك": 1585,
      "▁مەستانى": 1586,
      "ىس": 1587,
      "▁قويۇپ": 1588,
      "▁تەتقىقات": 1589,
      "ۇلۇش": 1590,
      "▁پۇتبول": 1591,
      "▁ۋىر": 1592,
      "▁\"4": 1593,
      "سىرى": 1594,
      "لىرىغا": 1595,
      "▁زىيا": 1596,
      "ورت": 1597,
      "▁ئېتى": 1598,
      "▁ھۆكۈ": 1599,
      "▁قۇت": 1600,
      "پان": 1601,
      "▁ئالغان": 1602,
      "▁قىلغان،": 1603,
      "▁بايقى": 1604,
      "شۇنداق": 1605,
      "-ك": 1606,
      "▁مېنىڭ": 1607,
      "وگ": 1608,
      "▁\"3.": 1609,
      "▁ئەينى": 1610,
      "▁دۆلىتى": 1611,
      "▁بىخەت": 1612,
      "دوڭ": 1613,
      "▁ئۈچۈن،": 1614,
      "▁شەخ": 1615,
      "▁ئاپ": 1616,
      "▁ئەيدىز": 1617,
      "▁قىلىدىغان": 1618,
      "مۈر": 1619,
      "▁تاماق": 1620,
      "زىي": 1621,
      "دىكەن،": 1622,
      "▁باشلى": 1623,
      "ش،": 1624,
      "▁ئاياللار": 1625,
      "▁ئېك": 1626,
      "▁بىزنىڭ": 1627,
      "لىدۇ،": 1628,
      "▁ئالدىنى": 1629,
      "▁خەلقئارا": 1630,
      "▁مۇۋاپىق": 1631,
      "▁ئوب": 1632,
      "▁كەلگۈ": 1633,
      "▁ئوڭ": 1634,
      "▁ۋى": 1635,
      "▁تۈز": 1636,
      "تىدىن": 1637,
      "▁گۇ": 1638,
      "▁جۇڭ": 1639,
      "امان": 1640,
      "▁كۆرۈڭ": 1641,
      "▁مىليارد": 1642,
      "▁بىۋ": 1643,
      "▁تۇرۇش": 1644,
      "ستان": 1645,
      "▁گىرى": 1646,
      "▁بۇنىڭدىن": 1647,
      "▁ئۆر": 1648,
      "▁بولغاندا": 1649,
      "▁سانى": 1650,
      "▁كەڭ": 1651,
      "كىلى": 1652,
      "▁تەركىبى": 1653,
      "▁بىرىنچى": 1654,
      "دد": 1655,
      "ېلى": 1656,
      "▁سەك": 1657,
      "تىپ،": 1658,
      "▁مۇسابىقىگە": 1659,
      "▁قالتىس": 1660,
      "كسى": 1661,
      "▁ئارتۇق": 1662,
      "رۇ": 1663,
      "▁مەيدا": 1664,
      "▁تەل": 1665,
      "نجاڭ": 1666,
      "تىنىڭ": 1667,
      "▁شەھىرى": 1668,
      "سېرى": 1669,
      "نىش": 1670,
      "▁چاغدا": 1671,
      "▁كاپ": 1672,
      "گەن.": 1673,
      "▁قولغا": 1674,
      "▁تاما": 1675,
      "▁200": 1676,
      "▁رەت": 1677,
      "▁مۇر": 1678,
      "▁تەي": 1679,
      "▁رونال": 1680,
      "▁دەل": 1681,
      "▁خۇشال": 1682,
      "▁مەزگىلى": 1683,
      "▁نورمال": 1684,
      "لىم": 1685,
      "▁ئەز": 1686,
      "▁تەرىپى": 1687,
      "▁چاق": 1688,
      "▁0": 1689,
      "▁تارقى": 1690,
      "▁ئاپتوموبىلنىڭ": 1691,
      "▁قىيىن": 1692,
      "-مىن": 1693,
      "▁پو": 1694,
      "▁ياللۇ": 1695,
      "▁قىزىل": 1696,
      "لىشىچە،": 1697,
      "▁ئۇسۇلى": 1698,
      "غۇر": 1699,
      "▁ئىشلىتىش": 1700,
      "▁قېتىملىق": 1701,
      "▁تەبى": 1702,
      "▁پەسىل": 1703,
      "الىي": 1704,
      "▁تۈ": 1705,
      "▁ئېھتىيا": 1706,
      "▁خاراكتېر": 1707,
      "▁دەس": 1708,
      "سال": 1709,
      "تال": 1710,
      "▁ئارقا": 1711,
      "بوب": 1712,
      "▁مەۋ": 1713,
      "▁چولپان": 1714,
      "▁بازى": 1715,
      "▁نىڭ": 1716,
      "▁\"جىبوب": 1717,
      "▁مۇسابىقىسى": 1718,
      "▁لا": 1719,
      "▁ھاۋا": 1720,
      "ارىژ": 1721,
      "▁سەل": 1722,
      "▁ئەل": 1723,
      "▁مېھ": 1724,
      "امىلى": 1725,
      "تىدا": 1726,
      "▁موت": 1727,
      "▁ساقلاش": 1728,
      "▁مۇئ": 1729,
      "▁قايسى": 1730,
      "ۇنى": 1731,
      "▁سانلىق": 1732,
      "▁مۇناسىۋەتلىك": 1733,
      "تىر": 1734,
      "▁مۇۋەپ": 1735,
      "چىلارنىڭ": 1736,
      "▁يېنى": 1737,
      "▁جاۋ": 1738,
      "▁\"جىبوبا": 1739,
      "اد": 1740,
      "▁يىراق": 1741,
      "▁ئۇدا": 1742,
      "▁مەسىلەن،": 1743,
      "قاي": 1744,
      "▁شۇكى،": 1745,
      "▁بولغاچقا،": 1746,
      "▁ئاساسلىق": 1747,
      "▁شۇن": 1748,
      "سىپ": 1749,
      "شىق": 1750,
      "قۇز": 1751,
      "▁تەكشۈر": 1752,
      "▁ئاشكارى": 1753,
      "▁يۈزى": 1754,
      "▁قايتا": 1755,
      "▁يېت": 1756,
      "▁جەھەتتە": 1757,
      "▁كۆپچىلىك": 1758,
      "▁رايونى": 1759,
      "دىدار": 1760,
      "▁نۆۋ": 1761,
      "مەن،": 1762,
      "سىق": 1763,
      "▁ھو": 1764,
      "تەپ": 1765,
      "ئال": 1766,
      "▁ئېنېر": 1767,
      "▁ساي": 1768,
      "▁كىيى": 1769,
      "▁قىلىشنى": 1770,
      "رىسىدىكى": 1771,
      "▁ئىزچىل": 1772,
      "▁تۇرۇپ": 1773,
      "ايدىغان": 1774,
      "شىچە،": 1775,
      "▁چار": 1776,
      "▁زىيان": 1777,
      "▁مېڭى": 1778,
      "▁ئۆزگىرىش": 1779,
      "اچار": 1780,
      "سېلونا": 1781,
      "▁مۇۋەپپە": 1782,
      "دىلىك": 1783,
      "وس": 1784,
      "ۋېر": 1785,
      "▁\"20": 1786,
      "دىكەن.": 1787,
      "ايدۇ،": 1788,
      "▁تاللاش": 1789,
      "كىلەر": 1790,
      "لىمى": 1791,
      "▁بولمايدۇ،": 1792,
      "▁قىلىدۇ.": 1793,
      "▁ھەمراھ": 1794,
      "▁ئىقتىسا": 1795,
      "▁قانچە": 1796,
      "▁دۆلىتىمىز": 1797,
      "▁رونالدو": 1798,
      "دىيە": 1799,
      "▁\"شۇ": 1800,
      "▁كوماندا": 1801,
      "▁تىل": 1802,
      "گىچە": 1803,
      "▁ئاك": 1804,
      "▁بەز": 1805,
      "▁ئېگىز": 1806,
      "▁كەسپىي": 1807,
      "▁ۋەزى": 1808,
      "▁نەپ": 1809,
      "ۇلتۇ": 1810,
      "بار": 1811,
      "▁يۆت": 1812,
      "▁كۆك": 1813,
      "▁دەۋ": 1814,
      "▁بوي": 1815,
      "مەسلىك": 1816,
      "▁قىلغان.": 1817,
      "▁13": 1818,
      "▁رەڭلىك": 1819,
      "ەۋۋ": 1820,
      "▁ئۇخ": 1821,
      "▁ئالامەت": 1822,
      "▁ناچار": 1823,
      "▁ئىدى.": 1824,
      "▁خانلىق": 1825,
      "تون": 1826,
      "▁مۇشۇ": 1827,
      "▁كۆرسەت": 1828,
      "▁بېسىم": 1829,
      "▁بىللە": 1830,
      "▁مەكتەپ": 1831,
      "▁ئوتتۇرى": 1832,
      "▁ئاتا-ئ": 1833,
      "ددىي": 1834,
      "▁ۋاقتىدا": 1835,
      "مانىيە": 1836,
      "▁\"توۋ": 1837,
      "▁پەرق": 1838,
      "▁باھا": 1839,
      "شەن": 1840,
      "▁14": 1841,
      "▁كېتىش": 1842,
      "▁16": 1843,
      "ىلا": 1844,
      "▁كۆزى": 1845,
      "▁تارتى": 1846,
      "تياۋ": 1847,
      "▁چۈشىنى": 1848,
      "▁قېلىش": 1849,
      "on": 1850,
      "▁ئۇزاق": 1851,
      "الىيە": 1852,
      "▁قايتىپ": 1853,
      "▁مات": 1854,
      "▁تىياتىر": 1855,
      "▁قالماي،": 1856,
      "▁ئىشى": 1857,
      "▁سەر": 1858,
      "▁دەرىجىدە": 1859,
      "▁مانچېستېر": 1860,
      "دارلىق": 1861,
      "ورا": 1862,
      "▁ھېچقانداق": 1863,
      "▁سەن": 1864,
      "▁سانت": 1865,
      "▁بېر": 1866,
      "▁ئۆگىنى": 1867,
      "-يىللىق": 1868,
      "▁ئېنېرگىيە": 1869,
      "▁مەۋج": 1870,
      "دۇ؟": 1871,
      "▁ئىچىدىكى": 1872,
      "▁يىللىق": 1873,
      "▁\"ئە": 1874,
      "▁ئوز": 1875,
      "▁ئاساسەن": 1876,
      "▁ئوين": 1877,
      "▁ئادەتتىكى": 1878,
      "▁يۇلتۇ": 1879,
      "▁نامايان": 1880,
      "▁ئۆتكەن": 1881,
      "ېيە": 1882,
      "▁چىڭ": 1883,
      "ەملىك": 1884,
      "ھەرى": 1885,
      "▁\"توۋتياۋ": 1886,
      "an": 1887,
      "▁ئەزا": 1888,
      "▁مەيلى": 1889,
      "خت": 1890,
      "▁نا": 1891,
      "▁ئالاقە": 1892,
      "بلە": 1893,
      "▁خاراكتېرلىك": 1894,
      "▁تەخمىنەن": 1895,
      "ۋو": 1896,
      "چىلەر": 1897,
      "سون": 1898,
      "▁شاھ": 1899,
      "سىدىن": 1900,
      "▁ئاپتوموبىلى": 1901,
      "▁تېم": 1902,
      "لىكىگە": 1903,
      "ماسلىقى": 1904,
      "▁شىنجاڭ": 1905,
      "▁18": 1906,
      "▁مۇدد": 1907,
      "▁ئۈست": 1908,
      "لانغاندا،": 1909,
      "لىنىپ،": 1910,
      "▁قەل": 1911,
      "▁شەر": 1912,
      "مىزنى": 1913,
      "رىنىڭ": 1914,
      "▁قاتنىشى": 1915,
      "▁قىلدى،": 1916,
      "▁تەلەپ": 1917,
      "▁\"خ": 1918,
      "نىڭدىن": 1919,
      "ۈملۈك": 1920,
      "مايدۇ،": 1921,
      "▁ئىدى،": 1922,
      "مۇ،": 1923,
      "▁ئاساسىي": 1924,
      "▁بىرلەشمىسىنىڭ": 1925,
      "اھەت": 1926,
      "▁ئايا": 1927,
      "▁توپى": 1928,
      "▁ئىشەن": 1929,
      "دۈرۈش": 1930,
      "دۇرى": 1931,
      "▁چۈشۈپ": 1932,
      "▁ئاخىرقى": 1933,
      "▁مۇۋەپپەقىي": 1934,
      "رې": 1935,
      "تىغا": 1936,
      "▁قاچ": 1937,
      "▁زىيادە": 1938,
      "▁ھەپ": 1939,
      "▁\",": 1940,
      "▁گېرمان": 1941,
      "▁ئالتە": 1942,
      "▁ئەمەل": 1943,
      "▁قەدەم": 1944,
      "ايەت": 1945,
      "▁يوق،": 1946,
      "▁خەت": 1947,
      "لاشتۇرۇش": 1948,
      "ەس": 1949,
      "▁بولغان،": 1950,
      "▁ئاشقا": 1951,
      "▁دەسلەپ": 1952,
      "▁مۇناسىۋەت": 1953,
      "▁سۈرەتكە": 1954,
      "▁بىلەن،": 1955,
      "منى": 1956,
      "▁ۋاقىتتا،": 1957,
      "ايىنى": 1958,
      "▁ئۇسۇل": 1959,
      "▁پارىژ": 1960,
      "▁ھەممە": 1961,
      "▁تىزىم": 1962,
      "ىندى": 1963,
      "▁مۇشۇنداق": 1964,
      "▁كەچۈر": 1965,
      "سەك": 1966,
      "▁\"ج": 1967,
      "▁گەۋ": 1968,
      "▁ھاسى": 1969,
      "▁مەۋجۇت": 1970,
      "▁ئاستا": 1971,
      "▁باغ": 1972,
      "▁مەركى": 1973,
      "كىلىق": 1974,
      "▁مەخ": 1975,
      "شىنىڭ": 1976,
      "»نى": 1977,
      "▁گىر": 1978,
      "▁بار.": 1979,
      "سۇلات": 1980,
      "▁كىيىم": 1981,
      "▁بارغان": 1982,
      "▁ھا": 1983,
      "▁كۈت": 1984,
      "▁30": 1985,
      "مۇر": 1986,
      "▁بولدى،": 1987,
      "▁ئىب": 1988,
      "▁كىشىلىك": 1989,
      "▁يېڭ": 1990,
      "▁ئاساسلانغاندا،": 1991,
      "▁ئوينى": 1992,
      "▁تاشقىرى": 1993,
      "▁بولۇپمۇ": 1994,
      "▁تەشكىل": 1995,
      "ھەرىكەت": 1996,
      "پتار": 1997,
      "است": 1998,
      "ائىن": 1999,
      "انە": 2000,
      "▁تۇغۇل": 2001,
      "▁بولغان.\",": 2002,
      "▁مەھسۇلات": 2003,
      "ېنى": 2004,
      "لەشتۈر": 2005,
      "ورۇن": 2006,
      "▁بارسېلونا": 2007,
      "ۋېن": 2008,
      "انىڭ": 2009,
      "▁گىرىپتار": 2010,
      "▁كىم": 2011,
      "▁پائ": 2012,
      "▁\"5": 2013,
      "▁بەلگىلى": 2014,
      "لىكتە": 2015,
      "▁جۇڭگو": 2016,
      "▁يوش": 2017,
      "زىيە": 2018,
      "▁يۇلتۇز": 2019,
      "▁\"مۇ": 2020,
      "ىلاش": 2021,
      "ايلىق": 2022,
      "▁چىقىش": 2023,
      "رىي": 2024,
      "▁خال": 2025,
      "▁ئانچە": 2026,
      "ۈچ": 2027,
      "▁يەتكۈز": 2028,
      "▁100": 2029,
      "▁قۇياش": 2030,
      "شىدىن": 2031,
      "▁خاتا": 2032,
      "▁قىلغان.\",": 2033,
      "▁\"سى": 2034,
      "▁تونۇش": 2035,
      "دىغىنى": 2036,
      "▁يېيىش": 2037,
      "سىلا": 2038,
      "قۇچ": 2039,
      "▁ئۇن": 2040,
      "سىيات": 2041,
      "▁ئېلېك": 2042,
      "▁يېرى": 2043,
      "تىگە": 2044,
      "▁\"ئەم": 2045,
      "يۇم": 2046,
      "▁زەر": 2047,
      "▁ئالىي": 2048,
      "▁تەرەپنىڭ": 2049,
      "▁رۇسىيە": 2050,
      "گەندە": 2051,
      "ەيدۇ": 2052,
      "▁ئىشلەت": 2053,
      "▁\"ئال": 2054,
      "لەپ،": 2055,
      "▁يەتكەن": 2056,
      "يې": 2057,
      "رام": 2058,
      "بلەغ": 2059,
      "▁ئارزۇ": 2060,
      "▁سىزنى": 2061,
      "▁پۈتۈنلەي": 2062,
      "سۇ": 2063,
      "▁سىزگە": 2064,
      "مىز.": 2065,
      "▁ئاشقازان": 2066,
      "▁e": 2067,
      "▁قاراش": 2068,
      "▁ھاسىل": 2069,
      "▁ھار": 2070,
      "ىيۇن": 2071,
      "تىن،": 2072,
      "▁قىلىنى": 2073,
      "كىز": 2074,
      "▁تېمپېرات": 2075,
      "▁\"4.": 2076,
      "دۇ؟\",": 2077,
      "▁پۇ": 2078,
      "▁ئەسەر": 2079,
      "▁ئىسسىق": 2080,
      "▁ئاتا-ئانى": 2081,
      "▁مەبلەغ": 2082,
      "ىران": 2083,
      "لىشىنى": 2084,
      "▁كۇلۇ": 2085,
      "▁ئۇچۇر": 2086,
      "دىر": 2087,
      "▁روھ": 2088,
      "▁قويۇش": 2089,
      "ئى": 2090,
      "▁خۇددى": 2091,
      "▁نەتىجە": 2092,
      "▁مۇكاپاتى": 2093,
      "▁كۈل": 2094,
      "▁موتور": 2095,
      "سەن": 2096,
      "▁ئالدى،": 2097,
      "▁كۆرۈنۈش": 2098,
      "▁خالى": 2099,
      "▁تۈرى": 2100,
      "▁ماددى": 2101,
      "▁باشقىلارنىڭ": 2102,
      "▁بولىدىغان": 2103,
      "▁ياق": 2104,
      "ىب": 2105,
      "قىغا": 2106,
      "دىم،": 2107,
      "▁خان": 2108,
      "سى،": 2109,
      "شىمىز": 2110,
      "ەكك": 2111,
      "▁تەۋە": 2112,
      "ۋالغان": 2113,
      "بىيە": 2114,
      "▁گۆ": 2115,
      "▁ئاددىي": 2116,
      "▁ئۈنۈمى": 2117,
      "شىگە": 2118,
      "▁مول": 2119,
      "▁\"پ": 2120,
      "▁ھەيدە": 2121,
      "▁ئىپادى": 2122,
      "▁ئىقتىدار": 2123,
      "▁ئاجىز": 2124,
      "بىرى": 2125,
      "▁كۆرۈڭ\",": 2126,
      "▁بۇر": 2127,
      "▁تەڭش": 2128,
      "▁ئىشلەپ": 2129,
      "▁راك": 2130,
      "▁كېلىش": 2131,
      "ۇپ،": 2132,
      "ازىلى": 2133,
      "▁مۇقىم": 2134,
      "▁تاراتقۇ": 2135,
      "▁ھېسسىيات": 2136,
      "▁خېلى": 2137,
      "▁گېرمانىيە": 2138,
      "غۇق": 2139,
      "مەكچى": 2140,
      "▁o": 2141,
      "▁ئۇر": 2142,
      "مىز.\",": 2143,
      "▁سەي": 2144,
      "▁تارىخى": 2145,
      "-ئى": 2146,
      "▁مىقدار": 2147,
      "▁كىشىنى": 2148,
      "سىڭىز،": 2149,
      "ومۇ": 2150,
      "راش": 2151,
      "▁ئاۋاز": 2152,
      "دىكىلەر": 2153,
      "▁ھەققى": 2154,
      "▁مېھمان": 2155,
      "كېت": 2156,
      "▁رەس": 2157,
      "▁پىلان": 2158,
      "▁كام": 2159,
      "تاب": 2160,
      "تەر": 2161,
      "▁17": 2162,
      "ۇقسىز": 2163,
      "▁شەھەر": 2164,
      "▁قەر": 2165,
      "▁ھەيران": 2166,
      "▁قىياپ": 2167,
      "-ن": 2168,
      "ۇز": 2169,
      "▁تەۋ": 2170,
      "مىزنىڭ": 2171,
      "▁تەسىرى": 2172,
      "▁سېلىشتۇر": 2173,
      "▁ياپ": 2174,
      "▁شۇنچە": 2175,
      "قال": 2176,
      "▁يېتەرلىك": 2177,
      "▁بۇل": 2178,
      "كېتبول": 2179,
      "▁توپنى": 2180,
      "▁ئىبارەت": 2181,
      "▁دەي": 2182,
      "▁باشلاپ": 2183,
      "▁تاشقى": 2184,
      "▁پىل": 2185,
      "▁مۇسابىقىسىدە": 2186,
      "▁كاپال": 2187,
      "لاد": 2188,
      "▁كېچى": 2189,
      "لەنگەن،": 2190,
      "ۋود": 2191,
      "▁\"يېقىن": 2192,
      "ىندىستان": 2193,
      "▁جەھەتتىن": 2194,
      "▁قىلىدۇ.\",": 2195,
      "كس": 2196,
      "لىدۇ.": 2197,
      "▁تېگى": 2198,
      "مىگە": 2199,
      "ھال": 2200,
      "سىيا": 2201,
      "▁بازىرى": 2202,
      "خۇم": 2203,
      "▁ئازراق": 2204,
      "▁ساھىب": 2205,
      "▁سەككىز": 2206,
      "▁قىلالاي": 2207,
      "▁ۋاسكېتبول": 2208,
      "رات": 2209,
      "▁ئىشقا": 2210,
      "لىقىنىڭ": 2211,
      "مەيدۇ،": 2212,
      "ايدۇ.": 2213,
      "▁ئون": 2214,
      "▁مەيدانغا": 2215,
      "▁سۈرئىتى": 2216,
      "لىققا": 2217,
      "▁چۈشۈر": 2218,
      "▁ئانى": 2219,
      "▁توختام": 2220,
      "-پ": 2221,
      "▁توق": 2222,
      "▁\"نۇر": 2223,
      "▁بۈگۈن": 2224,
      "▁بېسىپلا": 2225,
      "▁دورا": 2226,
      "سىز،": 2227,
      "er": 2228,
      "جەي": 2229,
      "▁قوللىنى": 2230,
      "▁ماھىر": 2231,
      "▁قۇۋ": 2232,
      "ۇلۇپ": 2233,
      "▁ئوتتۇ": 2234,
      "▁ئوغ": 2235,
      "ھام": 2236,
      "مۇنى": 2237,
      "▁\"بەيدۇ": 2238,
      "غۇز": 2239,
      "ولى": 2240,
      "▁ئۆزىڭىز": 2241,
      "لىقىدىن": 2242,
      "▁سوغۇق": 2243,
      "ەللىك": 2244,
      "▁مائ": 2245,
      "▁سودا": 2246,
      "▁تەبىئىي": 2247,
      "▁ئوزۇقلۇق": 2248,
      "لىۋود": 2249,
      "▁مەلۇمات": 2250,
      "مايدىغان": 2251,
      "تاق": 2252,
      "ونىيە": 2253,
      "▁25": 2254,
      "▁-": 2255,
      "▁ياللۇغى": 2256,
      "▁قىممىتى": 2257,
      "▁دېدى:": 2258,
      "▁جەڭ": 2259,
      "مىدى،": 2260,
      "▁مۇدا": 2261,
      "▁سىرتقى": 2262,
      "▁جىددىي": 2263,
      "خېن": 2264,
      "▁سىزى": 2265,
      "▁ئەگىشىپ،": 2266,
      "▁پەن": 2267,
      "▁بارغانسېرى": 2268,
      "▁يەك": 2269,
      "▁رولىنى": 2270,
      "انىيە": 2271,
      "لاق": 2272,
      "▁تۇغ": 2273,
      "▁ماڭا": 2274,
      "▁ئۇت": 2275,
      "▁ساپ": 2276,
      "▁مىلان": 2277,
      "لىشىپ،": 2278,
      "كىم": 2279,
      "▁دورى": 2280,
      "▁پال": 2281,
      "▁مۇناسىۋىتى": 2282,
      "▁ۋەقە": 2283,
      "▁توغرىسىدا": 2284,
      "شكە": 2285,
      "▁بات": 2286,
      "▁بولغاندىن": 2287,
      "▁ھۈ": 2288,
      "▁مەسىلە": 2289,
      "▁ئىتتىپ": 2290,
      "اتىرى": 2291,
      "▁پىر": 2292,
      "اپت": 2293,
      "▁تۇيۇقسىز": 2294,
      "شقا": 2295,
      "سىدا": 2296,
      "غۇچىلار": 2297,
      "▁ئۆيى": 2298,
      "▁قىلدى.": 2299,
      "▁كەينى": 2300,
      "▁مۇلا": 2301,
      "▁سۇي": 2302,
      "▁جاڭ": 2303,
      "دۇرۇش": 2304,
      "▁ئېكران": 2305,
      "▁بالا": 2306,
      "كان": 2307,
      "▁تاق": 2308,
      "لەردە": 2309,
      "▁كېلىشى": 2310,
      "▁كوماندىنىڭ": 2311,
      "وي": 2312,
      "لىرىدىن": 2313,
      "لغان": 2314,
      "▁جۇ": 2315,
      "ازا": 2316,
      "بىنى": 2317,
      "▁ئۈستۈن": 2318,
      "بىن": 2319,
      "كىدىن": 2320,
      "لگەن": 2321,
      "▁ئائىلىسى": 2322,
      "▁ئامال": 2323,
      "چيۇ": 2324,
      "ۈندىدار": 2325,
      "ۋات": 2326,
      "▁\"بىر": 2327,
      "▁\"مەن": 2328,
      "▁بۇنى": 2329,
      "ۇك": 2330,
      "لات": 2331,
      "▁جەن": 2332,
      "▁قىلغاندا": 2333,
      "▁كۆل": 2334,
      "▁ساقلاپ": 2335,
      "سۇس": 2336,
      "▁كۆڭلى": 2337,
      "لىرىدا": 2338,
      "-ئايدا": 2339,
      "▁نىش": 2340,
      "▁ئەق": 2341,
      "▁ئىشلەپچى": 2342,
      "▁زەھ": 2343,
      "▁رەسمىي": 2344,
      "▁قىزىق": 2345,
      "ۆر": 2346,
      ".5": 2347,
      "▁بېرىپ،": 2348,
      "▁جەھەتتە،": 2349,
      "▁قىلىنغان": 2350,
      "▁ئائىلە": 2351,
      "▁شىم": 2352,
      "▁ئىنك": 2353,
      "▁\"ئەگەر": 2354,
      "▁ئەمەس.": 2355,
      "▁تەپكەن": 2356,
      "▁قويى": 2357,
      "ېيجىڭ": 2358,
      "▁مىيۇن": 2359,
      "▁يەردە": 2360,
      "مىغا": 2361,
      "سىمان": 2362,
      "▁بولغان.": 2363,
      "ۈشكە": 2364,
      "پىئە": 2365,
      "ىرانسىيە": 2366,
      "▁بىرلىكتە": 2367,
      "▁«ب": 2368,
      "لاشتۇرۇ": 2369,
      "▁شەخسىي": 2370,
      "▁يوشۇرۇن": 2371,
      "▁\"ئۈندىدار": 2372,
      "▁شىركەت": 2373,
      "▁ئېغى": 2374,
      "▁مېسسى": 2375,
      "▁چىش": 2376,
      "▁سالونى": 2377,
      "▁تورداش": 2378,
      "▁مەسئ": 2379,
      "لىق،": 2380,
      "▁قاتناشقان": 2381,
      "▁ئورگان": 2382,
      "▁بىر-ب": 2383,
      "▁مىيۇنخېن": 2384,
      "▁قېرى": 2385,
      "▁ھۈجەي": 2386,
      "▁بېي": 2387,
      "▁خەۋىرىگە": 2388,
      "درو": 2389,
      "▁ئېلى": 2390,
      "تالىيە": 2391,
      "لىقنى": 2392,
      "-خ": 2393,
      "▁\"سىنا": 2394,
      "▁قارىغاندا": 2395,
      "مار": 2396,
      "▁قانۇن": 2397,
      "▁تۇخۇم": 2398,
      "▁سەۋەبىدىن": 2399,
      "▁گېزى": 2400,
      "جرى": 2401,
      "كرائىن": 2402,
      "اسىتە": 2403,
      "لايدۇ،": 2404,
      "▁كوماندىسىنى": 2405,
      "ۋىتى": 2406,
      "چىنچى": 2407,
      "▁ياشلىق": 2408,
      "ئو": 2409,
      "سور": 2410,
      "ئار": 2411,
      "▁ئەسلىگە": 2412,
      "▁ياڭ": 2413,
      "3-يىلى": 2414,
      "▁ئىقتىدارىنى": 2415,
      "▁دېيىش": 2416,
      "▁جەريانىدا": 2417,
      "▁يەتتە": 2418,
      "▁ساقلىنىش": 2419,
      "▁ئىكەن.\",": 2420,
      "▁كېلىدىغان": 2421,
      "▁مېنى": 2422,
      "▁تۆۋەندىكى": 2423,
      "ۋەتكەن": 2424,
      "▁\"دوڭ": 2425,
      "▁كىرگەن": 2426,
      "ومېتىر": 2427,
      "ەۋۋەر": 2428,
      "▁تۇرغان": 2429,
      "▁سالام": 2430,
      "▁مۆل": 2431,
      "▁ئاتى": 2432,
      "تۇس": 2433,
      "▁مۇھىت": 2434,
      "لەندۈرگۈچ": 2435,
      "▁بەردى،": 2436,
      "▁قەھ": 2437,
      "لىدۇ.\",": 2438,
      "▁ئالدىدا": 2439,
      "▁ئاشۇر": 2440,
      "ۈلگەن": 2441,
      "▁بۇرۇنقى": 2442,
      "▁ئۇسلۇ": 2443,
      "دۈرى": 2444,
      "▁باقايلى": 2445,
      "مۇ؟": 2446,
      "▁دۇنيادىكى": 2447,
      "▁ئادەمنى": 2448,
      "▁بەخت": 2449,
      "▁قولى": 2450,
      "چيۇدى": 2451,
      "زەك": 2452,
      "تىما": 2453,
      "▁ھامىلى": 2454,
      "-چ": 2455,
      "▁دىققى": 2456,
      "▁\"دوڭچيۇدى": 2457,
      "ېرىيە": 2458,
      "▁ئاياللارنىڭ": 2459,
      "انغان": 2460,
      "▁مۇنەۋۋەر": 2461,
      "▁تىز": 2462,
      "▁بۇز": 2463,
      "▁يىلدىن": 2464,
      "▁r": 2465,
      "▁ئىدى.\",": 2466,
      "▁مۇداپىئە": 2467,
      "▁چېكى": 2468,
      "▁كېلىدۇ،": 2469,
      "گۈچى": 2470,
      "▁ساھىبخان": 2471,
      "▁مېتىر": 2472,
      "▁كۆپرەك": 2473,
      "ماققا": 2474,
      "▁مۇلازى": 2475,
      "ۇرۇپ،": 2476,
      "▁بان": 2477,
      "▁بولسۇن،": 2478,
      "لۈكسىز": 2479,
      "دام": 2480,
      "سام": 2481,
      "2-يىلى": 2482,
      "▁ھەرگىز": 2483,
      "▁زادى": 2484,
      "▁يوقى": 2485,
      "▁بالدۇر": 2486,
      "▁سۈي": 2487,
      "▁تايىنى": 2488,
      "▁ئاچچى": 2489,
      "▁روھىي": 2490,
      ":1": 2491,
      "قىنىڭ": 2492,
      "▁ھىندىستان": 2493,
      "▁چىراغ": 2494,
      "▁سۈرى": 2495,
      "امىلە": 2496,
      "▁ئويۇن": 2497,
      "ۋىزىيە": 2498,
      "▁تەجرى": 2499,
      "▁\"چ": 2500,
      "ېرا": 2501,
      "▁كەتتى،": 2502,
      "ژىس": 2503,
      "▁ئايرو": 2504,
      "گۈر": 2505,
      "▁ئۈزلۈكسىز": 2506,
      "پتۇ": 2507,
      "▁شار": 2508,
      "▁پېر": 2509,
      "▁ھېك": 2510,
      "▁ئىزدە": 2511,
      "▁قويۇل": 2512,
      "▁21": 2513,
      "▁نەرسى": 2514,
      "▁تومۇر": 2515,
      "▁24": 2516,
      "▁بىۋاسىتە": 2517,
      "▁تامام": 2518,
      "▁قىلدى.\",": 2519,
      "▁دائىرى": 2520,
      "▁گۈل": 2521,
      "تې": 2522,
      "▁پۇلى": 2523,
      "▁تاغ": 2524,
      "▁مېڭ": 2525,
      "▁توپچىلار": 2526,
      "▁شۇڭا،": 2527,
      "-ئورۇن": 2528,
      "لو": 2529,
      "▁كىلومېتىر": 2530,
      "كىر": 2531,
      "▁تەنھەرىكەت": 2532,
      "الار": 2533,
      "▁قۇرۇل": 2534,
      "مېن": 2535,
      "▁ئويلى": 2536,
      "▁ئامىل": 2537,
      "گلىيە": 2538,
      "▁ئۆست": 2539,
      "▁ئالاقى": 2540,
      "▁ياشقا": 2541,
      "▁ماد": 2542,
      "▁ئورۇندا": 2543,
      "▁تۈرلۈك": 2544,
      "▁كۆپىيى": 2545,
      "▁\"بېيجىڭ": 2546,
      "▁باشقۇرۇش": 2547,
      "▁بولمايدۇ.": 2548,
      "▁دەرھال": 2549,
      "▁مۇسابىقىنىڭ": 2550,
      "بۇر": 2551,
      "▁دەسلەپكى": 2552,
      "گن": 2553,
      "شى،": 2554,
      "▁سۈت": 2555,
      "▁\"(": 2556,
      "ەنت": 2557,
      "▁تۇيغۇسى": 2558,
      "▁\"6": 2559,
      "▁رىقا": 2560,
      "▁تەھ": 2561,
      "▁يېتەك": 2562,
      "▁جەنۇ": 2563,
      "▁نەز": 2564,
      "دۈك": 2565,
      "▁بىرلەشمە": 2566,
      "▁\"لې": 2567,
      "▁سۈن": 2568,
      "▁بېزى": 2569,
      "▁قاتار": 2570,
      "▁پىس": 2571,
      "▁ئېغىز": 2572,
      "▁بوۋ": 2573,
      "▁ئالماشتۇرۇش": 2574,
      "ولو": 2575,
      "لىنىڭ": 2576,
      "▁ئاساسلىقى": 2577,
      "▁بىر-بىرى": 2578,
      "كەر": 2579,
      "▁ئىسپات": 2580,
      "▁ئىشلەپچىقىرى": 2581,
      "▁دېر": 2582,
      "نەك": 2583,
      "▁چاچ": 2584,
      "▁ماھارى": 2585,
      "ۋېنتۇس": 2586,
      "ەيلى": 2587,
      "».\",": 2588,
      "لىدى،": 2589,
      "قىلى": 2590,
      "▁ئۆزگەرتىش": 2591,
      "▁(a": 2592,
      "▁قىلىش،": 2593,
      "مىدا": 2594,
      "▁قىسقا": 2595,
      "لۈ": 2596,
      "▁جەريانى": 2597,
      "▁تاي": 2598,
      "▁يور": 2599,
      "▁ئىشلارنى": 2600,
      "▁ئوق": 2601,
      "كو": 2602,
      "شاھ": 2603,
      "▁جىگەر": 2604,
      "▁دەرىجىدىن": 2605,
      "▁50": 2606,
      "▁يۇم": 2607,
      "ۈەن": 2608,
      "تىمائىي": 2609,
      "▁ئىشنى": 2610,
      "▁كۈچىنى": 2611,
      "▁دېگەن:": 2612,
      "▁بۆرەك": 2613,
      "▁بار.\",": 2614,
      "▁ئەۋلاد": 2615,
      "▁ئەقلىي": 2616,
      "▁مەيدانى": 2617,
      "ەرى": 2618,
      "▁نۇقتا": 2619,
      "▁قورساق": 2620,
      "▁كەسىپ": 2621,
      "1-يىلى": 2622,
      "▁يېقىندا": 2623,
      "▁ئۈستىدە": 2624,
      "اند": 2625,
      "ختى": 2626,
      "▁غەر": 2627,
      "▁ھالىتى": 2628,
      "مەيدىغان": 2629,
      "▁چۆ": 2630,
      "▁ئاب": 2631,
      "▁ھەق": 2632,
      "0-يىلى": 2633,
      "شىبىن": 2634,
      "تامىن": 2635,
      "▁پەسلىدە": 2636,
      "▁قەلبى": 2637,
      "ۋار": 2638,
      "▁كەيپىيات": 2639,
      "▁گېزىتى": 2640,
      "▁كۆرسىتىلىشىچە،": 2641,
      "▁جاۋاب": 2642,
      "▁سەھەر": 2643,
      "▁كاپالەتلىك": 2644,
      "كۇل": 2645,
      "▁قويغان": 2646,
      "▁ھاراق": 2647,
      "ەتنى": 2648,
      "▁ئەھمىي": 2649,
      "چەر": 2650,
      "تىپى": 2651,
      "▁ئىشىنى": 2652,
      "-تې": 2653,
      "▁رولى": 2654,
      "▁\"5.": 2655,
      "▁ۋاڭ": 2656,
      "▁گۇم": 2657,
      "▁كۈندە": 2658,
      "▁ھۆكۈم": 2659,
      "▁ئىشلار": 2660,
      "قىپ": 2661,
      "▁دۇچ": 2662,
      "لاشقا": 2663,
      "▁ئۇرۇش": 2664,
      "▁ۋاك": 2665,
      "قىدىن": 2666,
      "ۈگۈنكى": 2667,
      "ۇسى": 2668,
      "شىشى": 2669,
      "▁تاخ": 2670,
      "▁بېن": 2671,
      "▁مال": 2672,
      "مىشە": 2673,
      "▁خوت": 2674,
      "▁يېقىنقى": 2675,
      "▁مەج": 2676,
      "▁كېڭ": 2677,
      "▁تەشۋى": 2678,
      "▁قانچىلىك": 2679,
      "▁ئازاي": 2680,
      "▁بىخەتەرلىك": 2681,
      "▁تاماشىبىن": 2682,
      "▁ئەلۋ": 2683,
      "▁مۇستە": 2684,
      "▁ھەرىكىتى": 2685,
      "▁يېنىك": 2686,
      "با": 2687,
      "▁ئىكەن.": 2688,
      "▁شىمالىي": 2689,
      "▁ئاكتىپ": 2690,
      "اتتى.": 2691,
      "▁مەنبە": 2692,
      "▁جانلىق": 2693,
      "▁سەۋىيە": 2694,
      "امال": 2695,
      "▁رېژىس": 2696,
      "پې": 2697,
      "شۈن": 2698,
      "4-يىلى": 2699,
      "▁ئاشقان": 2700,
      "99": 2701,
      "▁زىي": 2702,
      "▁ئۈستۈنلۈك": 2703,
      "ڭگۈ": 2704,
      "▁چەت": 2705,
      "▁23": 2706,
      "▁دوللىرى": 2707,
      "▁كوماندىسىغا": 2708,
      "لىرىگە": 2709,
      "▁ئىجتىمائىي": 2710,
      "▁يېتىپ": 2711,
      "▁كۆرگەن": 2712,
      "▁ھەمىشە": 2713,
      "مەن.": 2714,
      "▁خو": 2715,
      "»،": 2716,
      "▁ئورتاق": 2717,
      "▁كېلىدۇ.": 2718,
      "▁فىرانسىيە": 2719,
      "▁يۆتكى": 2720,
      "▁ليۇ": 2721,
      "▁پۇرسى": 2722,
      "▁دوختۇرخانى": 2723,
      "▁دەرىجىسى": 2724,
      "▁ئىتالىيە": 2725,
      "▁ئولتۇر": 2726,
      "اشا": 2727,
      "▁كىرىپ": 2728,
      "ېرىي": 2729,
      "ەرنى": 2730,
      "▁قىلغىلى": 2731,
      "▁كول": 2732,
      "▁ئېلېكتىر": 2733,
      "ولوگىيە": 2734,
      "مىقان": 2735,
      "▁ئوخشاشلا": 2736,
      "▁ياپونىيە": 2737,
      "▁كېتىدۇ،": 2738,
      "▁چىقىرىش": 2739,
      "▁\"ق": 2740,
      "▁كەيپىياتى": 2741,
      "اتلىق": 2742,
      "شاق": 2743,
      "اتتى،": 2744,
      "▁ئېيتى": 2745,
      "▁ئاجرى": 2746,
      "▁سۈيدۈك": 2747,
      "▁سالاھ": 2748,
      "▁نەتىجىسى": 2749,
      "▁ئوتتۇرىغا": 2750,
      "▁ئۆم": 2751,
      "تتى،": 2752,
      "كەن،": 2753,
      "▁قارىماققا": 2754,
      "▁ئېھتىياجى": 2755,
      "▁رەھ": 2756,
      "▁\"مە": 2757,
      "كۈل": 2758,
      "دەنى": 2759,
      "▁ئېغىزى": 2760,
      "▁گۇاڭ": 2761,
      "▁مەق": 2762,
      "▁يېتىش": 2763,
      "▁چىقىرىپ،": 2764,
      "▁قېلىشى": 2765,
      "لىككە": 2766,
      "▁قالاي": 2767,
      "▁ئالىم": 2768,
      "كرو": 2769,
      "▁كۇلۇب": 2770,
      "▁قالدى،": 2771,
      "▁كىس": 2772,
      "▁دەرىجىلىكلەر": 2773,
      "▁يامان": 2774,
      "▁سەپلەنگەن،": 2775,
      "▁مۆلچەر": 2776,
      "▁كۆرىدىغان": 2777,
      "تىك": 2778,
      "▁مودا": 2779,
      "▁شۇنى": 2780,
      "▁تىك": 2781,
      "-مىنۇت": 2782,
      "▁سورى": 2783,
      "لىل": 2784,
      "▁كۈچەي": 2785,
      "▁كۆي": 2786,
      "▁پائالى": 2787,
      "▁ئۈنۈملۈك": 2788,
      "▁بازارغا": 2789,
      "ڭلار": 2790,
      "▁نۇقتىسى": 2791,
      "▁\"ئىك": 2792,
      "▁مۇددەت": 2793,
      "گلاند": 2794,
      "▁يېڭىلى": 2795,
      "▁ئۆلچ": 2796,
      "-ئىچ": 2797,
      "ۇنت": 2798,
      "▁چۈشۈرۈش": 2799,
      "▁بايرېن": 2800,
      "▁22": 2801,
      "▁نۆۋەتتە": 2802,
      "▁سېتىلىش": 2803,
      "▁سېتىۋال": 2804,
      "ۋر": 2805,
      "▁بەزىلەر": 2806,
      "شىڭىز": 2807,
      "▁تىلغا": 2808,
      "ھا": 2809,
      "▁سۈپ": 2810,
      "▁ئەتراپىدا": 2811,
      "▁دوستى": 2812,
      "▁تىپتىكى": 2813,
      "مىيە": 2814,
      "شىنا": 2815,
      "▁پىش": 2816,
      "▁پادى": 2817,
      "رۇق": 2818,
      "▁بولدى.": 2819,
      "▁كور": 2820,
      "▁مەدەنى": 2821,
      "ەمم": 2822,
      "▁ئۇزار": 2823,
      "▁ئۇكرائىن": 2824,
      "▁\"لېكىن": 2825,
      "▁پۇرسەت": 2826,
      "▁نومۇ": 2827,
      "تاتى": 2828,
      "▁ئۇيقۇ": 2829,
      "اشقان": 2830,
      "▁يۇۋېنتۇس": 2831,
      "▁ئۆتۈپ": 2832,
      "لىنىدۇ،": 2833,
      "▁پايدىلىق": 2834,
      "يۇت": 2835,
      "لۇقىنى": 2836,
      "▁قوغداش": 2837,
      "▁تا": 2838,
      "▁ئىسپانىيە": 2839,
      "▁كان": 2840,
      "▁تاپش": 2841,
      "▁بىخەتەر": 2842,
      "▁پې": 2843,
      "▁قالايمىقان": 2844,
      "▁نومۇرلۇق": 2845,
      "▁سىيا": 2846,
      "▁باشتىن": 2847,
      "▁ئۈس": 2848,
      "▁ئىنسانلارنىڭ": 2849,
      "جىي": 2850,
      "ەتى": 2851,
      "▁زاپ": 2852,
      "▁ماشىنى": 2853,
      "▁\"ئاپت": 2854,
      "▁كەسپى": 2855,
      "▁قىلماي": 2856,
      "الغان": 2857,
      "▁قارار": 2858,
      "▁زە": 2859,
      "وموبىل": 2860,
      "▁مىقداردا": 2861,
      "ايدۇ.\",": 2862,
      "زىل": 2863,
      "▁سۇيۇق": 2864,
      "يات": 2865,
      "▁سېتىۋېلىش": 2866,
      "▁مۇئامىلە": 2867,
      "▁\"7": 2868,
      "▁ۋىتامىن": 2869,
      "▁ئويلاپ": 2870,
      "سنىڭ": 2871,
      "▁ئايروپ": 2872,
      "▁يەرگە": 2873,
      "▁تەرەپتىن": 2874,
      "تېت": 2875,
      "▁ئايرىم": 2876,
      "▁تەڭشەش": 2877,
      "▁كۆچ": 2878,
      "▁خاتىر": 2879,
      "▁ۋېن": 2880,
      "▁تەييار": 2881,
      "▁دېي": 2882,
      "▁تەركىبىدە": 2883,
      "▁ئېھتىمال": 2884,
      "▁ئۆسۈپ": 2885,
      "▁تارىخ": 2886,
      "قىچە": 2887,
      "▁شال": 2888,
      "▁تىرىش": 2889,
      "in": 2890,
      "▁سۈنئىي": 2891,
      "▁مۇسابىقىسىنىڭ": 2892,
      "▁لىن": 2893,
      "▁ئىقتىدارلىق": 2894,
      "المى": 2895,
      "شلىك": 2896,
      "▁ئەنگلىيە": 2897,
      "باپ": 2898,
      "ۇۋال": 2899,
      "لىمىسى": 2900,
      "▁چۈشكەن": 2901,
      "▁بالىلار": 2902,
      "▁مۇكەمم": 2903,
      "▁ئۇلارنى": 2904,
      "كۈر": 2905,
      "چەك": 2906,
      "▁مېڭە": 2907,
      "▁پىسخى": 2908,
      "يىنى": 2909,
      "▁ھۆر": 2910,
      "▁چىقارغان": 2911,
      "▁دادىسى": 2912,
      "گۇ": 2913,
      "▁مۈش": 2914,
      "▁رېژىسسور": 2915,
      "چۇق": 2916,
      "كەش": 2917,
      "▁ھەرىكەتلەندۈرگۈچ": 2918,
      "ونىڭ": 2919,
      "▁ئېلىشقا": 2920,
      "▁باسقۇچى": 2921,
      "▁قوشۇل": 2922,
      "▁()،": 2923,
      "دىم.": 2924,
      "▁بولمىسا": 2925,
      "▁بىردىن": 2926,
      "▁يېمەكلىكلەرنى": 2927,
      "▁يۇي": 2928,
      "▁مەشىق": 2929,
      "▁بېشى": 2930,
      "▁ئىنسانلار": 2931,
      "▁كۈندىلىك": 2932,
      "اپا": 2933,
      "▁ئۈچەي": 2934,
      "-ئىچمەك": 2935,
      "▁ئىنكاس": 2936,
      "▁سەپلەنگەن": 2937,
      "▁سېرى": 2938,
      "▁ھوقۇ": 2939,
      "لىڭ": 2940,
      "▁كىرگۈزۈپ": 2941,
      "كۇر": 2942,
      "▁تەدرى": 2943,
      "▁ساياھەت": 2944,
      "ەلپ": 2945,
      "گەرچە": 2946,
      "نۇر": 2947,
      "▁قىلالماي": 2948,
      "الغۇ": 2949,
      "▁بېرىدۇ.": 2950,
      "▁قالدۇر": 2951,
      "▁ئارقىلىق،": 2952,
      "▁مەڭگۈ": 2953,
      "▁فى": 2954,
      "يانو": 2955,
      "▁سە": 2956,
      "▁قىممەت": 2957,
      "ەلىي": 2958,
      "▁سا": 2959,
      "▁ماشىنا": 2960,
      "▁خادى": 2961,
      "▁ئۆچ": 2962,
      "▁بولۇپلا": 2963,
      "▁پاراڭ": 2964,
      "▁سور": 2965,
      "▁يۈك": 2966,
      "ۋاس": 2967,
      "▁كىرگۈزگەن": 2968,
      "▁روشەن": 2969,
      "-مىنۇ": 2970,
      "▁ئالقىش": 2971,
      "مون": 2972,
      "▁يالغۇز": 2973,
      "چىلىقى": 2974,
      "▁ۋىرۇس": 2975,
      "ۈشنى": 2976,
      "▁تەرەققى": 2977,
      "▁سوم": 2978,
      "ەلدىن": 2979,
      "▁ئازاب": 2980,
      "▁قىزغىن": 2981,
      "▁دىققىتىنى": 2982,
      "▁تەدرىجىي": 2983,
      "تات": 2984,
      "▁باكت": 2985,
      "▁ئۈچىنچى": 2986,
      "▁قىسى": 2987,
      "▁ئەقىل": 2988,
      "▁تېلېفون": 2989,
      "▁كۆپىن": 2990,
      "-ق": 2991,
      "-ئايلان": 2992,
      "▁يولغا": 2993,
      "مەسلىكى": 2994,
      "▁ئىلگىرىكى": 2995,
      "▁بۇنىڭغا": 2996,
      "▁ئاران": 2997,
      "▁جې": 2998,
      "▁500": 2999,
      "▁دېرەك": 3000,
      "▁بېزەك": 3001,
      "▁كىرىش": 3002,
      "▁يەككە": 3003,
      "تىنا": 3004,
      "▁ئاچچىق": 3005,
      "▁\"ئاد": 3006,
      "▁بېرىدۇ،": 3007,
      "تنىڭ": 3008,
      "بارات": 3009,
      "▁جە": 3010,
      "▁پات": 3011,
      "▁ھېسابلىنىدۇ.": 3012,
      "▁قىلىشىغا": 3013,
      "▁تەرەققىيا": 3014,
      "مىتىنى": 3015,
      "▁گۇرۇپپىسى": 3016,
      "رىمان": 3017,
      "▁تۇتۇش": 3018,
      "▁پايدىسى": 3019,
      "▁ھور": 3020,
      "▁مۇكەممەل": 3021,
      "▁()\",": 3022,
      "▁پەس": 3023,
      "...": 3024,
      "▁پادىشاھ": 3025,
      "▁ئەرلەرنىڭ": 3026,
      "تىھ": 3027,
      "▁سۈرئەتتە": 3028,
      "▁ھېسابلىنىدۇ.\",": 3029,
      "▁سالاھىي": 3030,
      "▁بىن": 3031,
      "▁تىن": 3032,
      "▁ئۆلتۈر": 3033,
      "▁بېيجىڭ": 3034,
      "▁«ي": 3035,
      "تورى": 3036,
      "چانلىق": 3037,
      "▁ئەمدى": 3038,
      "▁ئېھتىياج": 3039,
      "▁غايەت": 3040,
      "▁نەرسە": 3041,
      "▁سۇن": 3042,
      "▁40": 3043,
      "▁دانە": 3044,
      "▁ئەھمىيەت": 3045,
      "داشلىق": 3046,
      "▁ئىشلى": 3047,
      "▁رىقابەت": 3048,
      "مۇش": 3049,
      "9-يىلى": 3050,
      "en": 3051,
      "▁تەق": 3052,
      "8-يىلى": 3053,
      "▁مىكرو": 3054,
      "▁كۆرسىتىش": 3055,
      "▁رەقى": 3056,
      "ۆز": 3057,
      "▁زې": 3058,
      "ستىيانو": 3059,
      "▁باشقىلارغا": 3060,
      "▁خاس": 3061,
      "▁قەۋ": 3062,
      "▁بوشلۇق": 3063,
      "▁كەمچىل": 3064,
      "ماقتا": 3065,
      "▁ئالدىغا": 3066,
      "▁يېمەك-ئىچمەك": 3067,
      "▁ئوكسى": 3068,
      "▁ئەسكەر": 3069,
      "سېن": 3070,
      "▁ئەركىن": 3071,
      "▁جەلپ": 3072,
      "▁تاماشا": 3073,
      "ائى": 3074,
      "ستىر": 3075,
      "▁پارچە": 3076,
      "▁بەلگىلىك": 3077,
      "▁ئايرىلىپ": 3078,
      "50": 3079,
      "▁مەركىزى": 3080,
      "نې": 3081,
      "▁كىتاب": 3082,
      "▁كېسىلىگە": 3083,
      "▁ناز": 3084,
      "▁تېلېۋىزىيە": 3085,
      "▁شاھى": 3086,
      "▁\"ش": 3087,
      "دۇ\",": 3088,
      "▁ئىدارى": 3089,
      "▁بالىلارنىڭ": 3090,
      "لىكىدىن": 3091,
      "لەشكە": 3092,
      "سىز.": 3093,
      "▁مۇۋەپپەقىيەت": 3094,
      "لەردىن": 3095,
      "باپپې": 3096,
      "▁تېپىپ": 3097,
      "▁ھازىرغىچە": 3098,
      "لىقتىن": 3099,
      "▁ساندىكى": 3100,
      "▁«ك": 3101,
      "▁()نىڭ": 3102,
      "▁ھالقى": 3103,
      "▁راست": 3104,
      "▁پىك": 3105,
      "▁قائى": 3106,
      "▁ئەرزىي": 3107,
      "▁نۇسخىسى": 3108,
      "▁ئىتتىپاقى": 3109,
      "خەي": 3110,
      "▁مۇكاپات": 3111,
      "▁ۋېي": 3112,
      "▁ھەمكار": 3113,
      "▁ئەخ": 3114,
      "لەشكەن": 3115,
      "▁پەل": 3116,
      "▁27": 3117,
      "تسىيە": 3118,
      "▁26": 3119,
      "▁مەيدانىدا": 3120,
      "▁بىزگە": 3121,
      "▁ئاخبارات": 3122,
      "▁يۇقۇملىنىش": 3123,
      "ڭەك": 3124,
      "▁مۇسا": 3125,
      "▁بېكىتى": 3126,
      "▁قىياپىتى": 3127,
      "تۈرى": 3128,
      "▁تۇرمۇشتا": 3129,
      "▁بارلىقىنى": 3130,
      "مۇ؟\",": 3131,
      "▁سۆي": 3132,
      "▁سېرىق": 3133,
      "▁قەت": 3134,
      "▁چاي": 3135,
      "كىت": 3136,
      "▁ئېلىن": 3137,
      "سىمۇ،": 3138,
      "▁ئېرىشىش": 3139,
      "ۋاتىدۇ،": 3140,
      "5-يىلى": 3141,
      "ابىل": 3142,
      "▁پور": 3143,
      "▁ئەمەلگە": 3144,
      "▁«ق": 3145,
      "▁ھامان": 3146,
      "▁ساقلى": 3147,
      "▁كېلىدۇ.\",": 3148,
      "لەندۈرۈش": 3149,
      "▁قىلمى": 3150,
      "مەيدۇ.": 3151,
      "▁كومپ": 3152,
      "▁نېر": 3153,
      "نى،": 3154,
      "▁خانى": 3155,
      ")نىڭ": 3156,
      "▁چىقاردى،": 3157,
      "▁ئېنگلاند": 3158,
      "▁\"8": 3159,
      "▁ساۋ": 3160,
      "▁قاتنى": 3161,
      "ar": 3162,
      "▁دېيىشكە": 3163,
      "پار": 3164,
      "ۈشىگە": 3165,
      "▁28": 3166,
      "گىن": 3167,
      "▁ياغ": 3168,
      "▁تېرە": 3169,
      "وماتى": 3170,
      "▁قاتارلىقلارنى": 3171,
      "▁ھەيدەش": 3172,
      "▁ئوڭۇش": 3173,
      "▁كارخانى": 3174,
      "▁ماك": 3175,
      "▁ئۆلۈپ": 3176,
      "نىڭىز": 3177,
      "تەربىيە": 3178,
      "▁سول": 3179,
      "قايسى": 3180,
      "▁جەنۇبىي": 3181,
      ".0": 3182,
      "▁\"ھازىر": 3183,
      "▁بولمايدىغان": 3184,
      "▁ئۇتتۇرۇپ": 3185,
      "▁چېن": 3186,
      "▁دەۋرى": 3187,
      "▁قەتئىي": 3188,
      "امېرى": 3189,
      "▁ئوغۇل": 3190,
      "▁توكلۇق": 3191,
      "▁\"گەرچە": 3192,
      "▁تەرىپىدىن": 3193,
      "▁\"ئۇنىڭدىن": 3194,
      "▁دوك": 3195,
      "ائىتى": 3196,
      "▁بەزىدە": 3197,
      "▁مەش": 3198,
      "▁چىرايلىق": 3199,
      "كارلىق": 3200,
      "▁ئېتىراپ": 3201,
      "لارمۇ": 3202,
      "ۆپ": 3203,
      "▁\"ئەمەلىي": 3204,
      "▁بولمايدۇ.\",": 3205,
      "▁ئۆزگىچە": 3206,
      "▁توققۇز": 3207,
      "▁\"ئۇنىڭ": 3208,
      "▁لايىھەسى": 3209,
      "چىلىرى": 3210,
      "▁چىقتى": 3211,
      "سونا": 3212,
      "ياتقۇ": 3213,
      "ۈي": 3214,
      "▁زۇڭ": 3215,
      "سوناژ": 3216,
      "▁\"ۋ": 3217,
      "فونى": 3218,
      "▁ئۇرۇ": 3219,
      "▁تۈپ": 3220,
      "الايدىغان": 3221,
      "▁قوللىنىل": 3222,
      "▁قاز": 3223,
      "▁يېشى": 3224,
      "استا": 3225,
      "دۇ؛": 3226,
      "▁ئوتتۇرىسىدىكى": 3227,
      "▁ۋۇ": 3228,
      "▁قېتىمقى": 3229,
      "▁ئەج": 3230,
      "▁فىلى": 3231,
      "▁بالىياتقۇ": 3232,
      "▁بېلىق": 3233,
      "كىغا": 3234,
      "▁سېزى": 3235,
      "مىدىن": 3236,
      "▁شوپ": 3237,
      "▁ئارام": 3238,
      "تەن": 3239,
      "▁ئارىلاش": 3240,
      "▁\"201": 3241,
      "در": 3242,
      "تە،": 3243,
      "▁ئالامەتلىرى": 3244,
      "▁%1": 3245,
      "▁تۆۋەندە": 3246,
      "▁رېك": 3247,
      "▁بېرىدۇ.\",": 3248,
      "الاش": 3249,
      "▁نات": 3250,
      "لاندىيە": 3251,
      "▁كۆرەلەي": 3252,
      "▁ئومۇم": 3253,
      "دىن،": 3254,
      "▁قايتۇر": 3255,
      "▁تاللى": 3256,
      "▁پىلانى": 3257,
      "مۇنىتېت": 3258,
      "▁ئەندى": 3259,
      "ولۇق": 3260,
      "▁قۇۋۋىتى": 3261,
      "▁كارتون": 3262,
      "▁توڭ": 3263,
      "▁دىيا": 3264,
      "▁تەد": 3265,
      "لىشىغا": 3266,
      "▁(ئ": 3267,
      "▁تارتىش": 3268,
      "اۋان": 3269,
      "▁ئەزەلدىن": 3270,
      "يىپ": 3271,
      "ئارام": 3272,
      "▁تەنن": 3273,
      "لا،": 3274,
      "▁تېرى": 3275,
      "/20": 3276,
      "ماستىن،": 3277,
      "▁كىرگۈزدى،": 3278,
      "▁كىرگۈزۈپ،": 3279,
      "▁مەزگىلىدە": 3280,
      "▁لېكىن،": 3281,
      "ېرىيال": 3282,
      "▁مۇسكۇل": 3283,
      "▁ئىكەن،": 3284,
      "كۈزى": 3285,
      "▁ئادىمى": 3286,
      "▁چېكىنى": 3287,
      "▁بىئارام": 3288,
      "▁سېتىش": 3289,
      "مۇز": 3290,
      "ومان": 3291,
      "▁ئارىلىقى": 3292,
      "مايدۇ.": 3293,
      "30": 3294,
      "تىمۇ": 3295,
      "-مىنۇتىدا": 3296,
      "▁بىرلەشمىسىدە": 3297,
      "▁ئوۋ": 3298,
      "مىسىنىڭ": 3299,
      "▁بىۋاس": 3300,
      "7-يىلى": 3301,
      "▁مۇزى": 3302,
      "▁سۈرئەت": 3303,
      "▁قالدى.": 3304,
      "-تېخنى": 3305,
      "▁چەتئ": 3306,
      "▁بوۋاق": 3307,
      "ېرنىڭ": 3308,
      "▁تەكلىپ": 3309,
      "▁قەرز": 3310,
      "▁تىپلىق": 3311,
      "▁ھالەتتە": 3312,
      "▁ۋاز": 3313,
      "تتى.": 3314,
      "ىلەرنى": 3315,
      "▁تىلى": 3316,
      "▁بىۋاستە": 3317,
      "▁پېرسوناژ": 3318,
      "▁مۈشۈك": 3319,
      "ۋىس": 3320,
      "▁\"ئاپتوموبىل": 3321,
      "▁تاپقان": 3322,
      "▁ئەتى": 3323,
      "▁سەز": 3324,
      "ارېيە": 3325,
      "▁پىكىر": 3326,
      "▁قارىتا": 3327,
      "▁پۈتكۈل": 3328,
      "▁ھادىسى": 3329,
      "▁ياشانغان": 3330,
      "▁كېتىدۇ.": 3331,
      "▁تەنتەربىيە": 3332,
      "تالى": 3333,
      "▁تاماكا": 3334,
      "▁مەنى": 3335,
      "6-يىلى": 3336,
      "جىتى": 3337,
      "▁چاڭ": 3338,
      "لىنىدىغان": 3339,
      "▁قالىدۇ،": 3340,
      "چىنىڭ": 3341,
      "▁\"يېقىندا": 3342,
      "ەينى": 3343,
      "▁پەسلىدىكى": 3344,
      "▁مۇز": 3345,
      "▁قۇتقۇز": 3346,
      "پۇڭ": 3347,
      "فرى": 3348,
      "▁پەرقى": 3349,
      "▁بەلگىل": 3350,
      "▁سىناق": 3351,
      "▁تەۋسىيە": 3352,
      "▁ياسى": 3353,
      "-دې": 3354,
      "پىك": 3355,
      "▁بېرىشى": 3356,
      "لايدۇ.": 3357,
      "تىلغان": 3358,
      "ۇرا": 3359,
      "▁گەۋدىسى": 3360,
      "▁تاقابىل": 3361,
      "▁ئارقىدىن": 3362,
      "▁گۇرۇپپا": 3363,
      "▁پالۋان": 3364,
      "مىلا": 3365,
      "ونلۇق": 3366,
      "▁چا": 3367,
      "▁چىقىرىدۇ.\",": 3368,
      "▁ئىممۇنىتېت": 3369,
      "سىز.\",": 3370,
      "تىنلا": 3371,
      "▁نەق": 3372,
      "▁بولدى.\",": 3373,
      "لار،": 3374,
      "▁\"6.": 3375,
      "▁كىشىلەرگە": 3376,
      "▁ماق": 3377,
      "سىك": 3378,
      "▁كومپيۇت": 3379,
      "▁قۇيرۇق": 3380,
      "▁كۆپەي": 3381,
      "لىرى،": 3382,
      "▁باسقۇچ": 3383,
      "ېز": 3384,
      "▁مىنى": 3385,
      "▁،": 3386,
      "▁ئاپتوموبىلغا": 3387,
      "نەت": 3388,
      "▁\"مەنبە": 3389,
      "خانا": 3390,
      "▁قالىدۇ.": 3391,
      "▁چىرى": 3392,
      "گىسى": 3393,
      "ېيىن": 3394,
      "مىزگە": 3395,
      "▁بالىنىڭ": 3396,
      "▁ئىقتىسادىي": 3397,
      "▁مۇستەقىل": 3398,
      "▁ئوپېرات": 3399,
      "▁شوپۇر": 3400,
      "▁يادرو": 3401,
      "▁تەڭپۇڭ": 3402,
      "كىگە": 3403,
      "▁سىزىق": 3404,
      "▁زەھەر": 3405,
      "▁گۇرۇ": 3406,
      "يارى": 3407,
      "▁تۇغۇلغان": 3408,
      "▁سىناپ": 3409,
      "▁يىغىنى": 3410,
      "▁بۈگۈنكى": 3411,
      "▁مۇراسى": 3412,
      "قاپ": 3413,
      "▁ھەيز": 3414,
      "▁قىلغاندا،": 3415,
      "▁را": 3416,
      "▁لۇ": 3417,
      "▁چىقىرىدۇ،": 3418,
      "▁تەرەققىيات": 3419,
      "پورت": 3420,
      "شىر": 3421,
      "▁توش": 3422,
      "گېنتىنا": 3423,
      "▁شې": 3424,
      "▁يام": 3425,
      "▁باتارېيە": 3426,
      "اشقا": 3427,
      "▁ماتېرىيال": 3428,
      "▁فون": 3429,
      "▁ھۆرمەت": 3430,
      "تىنچى": 3431,
      "mm": 3432,
      "▁ئەكسى": 3433,
      "جۇ": 3434,
      "▁ئورنىنى": 3435,
      "▁يىغىلى": 3436,
      "▁بۇمۇ": 3437,
      "ھرى": 3438,
      "ساق،": 3439,
      "▁كورېيە": 3440,
      "▁بىرەر": 3441,
      "▁راز": 3442,
      "اتتى.\",": 3443,
      "وز": 3444,
      "پول": 3445,
      "▁«ت": 3446,
      "▁ھۈجەيرى": 3447,
      "▁قەھرىمان": 3448,
      "ڭىز،": 3449,
      "▁ئۇق": 3450,
      "▁ئايروپىلان": 3451,
      "▁ۋىل": 3452,
      "▁پەسىللىك": 3453,
      "▁ئەتراپ": 3454,
      "تىلىق": 3455,
      "▁ئايلىنىپ": 3456,
      "شۆ": 3457,
      "المىغان": 3458,
      "▁قوزغى": 3459,
      "▁پەن-تېخنى": 3460,
      "▁يۆتكىلىش": 3461,
      "▁ئىشىك": 3462,
      "گىر": 3463,
      "▁كەتتى.": 3464,
      "لىقى،": 3465,
      "ېڭشۈن": 3466,
      "▁تەڭشى": 3467,
      "-ئاستا": 3468,
      "▁سەرپ": 3469,
      "▁60": 3470,
      "داپ": 3471,
      "▁قالغان،": 3472,
      "الايدۇ،": 3473,
      "▁تېخنىكىسى": 3474,
      "مىسىنى": 3475,
      "▁رەسىم": 3476,
      "▁ھەش": 3477,
      "▁يەن": 3478,
      "▁چۈشى": 3479,
      "▁ئىنچى": 3480,
      "▁\"كى": 3481,
      "▁«ھ": 3482,
      "▁بايان": 3483,
      "▁قوزغ": 3484,
      "▁كونا": 3485,
      "مىسىمۇ،": 3486,
      "▁تۇرىدىغان": 3487,
      "▁تارتىۋال": 3488,
      "▁0:": 3489,
      "▁گۇرۇپپى": 3490,
      "▁كۆرۈنى": 3491,
      "▁ئەگىشىپ": 3492,
      "دىلا،": 3493,
      "▁\"بە": 3494,
      "▁شىركىتىنىڭ": 3495,
      "▁بولغاندا،": 3496,
      "▁ئاستا-ئاستا": 3497,
      "▁ئايرىل": 3498,
      "▁قويۇ": 3499,
      "▁ئۆمۈر": 3500,
      "مىدىكى": 3501,
      "▁بولدى": 3502,
      "لايدىغان": 3503,
      "▁ياخش": 3504,
      ".2": 3505,
      "لىنىدۇ.": 3506,
      "▁ئەمەس.\",": 3507,
      "▁\"تېڭشۈن": 3508,
      "▁خادىم": 3509,
      "▁مۇسابىقىدىن": 3510,
      "▁تارتىپ": 3511,
      "▁ھەپتە": 3512,
      "▁باقمىغان": 3513,
      "▁\"ھەر": 3514,
      "▁ھېچكىم": 3515,
      "▁كىنونىڭ": 3516,
      "نە": 3517,
      "▁ئادەمگە": 3518,
      "▁جوۋ": 3519,
      "▁يۈەندىن": 3520,
      "لەشنى": 3521,
      "▁ئىقتىدارىغا": 3522,
      "▁\"شۇڭا": 3523,
      "ستر": 3524,
      "▁ئايالى": 3525,
      "غانى": 3526,
      ".3": 3527,
      "يارلىق": 3528,
      ".1": 3529,
      "▁يېزى": 3530,
      "▁تۇرىدۇ،": 3531,
      "▁تۇرمۇشى": 3532,
      "سەك،": 3533,
      "▁خى": 3534,
      "▁چىقىرىپ": 3535,
      "ۋېي": 3536,
      "▁سېلىشتۇرغاندا،": 3537,
      "زىرى": 3538,
      "▁قاپقى": 3539,
      "▁گۇمان": 3540,
      "سىن": 3541,
      "▁چاپ": 3542,
      "▁مەركىزىي": 3543,
      "ۈش،": 3544,
      "▁ئېگىزلىكى": 3545,
      "▁ئاپتوموبىلنى": 3546,
      "▁ئۇرۇق": 3547,
      "▁قايتىدىن": 3548,
      "اۋى": 3549,
      "▁كېتىشى": 3550,
      "▁يىغ": 3551,
      "دۇنيا": 3552,
      "▁سۈم": 3553,
      "▁ماددا": 3554,
      "-ئايرىم": 3555,
      "▁مۇخ": 3556,
      "▁رادى": 3557,
      "▁ئالاھىدى": 3558,
      "▁ئۆزۈم": 3559,
      "▁ئوپېراتسىيە": 3560,
      "ەلمى": 3561,
      "▁\"ف": 3562,
      "▁تىياتىرى": 3563,
      "ەلەر": 3564,
      "▁ئۆلچى": 3565,
      "▁دەم": 3566,
      "▁h": 3567,
      "▁غى": 3568,
      "▁غەلىتە": 3569,
      "▁كەسكىن": 3570,
      "▁يىلدا": 3571,
      "لۇقىغا": 3572,
      "▁نومۇرى": 3573,
      "رىك": 3574,
      "▁شارىنىڭ": 3575,
      "▁ئىشلىتىل": 3576,
      "▁داۋا": 3577,
      "▁ھەرقانداق": 3578,
      "▁ئۇكرائىنا": 3579,
      "▁ئاشى": 3580,
      "▁يوق.": 3581,
      "▁ئاستىدا": 3582,
      "▁ئايرىم-ئايرىم": 3583,
      "شا": 3584,
      "▁خەۋپ": 3585,
      "▁ئۇنت": 3586,
      "ادۇ": 3587,
      "▁مۇلازىمەت": 3588,
      "بىتىنى": 3589,
      "▁ھەزىم": 3590,
      "▁چەم": 3591,
      "▁كەلدى،": 3592,
      "▁سۇپىسى": 3593,
      "▁ئايلىنىش": 3594,
      "اكار": 3595,
      "▁بەرداشلىق": 3596,
      "▁ھاياج": 3597,
      "▁چىقىپ،": 3598,
      "ڭ.": 3599,
      "دىشى": 3600,
      "دۇم": 3601,
      "▁مەجبۇر": 3602,
      "انت": 3603,
      "اڭخەي": 3604,
      "▁كىنوخانى": 3605,
      "▁كۈچىگە": 3606,
      "▁1:": 3607,
      "مىشقا": 3608,
      "كىسىنىڭ": 3609,
      "▁قويۇلى": 3610,
      "▁ئاشۇرۇش": 3611,
      "▁سىم": 3612,
      "▁قالدۇرى": 3613,
      "▁ھەرگىزمۇ": 3614,
      "-س": 3615,
      "▁ئۇخلاش": 3616,
      "دىل": 3617,
      "▁ھاياتلىق": 3618,
      "▁ئەسلىدە": 3619,
      "...\",": 3620,
      "بۇس": 3621,
      "▁بۇلتۇر": 3622,
      "▁يېتىل": 3623,
      "دۇق،": 3624,
      "▁يەنىمۇ": 3625,
      "▁چۈشەندۈر": 3626,
      "▁ئاقسىل": 3627,
      "▁ئۆزگەرت": 3628,
      "وف": 3629,
      "-نومۇر": 3630,
      "▁بۇيۇم": 3631,
      "مىت": 3632,
      "▁سەنئەت": 3633,
      "▁قا": 3634,
      "▁كىسلات": 3635,
      "-م": 3636,
      "▁قانۇنى": 3637,
      "دۇ»": 3638,
      "ڭ.\",": 3639,
      "▁ئاسراش": 3640,
      "▁\"9": 3641,
      "▁ۋىرۇسى": 3642,
      "چانلىقى": 3643,
      "▁جام": 3644,
      "▁نەپەس": 3645,
      "one": 3646,
      "دۇرۇپ": 3647,
      "▁سۆڭەك": 3648,
      "ېتا": 3649,
      "▁ھەشەم": 3650,
      "ورد": 3651,
      "تاتىستى": 3652,
      "▁مەخسۇس": 3653,
      "ئۇ": 3654,
      "كىس": 3655,
      "▁تۆمۈر": 3656,
      "▁ئىچىش": 3657,
      "▁مۇسابىقىسىگە": 3658,
      "▁لايىھ": 3659,
      "دىق": 3660,
      "la": 3661,
      "▁تەمىنلەي": 3662,
      "▁قالدى.\",": 3663,
      "▁مانا": 3664,
      "▁بېسىمى": 3665,
      "▁ئورۇنغا": 3666,
      "▁\"202": 3667,
      "نىشىچە،": 3668,
      "▁بەدەندىكى": 3669,
      "▁خەتەرلىك": 3670,
      "▁بولۇش،": 3671,
      "▁بۇلۇ": 3672,
      "▁سۇغۇر": 3673,
      "▁يۆنى": 3674,
      "▁ئورۇق": 3675,
      "▁ئېغىرلىقى": 3676,
      "▁شامال": 3677,
      "كۈن": 3678,
      "لاشتۇرۇل": 3679,
      "▁جەريان": 3680,
      "▁بېقىش": 3681,
      "▁ئالاقىدار": 3682,
      "كىدىكى": 3683,
      "ادىر": 3684,
      "▁با": 3685,
      "▁u": 3686,
      "يۈ": 3687,
      "▁ئۆستۈر": 3688,
      "زىن": 3689,
      "▁داشۆ": 3690,
      "▁ئىختى": 3691,
      "▁كۆرۈنەرلىك": 3692,
      "▁زۇڭتۇ": 3693,
      "▁29": 3694,
      "▁يازما": 3695,
      "▁تەرتىپى": 3696,
      "▁مېۋە": 3697,
      "▁سودى": 3698,
      "▁تاز": 3699,
      "▁مۇكاپاتىغا": 3700,
      "▁سىنى": 3701,
      "▁راكى": 3702,
      "▁كىسلاتاسى": 3703,
      "▁ئافرى": 3704,
      "▁ئەلۋەتتە": 3705,
      "▁چىقىرىدۇ.": 3706,
      "▁قورقۇن": 3707,
      "▁ئالما": 3708,
      "ۋاتقانلىقىنى": 3709,
      "▁دېگەندەك": 3710,
      "▁مۇۋەپپەقىيەتلىك": 3711,
      "▁بىرگە": 3712,
      "الايدۇ.": 3713,
      "▁دىن": 3714,
      "▁بولمىسا،": 3715,
      "▁ماھارىتى": 3716,
      "▁ئاخىرلاشقان": 3717,
      "ېنىڭ": 3718,
      "▁باشلان": 3719,
      "▁مەلۇماتى": 3720,
      "▁جان": 3721,
      "▁سېلىن": 3722,
      "▁بۇيان،": 3723,
      "▁چىرايى": 3724,
      "چىنى": 3725,
      "▁تەييارلىق": 3726,
      ".8": 3727,
      "▁موم": 3728,
      "▁يانفونى": 3729,
      "▁ئانا": 3730,
      "▁گۆش": 3731,
      "▁كامېرا": 3732,
      "▁تېگىشلىك": 3733,
      "▁خىي": 3734,
      "▁نۆۋەتلىك": 3735,
      "؛\",": 3736,
      "ازىلىيە": 3737,
      "▁يىغى": 3738,
      "▁سۈرەتلىرىنى": 3739,
      "تان": 3740,
      "▁پاكى": 3741,
      "▁كارى": 3742,
      "▁ئۇلارغا": 3743,
      "ەككەپ": 3744,
      "مىغان،": 3745,
      "▁دىيۇم": 3746,
      "▁بېقى": 3747,
      "ra": 3748,
      "▁ro": 3749,
      "▁ئوبرا": 3750,
      "-كۈنى،": 3751,
      "لىسى": 3752,
      "▁ھەرقايسى": 3753,
      "ۋالىنى": 3754,
      "-ئار": 3755,
      "ولار": 3756,
      "▁ئۈسكۈنى": 3757,
      "▁«م": 3758,
      "▁تىرېن": 3759,
      "▁قۇش": 3760,
      "▁غىدىق": 3761,
      "كىسىنى": 3762,
      "▁«س": 3763,
      "▁نار": 3764,
      "▁ئەھۋالىنى": 3765,
      "▁كۆتۈرۈل": 3766,
      "▁ساھەسىدىكى": 3767,
      "▁مۇھىتى": 3768,
      "▁بولۇشنى": 3769,
      "▁تالى": 3770,
      "▁چېل": 3771,
      "ساس": 3772,
      "▁ئوقۇش": 3773,
      "رىتى": 3774,
      ":00": 3775,
      "خىل": 3776,
      "▁\"\",": 3777,
      "▁مېس": 3778,
      "دېل": 3779,
      "▁تاۋ": 3780,
      "الىتەن": 3781,
      "-ئايلانمىسى": 3782,
      ".4": 3783,
      "▁\"مۇسابى": 3784,
      "▁بىلمەي": 3785,
      "▁تەشكىلاتى": 3786,
      ".6": 3787,
      "ۇتو": 3788,
      "▁ئەھۋالدا": 3789,
      "▁گېزىتى»نىڭ": 3790,
      "▁قويۇلغان": 3791,
      "▁ۋار": 3792,
      "گەندە،": 3793,
      "▁\"يۇ": 3794,
      "▁بايرى": 3795,
      "▁مۇرەككەپ": 3796,
      "▁ئىنچىكە": 3797,
      "▁گاز": 3798,
      "▁كۆرۈنۈشى": 3799,
      "▁قويۇپ،": 3800,
      "تۇگ": 3801,
      "▁باكتېرىيە": 3802,
      "وماتىك": 3803,
      "▁جۈپ": 3804,
      "▁ياس": 3805,
      "▁تەم": 3806,
      "▁بولغىنى": 3807,
      "امېرىكا": 3808,
      "▁تېزلا": 3809,
      "▁\"ر": 3810,
      "▁\"ئا": 3811,
      "شىل": 3812,
      "▁ئۆپ": 3813,
      "▁بارلىققا": 3814,
      "▁تورىدا": 3815,
      "▁ئامېرىكىنىڭ": 3816,
      "▁قەي": 3817,
      "▁سالاھىيىتى": 3818,
      "خىم": 3819,
      "▁يۇمشاق": 3820,
      "▁تىنچ": 3821,
      "▁كەلگۈسى": 3822,
      "▁جون": 3823,
      "▁زامان": 3824,
      "▁باققان": 3825,
      "▁پوزى": 3826,
      "قار": 3827,
      "▁تەشەب": 3828,
      "كىدا": 3829,
      "▁سوۋ": 3830,
      "لىدى.": 3831,
      "▁مەزگىلدىكى": 3832,
      "▁تارىخىدىكى": 3833,
      "▁بىردىنبىر": 3834,
      "▁چەكلەنگەن": 3835,
      "▁جاپا": 3836,
      "-مىنۇتتا،": 3837,
      "▁ۋاكالىتەن": 3838,
      "▁31": 3839,
      "▁ئېچىش": 3840,
      "▁زەخىم": 3841,
      "▁300": 3842,
      "▁بولۇشىنى": 3843,
      "▁خىزمىتى": 3844,
      "▁«مەن": 3845,
      "ۈزلۈك": 3846,
      "▁قىلغاندىن": 3847,
      "▁ئۇسلۇبى": 3848,
      "▁بوغ": 3849,
      "▁ئىمتىھ": 3850,
      "ri": 3851,
      "▁تايىنىپ": 3852,
      "▁پارا": 3853,
      "▁ئۆڭ": 3854,
      "▁ئېرىشى": 3855,
      "▁يەپ": 3856,
      "انا": 3857,
      "سەم": 3858,
      "el": 3859,
      "▁ئارگېنتىنا": 3860,
      "▁سىرتقا": 3861,
      "سىزلىق": 3862,
      "▁جىڭ": 3863,
      "▁ئېلېمېن": 3864,
      "▁تەرەپكە": 3865,
      "▁\"بۇنىڭدىن": 3866,
      "▁تېپىش": 3867,
      "▁«پ": 3868,
      "▁ھامىلىدار": 3869,
      "▁قالغان.": 3870,
      "▁قوللىنىلغان،": 3871,
      "▁ناخش": 3872,
      "▁سالامەتلىك": 3873,
      "▁ئادەت": 3874,
      "▁\"نۇرغۇن": 3875,
      "▁ناخشى": 3876,
      "▁توختىتىش": 3877,
      "سى:": 3878,
      "▁نىشانى": 3879,
      "▁قالغان.\",": 3880,
      "▁تېخنىكا": 3881,
      "▁ياسال": 3882,
      "▁چىقىرىشى": 3883,
      "▁كېلەر": 3884,
      "▁خىلاپ": 3885,
      "جان": 3886,
      "▁بارى": 3887,
      "ۋېرپول": 3888,
      "ۈرئەت": 3889,
      "▁مارس": 3890,
      "لىرىمۇ": 3891,
      "▁زۆر": 3892,
      ".7": 3893,
      "لىنىدۇ.\",": 3894,
      "▁سەۋەبلىك": 3895,
      "قىدا": 3896,
      "▁چارەك": 3897,
      "گىت": 3898,
      "▁كۈنلۈك": 3899,
      "▁ھاياجان": 3900,
      "مىدە": 3901,
      "▁كىنودا": 3902,
      "▁تورمۇز": 3903,
      "دېن": 3904,
      "تۇگالىيە": 3905,
      "غاق": 3906,
      "▁ئاغرىق": 3907,
      "لايدۇ.\",": 3908,
      "فىت": 3909,
      "دىنىڭ": 3910,
      "▁تيەن": 3911,
      "▁زاپاس": 3912,
      "▁ئەۋز": 3913,
      "ۇلۇپ،": 3914,
      "▁ھاجىتى": 3915,
      "▁مۈ": 3916,
      "▁خاۋ": 3917,
      "▁199": 3918,
      "خور": 3919,
      "▁ئۆگىنىش": 3920,
      "▁تەلى": 3921,
      "▁ياشى": 3922,
      "▁جياڭ": 3923,
      "ۇلىنى": 3924,
      "▁يۈرى": 3925,
      "لاردىكى": 3926,
      "▁مەزگىلدە": 3927,
      "قات": 3928,
      "▁بەكلا": 3929,
      "▁تەشەببۇس": 3930,
      "▁يەڭ": 3931,
      "گېر": 3932,
      "▁ئىگىل": 3933,
      "▁كېسىلىنىڭ": 3934,
      "▁پايدىلىنىپ": 3935,
      "رىپ": 3936,
      "▁قىزىقى": 3937,
      "▁ھالەت": 3938,
      "▁زىچ": 3939,
      "-ئورۇندا": 3940,
      "▁ئېكر": 3941,
      "الايدۇ.\",": 3942,
      "▁800": 3943,
      "ەكىل": 3944,
      "لىشىدۇ،": 3945,
      "▁كېڭەي": 3946,
      "▁كات": 3947,
      "لىمە": 3948,
      "▁تەگ": 3949,
      "▁ھېكايى": 3950,
      "▁ماددىلار": 3951,
      "▁ئايلانما": 3952,
      "▁مەسىلىسى": 3953,
      "دەل": 3954,
      "▁ئىمز": 3955,
      "▁تولغان": 3956,
      "▁سېك": 3957,
      "▁ئىشلەپچىقىرىش": 3958,
      "يىتىنى": 3959,
      "▁قېچى": 3960,
      "چۇ": 3961,
      "▁خە": 3962,
      "▁يىللاردىن": 3963,
      "▁ئاشۇ": 3964,
      "▁رازم": 3965,
      "▁فران": 3966,
      "▁\"ئۆ": 3967,
      "لىشىشى": 3968,
      "زم": 3969,
      "لىكىدە": 3970,
      "▁ئاۋا": 3971,
      "كۈچى": 3972,
      "▁ئىسمى": 3973,
      "ياۋنىڭ": 3974,
      "▁ئاسمان": 3975,
      "▁ئىقتىساد": 3976,
      "▁ژ": 3977,
      "تىدىكى": 3978,
      "▁يۈرۈشلۈك": 3979,
      "چكە": 3980,
      "▁تەرجىمىسى\",": 3981,
      "▁كەتكەن،": 3982,
      "تېر": 3983,
      "▁يامغۇر": 3984,
      "▁\"7.": 3985,
      "▁ئىلمىي": 3986,
      "جىن": 3987,
      "▁ئەھۋالغا": 3988,
      "وگرام": 3989,
      "▁مالىيە": 3990,
      "▁بېرىشنى": 3991,
      "▁\"«ئ": 3992,
      "▁پون": 3993,
      "▁ئېرىشكەن،": 3994,
      "بو": 3995,
      "▁تېنى": 3996,
      "▁بۇي": 3997,
      "▁ھەربىي": 3998,
      "كې": 3999,
      "▁يولۇق": 4000,
      "▁بەدەننىڭ": 4001,
      "▁قىيىنچىلىق": 4002,
      "▁تۆۋەنلىتى": 4003,
      "▁نېمىشقا": 4004,
      "دىغانلىقىنى،": 4005,
      "▁خام": 4006,
      "▁تەجرىبى": 4007,
      "ارە": 4008,
      "▁ھورمۇن": 4009,
      "▁ئۇچرايدىغان": 4010,
      "▁توغرىسىدىكى": 4011,
      "▁ئوچۇق": 4012,
      "لوڭ": 4013,
      "▁ئۈستۈنلۈكنى": 4014,
      "ايە": 4015,
      "گەك": 4016,
      "▁زاۋ": 4017,
      "▁قىلدۇر": 4018,
      "▁قوزغىلى": 4019,
      "▁چىن": 4020,
      "▁يات": 4021,
      "دىت": 4022,
      "▁مۇسابىق": 4023,
      "▁بىرلا": 4024,
      "▁ئىستى": 4025,
      "▁كېتىدۇ.\",": 4026,
      "قىدىكى": 4027,
      "▁ئاياغ": 4028,
      "▁ئۈل": 4029,
      "لىمپىك": 4030,
      "▁تەننەر": 4031,
      "▁كەلگۈسىدە": 4032,
      "▁پارتى": 4033,
      "▁سىستېمىسىنىڭ": 4034,
      "▁كرى": 4035,
      "▁توپىنى": 4036,
      "▁ئەكسىچە": 4037,
      "ەپ،": 4038,
      "▁كۆپچىلىكنىڭ": 4039,
      "▁كەلگەندە": 4040,
      "▁نۇرى": 4041,
      "ەيلەن": 4042,
      "دەپ": 4043,
      "نىمۇ": 4044,
      "▁جەھەتتىكى": 4045,
      "▁تۇرۇپ،": 4046,
      "▁بولۇشقا": 4047,
      "▁توپچىسى": 4048,
      "▁نۇسخىدىكى": 4049,
      "ئەنى": 4050,
      "قىلار": 4051,
      "or": 4052,
      "▁نەزەر": 4053,
      "▁ئۆزىڭىزنى": 4054,
      "▁ئوڭۇشلۇق": 4055,
      "ۋېل": 4056,
      "▁نىشان": 4057,
      "▁غەل": 4058,
      "80": 4059,
      "▁ساندۇ": 4060,
      "▁قاتنىشىش": 4061,
      "▁شاڭخەي": 4062,
      "▁جامېس": 4063,
      "ىلىرى": 4064,
      "▁قۇرۇق": 4065,
      "ۇمچە": 4066,
      "▁پەيت": 4067,
      "▁ئېھتىماللىقى": 4068,
      "▁دېدى": 4069,
      "▁چىراي": 4070,
      "▁ھەشەمەتلىك": 4071,
      "▁ھېسسىيا": 4072,
      "▁پول": 4073,
      "سى»": 4074,
      "▁كۆكتات": 4075,
      "▁ناخشا": 4076,
      "-1": 4077,
      "▁توختىماي": 4078,
      "▁ئالماشتۇر": 4079,
      "يەرنى": 4080,
      "فى": 4081,
      "▁ۋەكىل": 4082,
      "▁ياشتىن": 4083,
      "▁قولايلىق": 4084,
      "▁ئىگە،": 4085,
      "ېد": 4086,
      "لىنىشقا": 4087,
      "▁قالماستىن،": 4088,
      "▁ياخشى،": 4089,
      "▁يىغىن": 4090,
      "▁كۆرۈلىدۇ،": 4091,
      "▁لازىم": 4092,
      "▁گۇرۇھى": 4093,
      "▁تەدبىر": 4094,
      "▁يەتكۈزى": 4095
    },
    "merges": [
      [
        "▁",
        "ئ"
      ],
      [
        "ل",
        "ى"
      ],
      [
        "ن",
        "ى"
      ],
      [
        "▁",
        "ب"
      ],
      [
        "ا",
        "ن"
      ],
      [
        "▁",
        "ت"
      ],
      [
        "د",
        "ى"
      ],
      [
        "ر",
        "ى"
      ],
      [
        "▁",
        "ق"
      ],
      [
        "▁",
        "ك"
      ],
      [
        "س",
        "ى"
      ],
      [
        "ت",
        "ى"
      ],
      [
        "ا",
        "ر"
      ],
      [
        "▁",
        "ي"
      ],
      [
        "▁",
        "م"
      ],
      [
        "ە",
        "ن"
      ],
      [
        "نى",
        "ڭ"
      ],
      [
        "ى",
        "ل"
      ],
      [
        "▁ئ",
        "ا"
      ],
      [
        "ك",
        "ى"
      ],
      [
        "ە",
        "ر"
      ],
      [
        "ق",
        "ى"
      ],
      [
        "د",
        "ا"
      ],
      [
        "و",
        "ل"
      ],
      [
        "ە",
        "ت"
      ],
      [
        "ش",
        "ى"
      ],
      [
        "غ",
        "ان"
      ],
      [
        "م",
        "ى"
      ],
      [
        "ا",
        "ي"
      ],
      [
        "▁",
        "\""
      ],
      [
        "▁ئ",
        "ى"
      ],
      [
        "\"",
        ","
      ],
      [
        "ۇ",
        "ر"
      ],
      [
        "▁",
        "س"
      ],
      [
        "د",
        "ە"
      ],
      [
        "ا",
        "ل"
      ],
      [
        "▁",
        "ھ"
      ],
      [
        "د",
        "ۇ"
      ],
      [
        "ى",
        "ر"
      ],
      [
        "چ",
        "ى"
      ],
      [
        "▁ب",
        "ول"
      ],
      [
        "ى",
        "لى"
      ],
      [
        "▁ئ",
        "ۇ"
      ],
      [
        "ا",
        "ش"
      ],
      [
        "لى",
        "ق"
      ],
      [
        "▁",
        "ن"
      ],
      [
        "▁",
        "پ"
      ],
      [
        "غ",
        "ا"
      ],
      [
        "▁ئ",
        "ە"
      ],
      [
        "دى",
        "ن"
      ],
      [
        ".",
        "\","
      ],
      [
        "ل",
        "ار"
      ],
      [
        "▁م",
        "ۇ"
      ],
      [
        "▁ت",
        "و"
      ],
      [
        "▁",
        "ۋ"
      ],
      [
        "ا",
        "ت"
      ],
      [
        "گ",
        "ە"
      ],
      [
        "ز",
        "ى"
      ],
      [
        "▁",
        "چ"
      ],
      [
        "▁ئ",
        "ې"
      ],
      [
        "▁",
        "خ"
      ],
      [
        "ە",
        "ل"
      ],
      [
        "ە",
        "ي"
      ],
      [
        "▁ك",
        "ۆ"
      ],
      [
        "م",
        "ۇ"
      ],
      [
        "▁ك",
        "ې"
      ],
      [
        "ە",
        "ك"
      ],
      [
        "ل",
        "ا"
      ],
      [
        "▁ب",
        "ىر"
      ],
      [
        "▁ب",
        "ۇ"
      ],
      [
        "▁ئ",
        "و"
      ],
      [
        "▁ئ",
        "ۆ"
      ],
      [
        "س",
        "ا"
      ],
      [
        "پ",
        "،"
      ],
      [
        "لى",
        "ك"
      ],
      [
        "ۈ",
        "ر"
      ],
      [
        "ۇ",
        "ن"
      ],
      [
        "ا",
        "ق"
      ],
      [
        "▁",
        "ش"
      ],
      [
        "ى",
        "ن"
      ],
      [
        "▁ب",
        "ىل"
      ],
      [
        "ى",
        "رى"
      ],
      [
        "▁",
        "ج"
      ],
      [
        "ق",
        "ا"
      ],
      [
        "و",
        "م"
      ],
      [
        "▁ق",
        "ىلى"
      ],
      [
        "ى",
        "ي"
      ],
      [
        "گ",
        "ەن"
      ],
      [
        "ت",
        "ا"
      ],
      [
        "▁",
        "د"
      ],
      [
        "▁بول",
        "ۇ"
      ],
      [
        "ى",
        "ز"
      ],
      [
        "دى",
        "كى"
      ],
      [
        "ۇ",
        "ق"
      ],
      [
        "▁ي",
        "ا"
      ],
      [
        "▁بىل",
        "ەن"
      ],
      [
        "ۈ",
        "ن"
      ],
      [
        "▁",
        "ر"
      ],
      [
        "▁ي",
        "ې"
      ],
      [
        "ب",
        "ى"
      ],
      [
        "▁ۋ",
        "ە"
      ],
      [
        "و",
        "ن"
      ],
      [
        "ا",
        "م"
      ],
      [
        "ە",
        "م"
      ],
      [
        "▁ت",
        "ە"
      ],
      [
        "چ",
        "ە"
      ],
      [
        "دۇ",
        "،"
      ],
      [
        "لى",
        "رى"
      ],
      [
        "▁ب",
        "ې"
      ],
      [
        "ۇ",
        "ل"
      ],
      [
        "▁ق",
        "و"
      ],
      [
        "▁ئا",
        "ل"
      ],
      [
        "▁م",
        "ە"
      ],
      [
        "▁ب",
        "و"
      ],
      [
        "ا",
        "پ"
      ],
      [
        "ج",
        "ى"
      ],
      [
        "ە",
        "پ"
      ],
      [
        "ۈ",
        "ش"
      ],
      [
        "مى",
        "سى"
      ],
      [
        "ي",
        "ا"
      ],
      [
        "▁ق",
        "ىل"
      ],
      [
        "▁ت",
        "ې"
      ],
      [
        "ك",
        "ەن"
      ],
      [
        "ق",
        "ان"
      ],
      [
        "ت",
        "ە"
      ],
      [
        "▁",
        "گ"
      ],
      [
        "دى",
        "غان"
      ],
      [
        "لى",
        "قى"
      ],
      [
        "ا",
        "ھ"
      ],
      [
        "▁",
        "سى"
      ],
      [
        "لى",
        "نى"
      ],
      [
        "▁ئ",
        "ۈ"
      ],
      [
        "ل",
        "ەر"
      ],
      [
        "ې",
        "تى"
      ],
      [
        "ا",
        "س"
      ],
      [
        "▁",
        "چى"
      ],
      [
        "ۇر",
        "ۇ"
      ],
      [
        "▁كۆ",
        "ر"
      ],
      [
        "دۇ",
        "."
      ],
      [
        "▁",
        "1"
      ],
      [
        "ې",
        "ر"
      ],
      [
        "▁ت",
        "ەر"
      ],
      [
        "ە",
        "ۋ"
      ],
      [
        "كى",
        "ن"
      ],
      [
        "م",
        "ە"
      ],
      [
        "ا",
        "رى"
      ],
      [
        "▁ب",
        "اش"
      ],
      [
        "و",
        "ر"
      ],
      [
        "ي",
        "ە"
      ],
      [
        "ا",
        "لى"
      ],
      [
        "دا",
        "ق"
      ],
      [
        "▁",
        "ل"
      ],
      [
        "▁",
        "دە"
      ],
      [
        "ە",
        "ش"
      ],
      [
        "پ",
        "ى"
      ],
      [
        "▁",
        "«"
      ],
      [
        "▁ئى",
        "ش"
      ],
      [
        "تى",
        "ن"
      ],
      [
        "▁\"",
        "ئ"
      ],
      [
        "ك",
        "ە"
      ],
      [
        "لى",
        "شى"
      ],
      [
        "دۇ",
        ".\","
      ],
      [
        "▁",
        "2"
      ],
      [
        "▁تو",
        "رى"
      ],
      [
        "و",
        "ڭ"
      ],
      [
        "ۇ",
        "م"
      ],
      [
        "سا",
        "بى"
      ],
      [
        "▁ك",
        "ى"
      ],
      [
        "قى",
        "رى"
      ],
      [
        "▁بول",
        "غان"
      ],
      [
        "▁مۇ",
        "سابى"
      ],
      [
        "ا",
        "ز"
      ],
      [
        "▁بولۇ",
        "پ،"
      ],
      [
        "▁ئا",
        "ي"
      ],
      [
        "ل",
        "ان"
      ],
      [
        "▁ئۇ",
        "نىڭ"
      ],
      [
        "ۈ",
        "ز"
      ],
      [
        "ل",
        "اش"
      ],
      [
        "▁بو",
        "لى"
      ],
      [
        "ۈ",
        "پ"
      ],
      [
        "دى",
        "سى"
      ],
      [
        "ي",
        "ى"
      ],
      [
        "س",
        "ت"
      ],
      [
        "دە",
        "م"
      ],
      [
        "▁ك",
        "ۈ"
      ],
      [
        "دى",
        "،"
      ],
      [
        "▁ئ",
        "ار"
      ],
      [
        "▁ق",
        "ات"
      ],
      [
        "▁ب",
        "ار"
      ],
      [
        "م",
        "اي"
      ],
      [
        "-",
        "ئ"
      ],
      [
        "▁ق",
        "ال"
      ],
      [
        "م",
        "ا"
      ],
      [
        "▁ن",
        "ۇر"
      ],
      [
        "▁",
        "دا"
      ],
      [
        "ې",
        "ن"
      ],
      [
        "▁د",
        "ې"
      ],
      [
        "▁تو",
        "پ"
      ],
      [
        "▁",
        "("
      ],
      [
        "ي",
        "ىن"
      ],
      [
        "ۇ",
        "ت"
      ],
      [
        "ل",
        "ۇق"
      ],
      [
        "ۈ",
        "ك"
      ],
      [
        "مى",
        "ز"
      ],
      [
        "▁ك",
        "وم"
      ],
      [
        "پ",
        "ت"
      ],
      [
        "▁م",
        "ەي"
      ],
      [
        "▁كۆ",
        "پ"
      ],
      [
        "خ",
        "ى"
      ],
      [
        "لى",
        "ش"
      ],
      [
        "لار",
        "نىڭ"
      ],
      [
        "▁ك",
        "ەل"
      ],
      [
        "▁كې",
        "يىن"
      ],
      [
        "و",
        "ب"
      ],
      [
        "خ",
        "شى"
      ],
      [
        "▁ئۆ",
        "زى"
      ],
      [
        "ى",
        "تى"
      ],
      [
        "▁ش",
        "ۇ"
      ],
      [
        "▁كوم",
        "ان"
      ],
      [
        "لى",
        "كى"
      ],
      [
        "ل",
        "ەش"
      ],
      [
        "▁ھ",
        "ەم"
      ],
      [
        "▁ق",
        "ان"
      ],
      [
        "دا",
        "،"
      ],
      [
        "ڭ",
        "ىز"
      ],
      [
        "▁ق",
        "ى"
      ],
      [
        "غ",
        "ۇ"
      ],
      [
        "▁ب",
        "ە"
      ],
      [
        "▁",
        "ز"
      ],
      [
        "د",
        "ان"
      ],
      [
        "سى",
        "ز"
      ],
      [
        "ر",
        "ەك"
      ],
      [
        "ق",
        "ۇ"
      ],
      [
        "▁ھ",
        "ە"
      ],
      [
        "ا",
        "سى"
      ],
      [
        "ې",
        "رى"
      ],
      [
        "ا",
        "تى"
      ],
      [
        "ەت",
        "تە"
      ],
      [
        "ىل",
        "ەر"
      ],
      [
        "ا",
        "ڭ"
      ],
      [
        "ەن",
        "ە"
      ],
      [
        "▁ق",
        "ېتى"
      ],
      [
        "▁\"",
        "ب"
      ],
      [
        "▁خ",
        "ەۋ"
      ],
      [
        "غ",
        "ى"
      ],
      [
        "▁قىلى",
        "ش"
      ],
      [
        "ا",
        "ۋ"
      ],
      [
        "▁ئۈ",
        "چ"
      ],
      [
        "ا",
        "نى"
      ],
      [
        "▁ئە",
        "ڭ"
      ],
      [
        "▁ئا",
        "پت"
      ],
      [
        "▁قېتى",
        "م"
      ],
      [
        "▁ت",
        "ۆ"
      ],
      [
        "▁ي",
        "ەنە"
      ],
      [
        "▁ق",
        "ار"
      ],
      [
        "تى",
        "ش"
      ],
      [
        "وم",
        "وب"
      ],
      [
        "▁يا",
        "خشى"
      ],
      [
        "▁م",
        "ى"
      ],
      [
        "▁مۇسابى",
        "قى"
      ],
      [
        "ە",
        "ھ"
      ],
      [
        ":",
        "\","
      ],
      [
        "ۇ",
        "ش"
      ],
      [
        "▁ئو",
        "ر"
      ],
      [
        "ۋ",
        "ال"
      ],
      [
        "▁مەي",
        "دان"
      ],
      [
        "ت",
        "ۇر"
      ],
      [
        "▁ھ",
        "ې"
      ],
      [
        "▁چ",
        "وڭ"
      ],
      [
        "▁ئى",
        "ك"
      ],
      [
        "▁ي",
        "ۇ"
      ],
      [
        "▁ل",
        "ې"
      ],
      [
        "س",
        "تى"
      ],
      [
        "▁بې",
        "رى"
      ],
      [
        "▁ئاپت",
        "وموب"
      ],
      [
        "ت",
        "ۈر"
      ],
      [
        "▁ن",
        "ە"
      ],
      [
        "ڭ",
        "ى"
      ],
      [
        "ار",
        "لىق"
      ],
      [
        "▁ئۆ",
        "ز"
      ],
      [
        "لى",
        "پ"
      ],
      [
        "▁قو",
        "ي"
      ],
      [
        "گ",
        "ەر"
      ],
      [
        "▁م",
        "ې"
      ],
      [
        "▁پ",
        "ە"
      ],
      [
        "-",
        "ي"
      ],
      [
        "ل",
        "ەن"
      ],
      [
        "ۇ",
        "پ"
      ],
      [
        "ى",
        "م"
      ],
      [
        "▁كې",
        "رەك"
      ],
      [
        "ل",
        "ۈك"
      ],
      [
        "گ",
        "ى"
      ],
      [
        "▁قىل",
        "غان"
      ],
      [
        "▁ت",
        "ۇر"
      ],
      [
        "▁ھ",
        "ەر"
      ],
      [
        "▁ئە",
        "مە"
      ],
      [
        "▁كومان",
        "دىسى"
      ],
      [
        "ىل",
        "ار"
      ],
      [
        "▁ق",
        "اي"
      ],
      [
        "ك",
        "ا"
      ],
      [
        "▁ئاپتوموب",
        "ىل"
      ],
      [
        "▁ئا",
        "دەم"
      ],
      [
        "▁ت",
        "ۇ"
      ],
      [
        "دى",
        "."
      ],
      [
        "▁لې",
        "كىن"
      ],
      [
        "ۈ",
        "ل"
      ],
      [
        "ا",
        "قى"
      ],
      [
        "▁",
        "ف"
      ],
      [
        "▁ئى",
        "ن"
      ],
      [
        "▁ي",
        "و"
      ],
      [
        "لىقى",
        "نى"
      ],
      [
        "شى",
        "نى"
      ],
      [
        "▁ئى",
        "چى"
      ],
      [
        "▁خەۋ",
        "ىرى"
      ],
      [
        "▁ئىك",
        "كى"
      ],
      [
        "▁خ",
        "ىل"
      ],
      [
        "▁تې",
        "خى"
      ],
      [
        "ۇرۇ",
        "ش"
      ],
      [
        "تى",
        "پ"
      ],
      [
        "▁مۇ",
        "ن"
      ],
      [
        "ق",
        "ەت"
      ],
      [
        "▁يۇ",
        "قىرى"
      ],
      [
        "ق",
        "ە"
      ],
      [
        "▁بولۇ",
        "پ"
      ],
      [
        "▁تەر",
        "جى"
      ],
      [
        "ك",
        "ۈ"
      ],
      [
        "▁ئو",
        "ي"
      ],
      [
        "▁ي",
        "ىل"
      ],
      [
        "ر",
        "و"
      ],
      [
        "▁تەرجى",
        "مىسى"
      ],
      [
        "دى",
        ".\","
      ],
      [
        "تى",
        "كى"
      ],
      [
        "ا",
        "ك"
      ],
      [
        "ت",
        "ۇ"
      ],
      [
        "لى",
        "ي"
      ],
      [
        "ا",
        "ئ"
      ],
      [
        "0",
        "0"
      ],
      [
        "▁ك",
        "ە"
      ],
      [
        "ەت",
        "لىك"
      ],
      [
        "لار",
        "نى"
      ],
      [
        "▁چ",
        "ې"
      ],
      [
        "▁ق",
        "ارى"
      ],
      [
        "▁م",
        "ىل"
      ],
      [
        "▁ك",
        "ەت"
      ],
      [
        "▁سى",
        "ز"
      ],
      [
        "سى",
        "نى"
      ],
      [
        "ل",
        "ۇ"
      ],
      [
        "ق",
        "تى"
      ],
      [
        "▁خەۋىرى",
        "،"
      ],
      [
        "▁ئۇ",
        "چ"
      ],
      [
        "▁ئا",
        "م"
      ],
      [
        "▁",
        "3"
      ],
      [
        "ا",
        "غ"
      ],
      [
        "پ",
        "ىي"
      ],
      [
        "ۆ",
        "ل"
      ],
      [
        "▁تەرجىمىسى",
        ":\","
      ],
      [
        "اقى",
        "ت"
      ],
      [
        "▁ت",
        "ى"
      ],
      [
        "دا",
        "رى"
      ],
      [
        "پ",
        "ا"
      ],
      [
        "▁تېخى",
        "مۇ"
      ],
      [
        "▁",
        "نى"
      ],
      [
        "غان",
        "،"
      ],
      [
        "▁ب",
        "ىز"
      ],
      [
        "▁دە",
        "پ"
      ],
      [
        "م",
        "ەي"
      ],
      [
        "▁",
        "شى"
      ],
      [
        "گ",
        "ىرى"
      ],
      [
        "▁قات",
        "ارلىق"
      ],
      [
        "▁س",
        "ۈر"
      ],
      [
        "م",
        "ان"
      ],
      [
        "▁ۋ",
        "اقىت"
      ],
      [
        "▁يې",
        "ڭى"
      ],
      [
        "▁ك",
        "ىر"
      ],
      [
        "سى",
        "نىڭ"
      ],
      [
        "▁س",
        "ې"
      ],
      [
        "م",
        "ەن"
      ],
      [
        "▁ت",
        "ار"
      ],
      [
        "▁ئا",
        "ش"
      ],
      [
        "▁چ",
        "ۈش"
      ],
      [
        "-ي",
        "ىلى"
      ],
      [
        "▁ي",
        "ۈ"
      ],
      [
        "ش",
        "ىلەر"
      ],
      [
        "ۋ",
        "ەن"
      ],
      [
        "▁ق",
        "ول"
      ],
      [
        "▁ئى",
        "قتى"
      ],
      [
        "▁كى",
        "شىلەر"
      ],
      [
        "▁ئ",
        "ەر"
      ],
      [
        "▁ئۆ",
        "ت"
      ],
      [
        "-ئ",
        "اي"
      ],
      [
        "▁ئې",
        "رى"
      ],
      [
        "خ",
        "ش"
      ],
      [
        "▁د",
        "و"
      ],
      [
        "▁ئۈچ",
        "ۈن"
      ],
      [
        "▁ئا",
        "سا"
      ],
      [
        "▁ئە",
        "م"
      ],
      [
        "▁ئە",
        "ھ"
      ],
      [
        "▁مۇ",
        "ھ"
      ],
      [
        "غ",
        "ۇن"
      ],
      [
        "م",
        "كىن"
      ],
      [
        "اي",
        "ى"
      ],
      [
        "▁مۇ",
        "مكىن"
      ],
      [
        "▁ئا",
        "خ"
      ],
      [
        "ۈر",
        "ۈش"
      ],
      [
        "تى",
        "نى"
      ],
      [
        "▁ي",
        "اش"
      ],
      [
        "ۇرۇ",
        "پ"
      ],
      [
        "▁ئ",
        "ىل"
      ],
      [
        "وم",
        "ۇر"
      ],
      [
        "▁تۆ",
        "ۋەن"
      ],
      [
        "▁ئال",
        "دى"
      ],
      [
        "▁تەر",
        "ەپ"
      ],
      [
        "▁م",
        "ەن"
      ],
      [
        "▁بىر",
        "لەش"
      ],
      [
        "▁س",
        "اق"
      ],
      [
        "▁",
        "دۇ"
      ],
      [
        "ل",
        "ې"
      ],
      [
        "لىنى",
        "ش"
      ],
      [
        "▁ب",
        "ەر"
      ],
      [
        "ۇ",
        "س"
      ],
      [
        "▁2",
        "0"
      ],
      [
        "ە",
        "نى"
      ],
      [
        "م",
        "ەت"
      ],
      [
        "▁يا",
        "كى"
      ],
      [
        "▁ب",
        "اي"
      ],
      [
        "سى",
        "ي"
      ],
      [
        "▁م",
        "ا"
      ],
      [
        "▁ئا",
        "لا"
      ],
      [
        "لا",
        "پ"
      ],
      [
        "گ",
        "ىلى"
      ],
      [
        "مى",
        "ن"
      ],
      [
        "اي",
        "ىتى"
      ],
      [
        "از",
        "ىر"
      ],
      [
        "▁بول",
        "سا"
      ],
      [
        "▁مىل",
        "ي"
      ],
      [
        "▁ي",
        "ەر"
      ],
      [
        "▁ن",
        "اھ"
      ],
      [
        "دە",
        "ك"
      ],
      [
        "د",
        "ار"
      ],
      [
        "▁باش",
        "قا"
      ],
      [
        "ە",
        "ڭ"
      ],
      [
        "▁ھ",
        "ال"
      ],
      [
        "گ",
        "ۈ"
      ],
      [
        "▁ئار",
        "قى"
      ],
      [
        "▁س",
        "و"
      ],
      [
        "▁",
        "غ"
      ],
      [
        "▁س",
        "ۇ"
      ],
      [
        "▁ن",
        "ومۇر"
      ],
      [
        "▁دە",
        "رى"
      ],
      [
        "▁ئەمە",
        "س"
      ],
      [
        "مى",
        "غان"
      ],
      [
        "س",
        "لى"
      ],
      [
        "سى",
        "يە"
      ],
      [
        "ۇن",
        "داق"
      ],
      [
        "▁ب",
        "ەل"
      ],
      [
        "▁چى",
        "ق"
      ],
      [
        "▁",
        "دى"
      ],
      [
        "ر",
        "ا"
      ],
      [
        "▁كۈ",
        "چ"
      ],
      [
        "ۈ",
        "ت"
      ],
      [
        "▁ناھ",
        "ايىتى"
      ],
      [
        "▁ي",
        "ار"
      ],
      [
        "▁ھ",
        "اي"
      ],
      [
        "▁ئا",
        "ز"
      ],
      [
        "ۈ",
        "م"
      ],
      [
        "سى",
        "مۇ"
      ],
      [
        "▁ئو",
        "خش"
      ],
      [
        "▁ئ",
        "ان"
      ],
      [
        "م",
        "ەك"
      ],
      [
        "ان",
        "لىق"
      ],
      [
        "▁چى",
        "قى"
      ],
      [
        "ۋ",
        "ى"
      ],
      [
        "▁ك",
        "ىن"
      ],
      [
        "س",
        "ە"
      ],
      [
        "▁",
        "زى"
      ],
      [
        "و",
        "نى"
      ],
      [
        "▁ق",
        "ە"
      ],
      [
        "▁چى",
        "قىرى"
      ],
      [
        "▁ئا",
        "س"
      ],
      [
        "▁ي",
        "ەنى"
      ],
      [
        "ڭ",
        "ا"
      ],
      [
        "▁ئا",
        "د"
      ],
      [
        "▁ت",
        "ال"
      ],
      [
        "▁ي",
        "ول"
      ],
      [
        "ت",
        "قان"
      ],
      [
        "▁ئو",
        "ت"
      ],
      [
        "ب",
        "ەت"
      ],
      [
        "رى",
        "سى"
      ],
      [
        "▁بولۇ",
        "ش"
      ],
      [
        "▁ك",
        "ىرى"
      ],
      [
        "ن",
        "يا"
      ],
      [
        "ن",
        "داق"
      ],
      [
        "ۋ",
        "ې"
      ],
      [
        "▁نۇر",
        "غۇن"
      ],
      [
        "تى",
        "،"
      ],
      [
        "ئ",
        "ىي"
      ],
      [
        "▁(",
        ")"
      ],
      [
        "ك",
        "ەت"
      ],
      [
        "▁ھ",
        "ازىر"
      ],
      [
        "▁ۋ",
        "اق"
      ],
      [
        "ي",
        "ان"
      ],
      [
        "ل",
        "ە"
      ],
      [
        "لى",
        "تى"
      ],
      [
        "▁",
        "4"
      ],
      [
        "چ",
        "ىلار"
      ],
      [
        "قى",
        "ي"
      ],
      [
        "ىي",
        "ە"
      ],
      [
        "▁نە",
        "تى"
      ],
      [
        "دە",
        "،"
      ],
      [
        "▁كەل",
        "تۈر"
      ],
      [
        "چە",
        "،"
      ],
      [
        "▁ئى",
        "س"
      ],
      [
        "▁ق",
        "ې"
      ],
      [
        "سى",
        "م"
      ],
      [
        "قى",
        "ن"
      ],
      [
        "▁ئاسا",
        "س"
      ],
      [
        "▁مە",
        "سى"
      ],
      [
        "▁ئۇ",
        "ز"
      ],
      [
        "لىكى",
        "نى"
      ],
      [
        "▁س",
        "ەۋ"
      ],
      [
        "▁",
        "5"
      ],
      [
        "س",
        "ەل"
      ],
      [
        "▁پە",
        "قەت"
      ],
      [
        "ل",
        "ەپ"
      ],
      [
        "ە",
        "ب"
      ],
      [
        "▁ئۇ",
        "لار"
      ],
      [
        "▁قىلى",
        "پ"
      ],
      [
        "م",
        "اق"
      ],
      [
        "▁كىن",
        "و"
      ],
      [
        "غان",
        "دا،"
      ],
      [
        "اي",
        "ىن"
      ],
      [
        "▁ئاي",
        "ال"
      ],
      [
        "ات",
        "قان"
      ],
      [
        "و",
        "ت"
      ],
      [
        "▁ئۆزى",
        "نىڭ"
      ],
      [
        "▁دۇ",
        "نيا"
      ],
      [
        "▁ئارقى",
        "لىق"
      ],
      [
        "▁ت",
        "ام"
      ],
      [
        "م",
        "اس"
      ],
      [
        "▁قو",
        "ش"
      ],
      [
        "ست",
        "ې"
      ],
      [
        "▁ب",
        "اھ"
      ],
      [
        "▁بىرلەش",
        "مىسى"
      ],
      [
        "▁ن",
        "ې"
      ],
      [
        "▁ئى",
        "كەن"
      ],
      [
        "▁شۇ",
        "ڭا"
      ],
      [
        "▁ب",
        "ى"
      ],
      [
        "دى",
        "كەن"
      ],
      [
        "▁مىلي",
        "ون"
      ],
      [
        "▁ك",
        "ۈن"
      ],
      [
        "▁مۇسابى",
        "قە"
      ],
      [
        "مى",
        "ي"
      ],
      [
        "ۇر",
        "ۇن"
      ],
      [
        "غان",
        "."
      ],
      [
        "لەر",
        "نى"
      ],
      [
        "▁نى",
        "س"
      ],
      [
        "سى",
        "ر"
      ],
      [
        "▁ئوخش",
        "اش"
      ],
      [
        "ا",
        "دى"
      ],
      [
        "▁دې",
        "گەن"
      ],
      [
        "▁ن",
        "ام"
      ],
      [
        "▁س",
        "ۆ"
      ],
      [
        "▁ت",
        "اش"
      ],
      [
        "گ",
        "ۈز"
      ],
      [
        "لىرى",
        "نى"
      ],
      [
        "▁ۋاق",
        "تى"
      ],
      [
        "▁بولۇ",
        "شى"
      ],
      [
        "▁ئې",
        "ي"
      ],
      [
        "▁تۇر",
        "مۇ"
      ],
      [
        "▁\"ب",
        "ۇ"
      ],
      [
        "▁بۇ",
        "نىڭ"
      ],
      [
        "د",
        "ۈر"
      ],
      [
        "▁ي",
        "ى"
      ],
      [
        "لىرى",
        "نىڭ"
      ],
      [
        "ب",
        "ە"
      ],
      [
        "▁كې",
        "سەل"
      ],
      [
        "ې",
        "ل"
      ],
      [
        "▁ئېرى",
        "ش"
      ],
      [
        "▁ئە",
        "گەر"
      ],
      [
        "▁ت",
        "ەك"
      ],
      [
        "گەن",
        "،"
      ],
      [
        "م",
        "ال"
      ],
      [
        "▁بولى",
        "دۇ،"
      ],
      [
        "د",
        "ۇر"
      ],
      [
        "▁ر",
        "و"
      ],
      [
        "▁پ",
        "ۈت"
      ],
      [
        "▁پ",
        "ەي"
      ],
      [
        "▁كې",
        "لى"
      ],
      [
        "د",
        "دى"
      ],
      [
        "▁ق",
        "ىز"
      ],
      [
        "▁كۆر",
        "ۈ"
      ],
      [
        "چى",
        "سى"
      ],
      [
        "يا",
        "ۋ"
      ],
      [
        "▁ب",
        "ىرى"
      ],
      [
        "▁ئىن",
        "ت"
      ],
      [
        "▁س",
        "ال"
      ],
      [
        "▁ئۇ",
        "س"
      ],
      [
        "ۋ",
        "ەت"
      ],
      [
        "▁يا",
        "ۋ"
      ],
      [
        "▁ھە",
        "رى"
      ],
      [
        "شى",
        "پ"
      ],
      [
        "▁ب",
        "الى"
      ],
      [
        "▁كې",
        "تى"
      ],
      [
        "▁بول",
        "ماي"
      ],
      [
        "▁مى",
        "ڭ"
      ],
      [
        "▁ئىنت",
        "ايىن"
      ],
      [
        "غ",
        "ىلى"
      ],
      [
        "▁تو",
        "خ"
      ],
      [
        "▁\"",
        "ت"
      ],
      [
        "▁س",
        "ان"
      ],
      [
        "▁ئىل",
        "گىرى"
      ],
      [
        "▁س",
        "ۈ"
      ],
      [
        "▁يو",
        "ق"
      ],
      [
        "▁ق",
        "ۇ"
      ],
      [
        "ال",
        "اي"
      ],
      [
        "▁كىر",
        "گۈز"
      ],
      [
        "▁كۈ",
        "چى"
      ],
      [
        "▁ئام",
        "ېرى"
      ],
      [
        "چى",
        "ك"
      ],
      [
        "▁ئور",
        "ۇن"
      ],
      [
        "▁كېيىن",
        "،"
      ],
      [
        "ۇ",
        "ڭ"
      ],
      [
        "لار",
        "غا"
      ],
      [
        "▁كۆر",
        "سى"
      ],
      [
        "ا",
        "ب"
      ],
      [
        "لۇ",
        "قى"
      ],
      [
        "▁يار",
        "دەم"
      ],
      [
        "لى",
        "ن"
      ],
      [
        "غان",
        ".\","
      ],
      [
        "▁قان",
        "داق"
      ],
      [
        "ا",
        "چ"
      ],
      [
        "▁ش",
        "ەك"
      ],
      [
        "▁مە",
        "ز"
      ],
      [
        "▁ئۆ",
        "ل"
      ],
      [
        "كۈ",
        "نى"
      ],
      [
        "د",
        "ەن"
      ],
      [
        "▁ئۈ",
        "ستى"
      ],
      [
        "▁ئې",
        "لىپ"
      ],
      [
        "▁بول",
        "سىمۇ"
      ],
      [
        "▁«",
        "ئ"
      ],
      [
        "ار",
        "ا"
      ],
      [
        "▁ئىقتى",
        "دارى"
      ],
      [
        "▁باش",
        "ق"
      ],
      [
        "؟",
        "\","
      ],
      [
        "▁تە",
        "ڭ"
      ],
      [
        "▁ئې",
        "غ"
      ],
      [
        "▁ئەم",
        "ما"
      ],
      [
        "▁س",
        "ەپ"
      ],
      [
        "▁پ",
        "ەر"
      ],
      [
        "▁س",
        "ېتى"
      ],
      [
        "▁تو",
        "غ"
      ],
      [
        "▁قى",
        "س"
      ],
      [
        "لەر",
        "نىڭ"
      ],
      [
        "▁",
        "6"
      ],
      [
        "▁ج",
        "ى"
      ],
      [
        "▁ج",
        "ەھ"
      ],
      [
        "▁\"",
        "1"
      ],
      [
        "▁ھې",
        "س"
      ],
      [
        "رى",
        "م"
      ],
      [
        "ې",
        "ي"
      ],
      [
        "▁نەتى",
        "جى"
      ],
      [
        "ۋ",
        "ا"
      ],
      [
        "▁ئې",
        "لىش"
      ],
      [
        "▁\"",
        "2"
      ],
      [
        "اپ",
        "ى"
      ],
      [
        "▁يەنى",
        "لا"
      ],
      [
        "ھ",
        "ە"
      ],
      [
        "▁پ",
        "اي"
      ],
      [
        "ۇ",
        "لى"
      ],
      [
        "ې",
        "ت"
      ],
      [
        "▁پ",
        "ى"
      ],
      [
        "دا",
        "ش"
      ],
      [
        "غى",
        "نى"
      ],
      [
        "▁ي",
        "ەت"
      ],
      [
        "▁دەرى",
        "جى"
      ],
      [
        "▁ش",
        "ۇنداق"
      ],
      [
        "و",
        "ق"
      ],
      [
        "▁بە",
        "دەن"
      ],
      [
        "▁ي",
        "ۈز"
      ],
      [
        "▁پەي",
        "دا"
      ],
      [
        "▁مۇن",
        "اسى"
      ],
      [
        "▁ي",
        "ان"
      ],
      [
        "چى",
        "لىك"
      ],
      [
        "ۈن",
        "كى"
      ],
      [
        "▁ھەم",
        "دە"
      ],
      [
        "▁بولى",
        "دۇ.\","
      ],
      [
        "▁ياۋ",
        "رو"
      ],
      [
        "▁\"",
        "ي"
      ],
      [
        "▁ب",
        "ەك"
      ],
      [
        "▁بولى",
        "دۇ."
      ],
      [
        "▁يۈ",
        "ەن"
      ],
      [
        "▁يې",
        "قىن"
      ],
      [
        "ەر",
        "لىك"
      ],
      [
        "▁ئەمە",
        "لىي"
      ],
      [
        "-ئاي",
        "نىڭ"
      ],
      [
        "▁مى",
        "ق"
      ],
      [
        "▁ت",
        "ول"
      ],
      [
        "▁ئى",
        "گە"
      ],
      [
        "▁ئۇ",
        "نى"
      ],
      [
        "▁دا",
        "ئ"
      ],
      [
        "-",
        "كۈنى"
      ],
      [
        "▁پ",
        "ۇل"
      ],
      [
        "ل",
        "اي"
      ],
      [
        "ل",
        "ەت"
      ],
      [
        "▁بە",
        "زى"
      ],
      [
        "▁ئە",
        "ي"
      ],
      [
        "مى",
        "نى"
      ],
      [
        "▁قىلى",
        "پ،"
      ],
      [
        "ك",
        "ۈز"
      ],
      [
        "ھ",
        "ى"
      ],
      [
        "▁ق",
        "ۇر"
      ],
      [
        "▁تې",
        "ز"
      ],
      [
        "▁د",
        "ۆل"
      ],
      [
        "ۈ",
        "شى"
      ],
      [
        "كى",
        "تى"
      ],
      [
        "▁تو",
        "ر"
      ],
      [
        "▁تە",
        "سىر"
      ],
      [
        "▁",
        "7"
      ],
      [
        "▁ۋاقىت",
        "تا"
      ],
      [
        "▁ھ",
        "ەي"
      ],
      [
        "▁تۇرمۇ",
        "ش"
      ],
      [
        "تى",
        "."
      ],
      [
        "▁ب",
        "ۇرۇن"
      ],
      [
        "▁كې",
        "سى"
      ],
      [
        "ت",
        "ۇرۇش"
      ],
      [
        "▁پ",
        "ار"
      ],
      [
        "▁مۇسابىقى",
        "دە"
      ],
      [
        "▁پۈت",
        "ۈن"
      ],
      [
        "▁ھە",
        "قى"
      ],
      [
        "ر",
        "ان"
      ],
      [
        "ەت",
        "كە"
      ],
      [
        "▁",
        "8"
      ],
      [
        "▁ئى",
        "ز"
      ],
      [
        "دىغان",
        "لىقىنى"
      ],
      [
        "▁سى",
        "ر"
      ],
      [
        "شى",
        "غا"
      ],
      [
        "▁ئال",
        "دىن"
      ],
      [
        "لىشى",
        "ش"
      ],
      [
        "▁كەلتۈر",
        "ۈپ"
      ],
      [
        "خ",
        "انى"
      ],
      [
        "▁قو",
        "ر"
      ],
      [
        "▁ئەھ",
        "ۋال"
      ],
      [
        "▁ر",
        "ول"
      ],
      [
        "سا",
        "ب"
      ],
      [
        "▁كەل",
        "گەن"
      ],
      [
        "م",
        "پىي"
      ],
      [
        "▁شى",
        "ر"
      ],
      [
        "▁كۆ",
        "ز"
      ],
      [
        "ۋ",
        "اتقان"
      ],
      [
        "كى",
        "،"
      ],
      [
        "گ",
        "ىل"
      ],
      [
        "▁كى",
        "چىك"
      ],
      [
        "▁ئىچى",
        "دە"
      ],
      [
        "▁كەت",
        "كەن"
      ],
      [
        "▁كېسەل",
        "لىك"
      ],
      [
        "▁ئى",
        "چ"
      ],
      [
        "▁ھې",
        "ساب"
      ],
      [
        "ن",
        "ا"
      ],
      [
        "▁ئا",
        "ئ"
      ],
      [
        "▁ك",
        "ىي"
      ],
      [
        "تى",
        "س"
      ],
      [
        "ش",
        "ۇ"
      ],
      [
        "▁م",
        "اس"
      ],
      [
        "غان",
        "دا"
      ],
      [
        "-",
        "ب"
      ],
      [
        "▁يې",
        "تى"
      ],
      [
        "▁دۆل",
        "ەت"
      ],
      [
        "▁ر",
        "اي"
      ],
      [
        "▁ك",
        "ون"
      ],
      [
        "▁ئېغ",
        "ىر"
      ],
      [
        "▁",
        "گە"
      ],
      [
        "▁ئى",
        "پا"
      ],
      [
        "غان",
        "دىن"
      ],
      [
        "ەل",
        "ۇم"
      ],
      [
        "▁ئۇ",
        "لارنىڭ"
      ],
      [
        "دى",
        "م"
      ],
      [
        "▁چې",
        "مپىي"
      ],
      [
        "▁خ",
        "ىز"
      ],
      [
        "▁ئ",
        "ۈن"
      ],
      [
        "▁تەك",
        "ش"
      ],
      [
        "▁ئاخ",
        "ىرى"
      ],
      [
        "▁ھەرى",
        "كەت"
      ],
      [
        "ۈ",
        "پ،"
      ],
      [
        "شى",
        "ش"
      ],
      [
        "ۈ",
        "رى"
      ],
      [
        "چ",
        "چە"
      ],
      [
        "▁مۇن",
        "داق"
      ],
      [
        "لا",
        "م"
      ],
      [
        "▁كۈچ",
        "لۈك"
      ],
      [
        "ۇ",
        "ج"
      ],
      [
        "ۋ",
        "ان"
      ],
      [
        "▁شۇ",
        "نىڭ"
      ],
      [
        "▁پ",
        "اس"
      ],
      [
        "ل",
        "ەي"
      ],
      [
        "▁ت",
        "ەن"
      ],
      [
        "▁سى",
        "ستې"
      ],
      [
        "▁ئې",
        "لان"
      ],
      [
        "سا",
        "،"
      ],
      [
        "▁تۇ",
        "ي"
      ],
      [
        "▁ئامېرى",
        "كا"
      ],
      [
        "سى",
        "دە"
      ],
      [
        "ن",
        "چى"
      ],
      [
        "لىنى",
        "پ"
      ],
      [
        "▁1",
        "0"
      ],
      [
        "د",
        "ەر"
      ],
      [
        "▁ئ",
        "ەت"
      ],
      [
        "▁بې",
        "سى"
      ],
      [
        "▁ك",
        "ار"
      ],
      [
        "▁ت",
        "ۈر"
      ],
      [
        "▁ئۇز",
        "ۇن"
      ],
      [
        "س",
        "ەت"
      ],
      [
        "▁ئور",
        "نى"
      ],
      [
        "▁ئە",
        "س"
      ],
      [
        "دى",
        "نى"
      ],
      [
        "▁يې",
        "مەك"
      ],
      [
        "▁بولسىمۇ",
        "،"
      ],
      [
        "ي",
        "ۇ"
      ],
      [
        "▁نە",
        "چچە"
      ],
      [
        "▁ب",
        "اق"
      ],
      [
        "▁ت",
        "ۇت"
      ],
      [
        "▁دا",
        "ۋ"
      ],
      [
        "▁كۆ",
        "ڭ"
      ],
      [
        "ۇ",
        "رى"
      ],
      [
        "د",
        "و"
      ],
      [
        "▁كۆرسى",
        "تى"
      ],
      [
        "▁ر",
        "ە"
      ],
      [
        "▁ر",
        "ې"
      ],
      [
        "ب",
        "ىي"
      ],
      [
        "▁\"",
        "«"
      ],
      [
        "ۈ",
        "گ"
      ],
      [
        "▁م",
        "ەلۇم"
      ],
      [
        "ب",
        "ول"
      ],
      [
        "▁20",
        "2"
      ],
      [
        "لى",
        "پ،"
      ],
      [
        "ەل",
        "ەي"
      ],
      [
        "ۇن",
        "جى"
      ],
      [
        "س",
        "ۇن"
      ],
      [
        "▁چېمپىي",
        "ون"
      ],
      [
        "▁ز",
        "ور"
      ],
      [
        "▁ئاخ",
        "ىر"
      ],
      [
        "▁ج",
        "ىن"
      ],
      [
        "▁بەل",
        "كى"
      ],
      [
        "▁م",
        "اي"
      ],
      [
        "زى",
        "م"
      ],
      [
        "▁ق",
        "ىي"
      ],
      [
        "▁قار",
        "شى"
      ],
      [
        "▁ئەمەس",
        "،"
      ],
      [
        "ق",
        "ىل"
      ],
      [
        "▁كۆر",
        "ۈن"
      ],
      [
        "سى",
        "ل"
      ],
      [
        "▁",
        "%"
      ],
      [
        "▁بۇ",
        "نداق"
      ],
      [
        "▁باشق",
        "ىلار"
      ],
      [
        "ب",
        "ىر"
      ],
      [
        "▁كېرەك",
        ".\","
      ],
      [
        "▁س",
        "اھ"
      ],
      [
        "▁ت",
        "ەت"
      ],
      [
        "▁بېرى",
        "ش"
      ],
      [
        "▁ت",
        "ۇنجى"
      ],
      [
        "سى",
        "گە"
      ],
      [
        "ا",
        "مى"
      ],
      [
        "ە",
        "ز"
      ],
      [
        "ىلى",
        "م"
      ],
      [
        "غ",
        "ۇل"
      ],
      [
        "▁ج",
        "ەم"
      ],
      [
        "▁ن",
        "ۇق"
      ],
      [
        "▁مۇ",
        "ۋ"
      ],
      [
        "▁ك",
        "ەي"
      ],
      [
        "ە",
        "لى"
      ],
      [
        "و",
        "ۋ"
      ],
      [
        "▁ئاي",
        "لان"
      ],
      [
        "▁ئا",
        "رى"
      ],
      [
        "ار",
        "ەت"
      ],
      [
        "▁قى",
        "زى"
      ],
      [
        "▁كېرەك",
        "."
      ],
      [
        "▁",
        "9"
      ],
      [
        "ې",
        "ڭ"
      ],
      [
        "▁مۇھ",
        "ىم"
      ],
      [
        "نى",
        "ق"
      ],
      [
        "▁",
        "لى"
      ],
      [
        "ر",
        "اق"
      ],
      [
        "▁ي",
        "ۈر"
      ],
      [
        "▁ش",
        "ارى"
      ],
      [
        "قى",
        "سى"
      ],
      [
        "▁كېيىن",
        "كى"
      ],
      [
        "ىلى",
        "ك"
      ],
      [
        "▁ئا",
        "غ"
      ],
      [
        "▁ئېي",
        "تقان"
      ],
      [
        "تى",
        "سى"
      ],
      [
        "غا",
        "چ"
      ],
      [
        "▁مە",
        "غ"
      ],
      [
        "▁ر",
        "ەڭ"
      ],
      [
        "▁كە",
        "س"
      ],
      [
        "ن",
        "اش"
      ],
      [
        "▁\"ئ",
        "ۇ"
      ],
      [
        "▁ئا",
        "ۋ"
      ],
      [
        "▁ئ",
        "ەن"
      ],
      [
        "▁ئالدىن",
        "قى"
      ],
      [
        "لار",
        "دا"
      ],
      [
        "▁ئۈستى",
        "گە"
      ],
      [
        "▁چ",
        "ەك"
      ],
      [
        "د",
        "رى"
      ],
      [
        "▁ياۋرو",
        "پا"
      ],
      [
        "▁ھ",
        "ۆ"
      ],
      [
        "▁چ",
        "وق"
      ],
      [
        "▁چ",
        "ۈنكى"
      ],
      [
        "▁ئۆ",
        "س"
      ],
      [
        "▁كە",
        "چ"
      ],
      [
        "▁ئە",
        "سلى"
      ],
      [
        "▁ئا",
        "لى"
      ],
      [
        "▁ھەم",
        "مىسى"
      ],
      [
        "▁م",
        "اھ"
      ],
      [
        "ز",
        "ا"
      ],
      [
        "ەل",
        "ق"
      ],
      [
        "▁ش",
        "ەھ"
      ],
      [
        "▁ل",
        "ايى"
      ],
      [
        "▁دائ",
        "ىم"
      ],
      [
        "چ",
        "ىل"
      ],
      [
        "پ",
        "ە"
      ],
      [
        "▁داۋ",
        "ام"
      ],
      [
        "▁\"",
        "ك"
      ],
      [
        "▁ئا",
        "ت"
      ],
      [
        "▁باھ",
        "اسى"
      ],
      [
        "▁بو",
        "ش"
      ],
      [
        "▁ھ",
        "ۇج"
      ],
      [
        "بى",
        "تى"
      ],
      [
        "كى",
        "نى"
      ],
      [
        "▁كېسى",
        "لى"
      ],
      [
        "▁ي",
        "ال"
      ],
      [
        "ق",
        "قى"
      ],
      [
        "▁كۈ",
        "نى"
      ],
      [
        "▁سۈر",
        "ئ"
      ],
      [
        "ۋ",
        "الى"
      ],
      [
        "▁مە",
        "س"
      ],
      [
        "تۇ",
        "رى"
      ],
      [
        "لەن",
        "گەن"
      ],
      [
        "ال",
        "ماي"
      ],
      [
        "▁سىستې",
        "مىسى"
      ],
      [
        "▁ئۇچ",
        "رى"
      ],
      [
        "ۋ",
        "ە"
      ],
      [
        "▁ھې",
        "چ"
      ],
      [
        "ھ",
        "تى"
      ],
      [
        "ۋ",
        "ېتى"
      ],
      [
        "س",
        "ان"
      ],
      [
        "▁قىلى",
        "ن"
      ],
      [
        "▁كى",
        "شى"
      ],
      [
        "ف",
        "ون"
      ],
      [
        "ت",
        "ر"
      ],
      [
        "▁ھال",
        "دا"
      ],
      [
        "▁ئاس",
        "ان"
      ],
      [
        "▁چ",
        "ىر"
      ],
      [
        "▁تۆ",
        "ت"
      ],
      [
        "مە",
        "س"
      ],
      [
        "مى",
        "تى"
      ],
      [
        "▁پە",
        "سلى"
      ],
      [
        "ې",
        "س"
      ],
      [
        "ائ",
        "ەت"
      ],
      [
        "▁قىلى",
        "شى"
      ],
      [
        "▁م",
        "ار"
      ],
      [
        "▁ئان",
        "دىن"
      ],
      [
        "▁ئۈ",
        "مى"
      ],
      [
        "▁ئۇ",
        "نداق"
      ],
      [
        "▁ئا",
        "ج"
      ],
      [
        "▁مىق",
        "دارى"
      ],
      [
        "▁ئۆز",
        "گىرى"
      ],
      [
        "تى",
        ".\","
      ],
      [
        "▁ئې",
        "ھتى"
      ],
      [
        "▁قال",
        "غان"
      ],
      [
        "ك",
        "ار"
      ],
      [
        "گ",
        "ىيە"
      ],
      [
        "اك",
        "ت"
      ],
      [
        "▁تە",
        "ش"
      ],
      [
        "ۇل",
        "ۇ"
      ],
      [
        "▁پ",
        "ۇر"
      ],
      [
        "▁ب",
        "ال"
      ],
      [
        "قى",
        "ق"
      ],
      [
        "ەتتە",
        "،"
      ],
      [
        "▁ئو",
        "مۇ"
      ],
      [
        "▁ئۆزى",
        "نى"
      ],
      [
        "يى",
        "ش"
      ],
      [
        "▁چوق",
        "ۇم"
      ],
      [
        "ل",
        "ۇپ"
      ],
      [
        "گى",
        "نى"
      ],
      [
        "▁ئۆز",
        "گەر"
      ],
      [
        "▁ئى",
        "م"
      ],
      [
        "چى",
        "لىق"
      ],
      [
        "▁ئال",
        "ەم"
      ],
      [
        "▁چىق",
        "قان"
      ],
      [
        "▁ب",
        "ىلى"
      ],
      [
        "▁بو",
        "يى"
      ],
      [
        "▁تول",
        "ۇق"
      ],
      [
        "▁مۇناسى",
        "ۋ"
      ],
      [
        "كى",
        "سى"
      ],
      [
        "▁مۇ",
        "ك"
      ],
      [
        "▁",
        "رى"
      ],
      [
        "▁غ",
        "ەلى"
      ],
      [
        "سى",
        "ڭىز"
      ],
      [
        "▁ئا",
        "ق"
      ],
      [
        "-",
        "ت"
      ],
      [
        "▁ئاي",
        "رى"
      ],
      [
        "▁چىق",
        "ار"
      ],
      [
        "▁ئۆ",
        "ي"
      ],
      [
        "▁خ",
        "ۇ"
      ],
      [
        "لىشى",
        "پ"
      ],
      [
        "ېتى",
        "ر"
      ],
      [
        "▁ئۈمى",
        "د"
      ],
      [
        "▁بار",
        "،"
      ],
      [
        "پى",
        "نى"
      ],
      [
        "▁باشقا",
        "،"
      ],
      [
        "قى",
        "نى"
      ],
      [
        "▁خىز",
        "مەت"
      ],
      [
        "▁\"",
        "ھ"
      ],
      [
        "ەت",
        "تا"
      ],
      [
        "يا",
        "ڭ"
      ],
      [
        "غاچ",
        "قا"
      ],
      [
        "▁نىس",
        "بەت"
      ],
      [
        "▁قە",
        "دەر"
      ],
      [
        "▁مەغ",
        "لۇپ"
      ],
      [
        "لى",
        "گەن"
      ],
      [
        "ات",
        "قۇ"
      ],
      [
        "ا",
        "زى"
      ],
      [
        "▁بولسا",
        "،"
      ],
      [
        "▁1",
        "9"
      ],
      [
        "▁پ",
        "ۇت"
      ],
      [
        "سا",
        "ق"
      ],
      [
        "▁1",
        "2"
      ],
      [
        "▁يې",
        "رىم"
      ],
      [
        "▁م",
        "و"
      ],
      [
        "▁ئا",
        "ستى"
      ],
      [
        "▁ئېرىش",
        "كەن"
      ],
      [
        "▁ت",
        "اپ"
      ],
      [
        "▁چ",
        "اغ"
      ],
      [
        "▁ھ",
        "ەتتا"
      ],
      [
        "▁ئا",
        "چ"
      ],
      [
        "دى",
        "لا"
      ],
      [
        "▁ھۇج",
        "ۇم"
      ],
      [
        "▁ئالا",
        "ھى"
      ],
      [
        "▁خ",
        "ەلق"
      ],
      [
        "▁ل",
        "وڭ"
      ],
      [
        "▁نىسبەت",
        "ەن"
      ],
      [
        "▁گ",
        "ېر"
      ],
      [
        "▁كېرەك",
        "،"
      ],
      [
        "تۇر",
        "ا"
      ],
      [
        "اۋ",
        "ا"
      ],
      [
        "چ",
        "ې"
      ],
      [
        "ب",
        "ۇل"
      ],
      [
        "ەت",
        "تىكى"
      ],
      [
        "▁خ",
        "ار"
      ],
      [
        "لى",
        "غان"
      ],
      [
        "غۇ",
        "چ"
      ],
      [
        "▁تەر",
        "ە"
      ],
      [
        "▁دا",
        "ۋال"
      ],
      [
        "▁تۇ",
        "رى"
      ],
      [
        "▁گ",
        "ەر"
      ],
      [
        "▁ئاغ",
        "رى"
      ],
      [
        "▁يېمەك",
        "لىك"
      ],
      [
        "▁ئې",
        "ن"
      ],
      [
        "▁ئې",
        "نىق"
      ],
      [
        "سە",
        "،"
      ],
      [
        "خ",
        "نى"
      ],
      [
        "▁ئىچ",
        "كى"
      ],
      [
        "ىل",
        "ان"
      ],
      [
        "گ",
        "ىز"
      ],
      [
        "▁توغ",
        "را"
      ],
      [
        "▁د",
        "ەر"
      ],
      [
        "▁ق",
        "الى"
      ],
      [
        "▁كومان",
        "دى"
      ],
      [
        "▁گ",
        "ار"
      ],
      [
        "ت",
        "ەك"
      ],
      [
        "▁تەت",
        "قىق"
      ],
      [
        "▁ج",
        "اي"
      ],
      [
        "ر",
        "اپ"
      ],
      [
        ".",
        "."
      ],
      [
        "ە",
        "خ"
      ],
      [
        "▁د",
        "ول"
      ],
      [
        "▁قى",
        "م"
      ],
      [
        "▁گەر",
        "چە"
      ],
      [
        "▁ئائ",
        "ىلى"
      ],
      [
        "▁م",
        "ان"
      ],
      [
        "!",
        "\","
      ],
      [
        "▁ج",
        "ەر"
      ],
      [
        "▁شۇنداق",
        "لا"
      ],
      [
        "و",
        "رى"
      ],
      [
        "▁تو",
        "ن"
      ],
      [
        "نى",
        "شى"
      ],
      [
        "▁قى",
        "سىم"
      ],
      [
        "▁ي",
        "ۇق"
      ],
      [
        "▁خەۋ",
        "ەر"
      ],
      [
        "▁بىر",
        "اق"
      ],
      [
        "ا",
        "خ"
      ],
      [
        "▁ن",
        "ۇس"
      ],
      [
        "لى",
        "تىش"
      ],
      [
        "غۇ",
        "چى"
      ],
      [
        "ت",
        "ۇرۇپ"
      ],
      [
        "▁قو",
        "غ"
      ],
      [
        "▁ي",
        "ۆ"
      ],
      [
        "▁بول",
        "مى"
      ],
      [
        "▁دەرى",
        "ج"
      ],
      [
        "▁قو",
        "بۇل"
      ],
      [
        "▁ف",
        "ىلىم"
      ],
      [
        "▁ئۇنىڭ",
        "غا"
      ],
      [
        "▁قات",
        "ناش"
      ],
      [
        "▁ھ",
        "ەل"
      ],
      [
        "▁بەر",
        "گەن"
      ],
      [
        "لاش",
        "قان"
      ],
      [
        "از",
        "ار"
      ],
      [
        "▁ق",
        "اپ"
      ],
      [
        "لەر",
        "گە"
      ],
      [
        ")",
        "\","
      ],
      [
        "▁مە",
        "ھ"
      ],
      [
        "مى",
        "ش"
      ],
      [
        "▁قاي",
        "تقان"
      ],
      [
        "▁ئىس",
        "پ"
      ],
      [
        "▁قۇ",
        "ي"
      ],
      [
        "▁م",
        "ىن"
      ],
      [
        "▁بول",
        "مىغان"
      ],
      [
        "▁ب",
        "ىم"
      ],
      [
        "ون",
        "ا"
      ],
      [
        "▁نې",
        "مە"
      ],
      [
        "ڭىز",
        "نى"
      ],
      [
        "▁ئوت",
        "تۇرا"
      ],
      [
        "▁مۇھ",
        "ەب"
      ],
      [
        "ۇق",
        "لۇق"
      ],
      [
        "پى",
        "سى"
      ],
      [
        "▁يا",
        "رى"
      ],
      [
        "ت",
        "ۇن"
      ],
      [
        "▁كې",
        "لىپ"
      ],
      [
        "دى",
        "ي"
      ],
      [
        "▁ب",
        "ۆل"
      ],
      [
        "▁شەك",
        "ىل"
      ],
      [
        "ت",
        "ۇق"
      ],
      [
        "▁\"",
        "3"
      ],
      [
        "▁تە",
        "پ"
      ],
      [
        "▁ت",
        "ىي"
      ],
      [
        "▁\"",
        "ن"
      ],
      [
        "▁ب",
        "ەش"
      ],
      [
        "▁ب",
        "ۆ"
      ],
      [
        "▁\"ئ",
        "ى"
      ],
      [
        "▁سىر",
        "ت"
      ],
      [
        "ت",
        "ۇرۇ"
      ],
      [
        "▁نۇس",
        "خى"
      ],
      [
        "▁ئىپا",
        "دىسى"
      ],
      [
        "▁ئۇنداق",
        "تا"
      ],
      [
        "▁دا",
        "ڭ"
      ],
      [
        "ست",
        "ېر"
      ],
      [
        "▁ئى",
        "ج"
      ],
      [
        "▁قار",
        "ا"
      ],
      [
        "مى",
        "گەن"
      ],
      [
        "ك",
        "ر"
      ],
      [
        "ي",
        "ەت"
      ],
      [
        "ي",
        "ەن"
      ],
      [
        "گ",
        "و"
      ],
      [
        "▁سۆ",
        "ز"
      ],
      [
        "اتى",
        "ر"
      ],
      [
        "▁قىلىش",
        "قا"
      ],
      [
        "▁مەيدان",
        "دا"
      ],
      [
        "مى",
        "نىڭ"
      ],
      [
        "▁ئاخىرى",
        "دا"
      ],
      [
        "▁ئىكەن",
        "لىكىنى"
      ],
      [
        "▁تۇي",
        "غۇ"
      ],
      [
        "كى",
        "نىڭ"
      ],
      [
        "▁مەسى",
        "لەن"
      ],
      [
        "▁جەم",
        "ئىي"
      ],
      [
        "▁يا",
        "ز"
      ],
      [
        "▁دەرىج",
        "ىلىك"
      ],
      [
        "ۋې",
        "لىش"
      ],
      [
        "»",
        "\","
      ],
      [
        "كىن",
        "چى"
      ],
      [
        "ئ",
        "ارا"
      ],
      [
        "▁گار",
        "دىن"
      ],
      [
        "▁ئىش",
        "لىتى"
      ],
      [
        "▁پاي",
        "دى"
      ],
      [
        "▁ئۈ",
        "ز"
      ],
      [
        "ە",
        "بى"
      ],
      [
        "▁س",
        "اغ"
      ],
      [
        "▁سەۋ",
        "ەب"
      ],
      [
        "▁ھاي",
        "اتى"
      ],
      [
        "▁چېمپىيون",
        "لۇق"
      ],
      [
        "▁ي",
        "ۈرۈش"
      ],
      [
        "▁نومۇر",
        "،"
      ],
      [
        "▁مەسى",
        "لى"
      ],
      [
        "▁م",
        "اڭ"
      ],
      [
        "قان",
        "داق"
      ],
      [
        "ې",
        "ك"
      ],
      [
        "▁ئا",
        "تا"
      ],
      [
        "▁ب",
        "ازار"
      ],
      [
        "▁كۆر",
        "ۈش"
      ],
      [
        "ېر",
        "ات"
      ],
      [
        "▁دو",
        "خ"
      ],
      [
        "قى",
        "ش"
      ],
      [
        "▁ن",
        "ەر"
      ],
      [
        "ىل",
        "ە"
      ],
      [
        "▁بىم",
        "ار"
      ],
      [
        "▁ت",
        "ارى"
      ],
      [
        "▁تې",
        "لې"
      ],
      [
        "لاش",
        "تۇر"
      ],
      [
        "ق",
        "ۇر"
      ],
      [
        "سى",
        "دىكى"
      ],
      [
        "▁كۆ",
        "تۈر"
      ],
      [
        "▁س",
        "ائەت"
      ],
      [
        "تى",
        "ل"
      ],
      [
        "▁ئادەم",
        "نىڭ"
      ],
      [
        "▁ئۆت",
        "كۈز"
      ],
      [
        "▁ياردەم",
        "چى"
      ],
      [
        "▁كىشىلەر",
        "نىڭ"
      ],
      [
        "▁سۈ",
        "پى"
      ],
      [
        "▁بېرى",
        "پ"
      ],
      [
        "▁سەۋ",
        "ەبى"
      ],
      [
        "▁ك",
        "ەم"
      ],
      [
        "▁لوڭ",
        "قىسى"
      ],
      [
        "تى",
        "ق"
      ],
      [
        "▁گ",
        "ۈز"
      ],
      [
        "▁قار",
        "اپ"
      ],
      [
        "نى",
        "دا"
      ],
      [
        "چ",
        "ان"
      ],
      [
        "تر",
        "ول"
      ],
      [
        "▁1",
        "1"
      ],
      [
        "س",
        "ېل"
      ],
      [
        "▁تەر",
        "كى"
      ],
      [
        "▁20",
        "1"
      ],
      [
        "دۇ",
        "ق"
      ],
      [
        "▁بە",
        "دىنى"
      ],
      [
        "▁سې",
        "لىش"
      ],
      [
        "تا",
        "نى"
      ],
      [
        "▁لايى",
        "ھە"
      ],
      [
        "▁",
        "a"
      ],
      [
        "غاچقا",
        "،"
      ],
      [
        "▁م",
        "ەر"
      ],
      [
        "ق",
        "قەت"
      ],
      [
        "▁كون",
        "ترول"
      ],
      [
        "لار",
        "دىن"
      ],
      [
        "▁گۈز",
        "ەل"
      ],
      [
        "▁كۆ",
        "رى"
      ],
      [
        "▁سى",
        "ن"
      ],
      [
        "ۇل",
        "غان"
      ],
      [
        "گ",
        "ېن"
      ],
      [
        "لىنى",
        "شى"
      ],
      [
        "▁ئو",
        "قۇ"
      ],
      [
        "▁تو",
        "س"
      ],
      [
        "▁تى",
        "پ"
      ],
      [
        "▁ئې",
        "چى"
      ],
      [
        "ماس",
        "لىق"
      ],
      [
        "لى",
        "يە"
      ],
      [
        "»",
        "نىڭ"
      ],
      [
        "▁شەك",
        "لى"
      ],
      [
        "▁ئەھ",
        "ۋالى"
      ],
      [
        "▁مۇمكىن",
        "،"
      ],
      [
        "▁گە",
        "پ"
      ],
      [
        "▁ساغ",
        "لام"
      ],
      [
        "ار",
        "د"
      ],
      [
        "▁تو",
        "ي"
      ],
      [
        "و",
        "پ"
      ],
      [
        "يى",
        "تى"
      ],
      [
        "▁ئۇنىڭ",
        "دىن"
      ],
      [
        "ۆ",
        "ۋ"
      ],
      [
        "▁ئومۇ",
        "مىي"
      ],
      [
        "ەت",
        "تىن"
      ],
      [
        "▁مەز",
        "گىل"
      ],
      [
        "ڭ",
        "،"
      ],
      [
        "▁تە",
        "س"
      ],
      [
        "▁نىس",
        "بىتى"
      ],
      [
        "س",
        "سى"
      ],
      [
        "ق",
        "ۇن"
      ],
      [
        "▁ئېيتقان",
        "دا،"
      ],
      [
        "▁گ",
        "ۇرۇپ"
      ],
      [
        "▁ھەقى",
        "قىي"
      ],
      [
        "▁يۇق",
        "ۇم"
      ],
      [
        "▁بار",
        "لىق"
      ],
      [
        "دى",
        "مۇ"
      ],
      [
        "-ي",
        "ىل"
      ],
      [
        "رى",
        "نى"
      ],
      [
        "▁ھ",
        "الى"
      ],
      [
        "غى",
        "چە"
      ],
      [
        "▁ئاد",
        "ەتتە"
      ],
      [
        "▁قات",
        "تىق"
      ],
      [
        "ما",
        "نى"
      ],
      [
        "▁دوخ",
        "تۇر"
      ],
      [
        "▁ت",
        "ىرى"
      ],
      [
        "▁گ",
        "ې"
      ],
      [
        "▁ھېساب",
        "لىنى"
      ],
      [
        "ى",
        "ت"
      ],
      [
        "لا",
        "پ،"
      ],
      [
        "▁داۋال",
        "اش"
      ],
      [
        "▁ئۇچ",
        "ر"
      ],
      [
        "▁توخ",
        "تا"
      ],
      [
        "م",
        "اش"
      ],
      [
        "▁ھاي",
        "ات"
      ],
      [
        "ىي",
        "ى"
      ],
      [
        "▁تو",
        "ك"
      ],
      [
        "▁تەكش",
        "ۈرۈش"
      ],
      [
        "▁ئ",
        "ول"
      ],
      [
        "▁ئا",
        "ڭ"
      ],
      [
        "▁بولى",
        "دۇ"
      ],
      [
        "▁قارى",
        "غاندا،"
      ],
      [
        "▁راي",
        "ون"
      ],
      [
        "ات",
        "ا"
      ],
      [
        "▁تە",
        "مىن"
      ],
      [
        "ش",
        "نى"
      ],
      [
        "ىر",
        "اق"
      ],
      [
        "جى",
        "ڭ"
      ],
      [
        ")",
        "،"
      ],
      [
        "▁تى",
        "پى"
      ],
      [
        "▁نام",
        "لىق"
      ],
      [
        "خ",
        "ەت"
      ],
      [
        "تا",
        "،"
      ],
      [
        "▁\"",
        "س"
      ],
      [
        "▁سۈر",
        "ەت"
      ],
      [
        "▁قو",
        "ز"
      ],
      [
        "شى",
        "پ،"
      ],
      [
        "▁ئىن",
        "سان"
      ],
      [
        "▁چ",
        "ول"
      ],
      [
        "▁بويى",
        "چە"
      ],
      [
        "▁بول",
        "سۇن"
      ],
      [
        "▁ك",
        "و"
      ],
      [
        "▁ئە",
        "پ"
      ],
      [
        "▁بىل",
        "دۈر"
      ],
      [
        "▁كۆر",
        "ۈپ"
      ],
      [
        "▁سۈپى",
        "تى"
      ],
      [
        "گۈ",
        "چ"
      ],
      [
        "▁داڭ",
        "لىق"
      ],
      [
        "خ",
        "ان"
      ],
      [
        "▁ر",
        "ۇ"
      ],
      [
        "دى",
        "ز"
      ],
      [
        "▁دو",
        "ست"
      ],
      [
        "▁تې",
        "پى"
      ],
      [
        "▁ئال",
        "تۇن"
      ],
      [
        "لەن",
        "دۈر"
      ],
      [
        "▁مۇمكىن",
        "."
      ],
      [
        "▁شىر",
        "كىتى"
      ],
      [
        "د",
        "ې"
      ],
      [
        "ۈ",
        "شىنى"
      ],
      [
        "▁ئى",
        "ت"
      ],
      [
        "▁خار",
        "اكت"
      ],
      [
        "ئ",
        "ەت"
      ],
      [
        "▁كۆر",
        "ۈل"
      ],
      [
        "چ",
        "اق"
      ],
      [
        "▁ئەمەلىي",
        "ەتتە"
      ],
      [
        "▁قال",
        "ماي"
      ],
      [
        "ئ",
        "ە"
      ],
      [
        "▁جەر",
        "يا"
      ],
      [
        "▁توخ",
        "تى"
      ],
      [
        "▁مۇك",
        "اپ"
      ],
      [
        "2",
        "0"
      ],
      [
        "قى",
        "م"
      ],
      [
        "▁ك",
        "ال"
      ],
      [
        "▁تە",
        "رى"
      ],
      [
        "▁ئىچى",
        "گە"
      ],
      [
        "▁مۇ",
        "س"
      ],
      [
        "▁نەتىجى",
        "دە"
      ],
      [
        "▁دى",
        "ققەت"
      ],
      [
        "لىقى",
        "غا"
      ],
      [
        "دىكەن",
        ".\","
      ],
      [
        "▁كۆڭ",
        "ۈل"
      ],
      [
        "▁ك",
        "ىل"
      ],
      [
        "▁بۇ",
        "يان"
      ],
      [
        "▁مۇمكىن",
        ".\","
      ],
      [
        "ك",
        "ىل"
      ],
      [
        "ور",
        "مال"
      ],
      [
        "▁خ",
        "ۇش"
      ],
      [
        "غ",
        "ىن"
      ],
      [
        "▁ئال",
        "ماش"
      ],
      [
        "▁ئى",
        "گىلى"
      ],
      [
        "▁ئى",
        "ستې"
      ],
      [
        "ا",
        "ج"
      ],
      [
        "ر",
        "ە"
      ],
      [
        "▁جىن",
        "سىي"
      ],
      [
        "ۈگ",
        "ۈن"
      ],
      [
        "▁يۈر",
        "ەك"
      ],
      [
        "▁يان",
        "فون"
      ],
      [
        "▁",
        "i"
      ],
      [
        "▁سىز",
        "نىڭ"
      ],
      [
        "▁د",
        "ۆ"
      ],
      [
        "▁ب",
        "اس"
      ],
      [
        "پ",
        "ېرات"
      ],
      [
        "▁قاتارلىق",
        "لار"
      ],
      [
        "رىسى",
        "دا"
      ],
      [
        "درى",
        "د"
      ],
      [
        "ا",
        "كى"
      ],
      [
        "▁ئەر",
        "لەر"
      ],
      [
        "ۋ",
        "اتى"
      ],
      [
        "▁بەلكى",
        "م"
      ],
      [
        "▁بوش",
        "لۇقى"
      ],
      [
        "▁ئەت",
        "ر"
      ],
      [
        "▁چوڭ",
        "قۇر"
      ],
      [
        "▁بېسى",
        "پ"
      ],
      [
        "ز",
        "ان"
      ],
      [
        "▁ئە",
        "ۋ"
      ],
      [
        "ق",
        "قىي"
      ],
      [
        "▁\"",
        "-"
      ],
      [
        "▁1",
        "5"
      ],
      [
        "ن",
        "ج"
      ],
      [
        "▁نام",
        "اي"
      ],
      [
        "خ",
        "ۇ"
      ],
      [
        "لى",
        "دىغان"
      ],
      [
        "س",
        "ۇل"
      ],
      [
        "▁\"2",
        "."
      ],
      [
        "▁ھازىر",
        "قى"
      ],
      [
        "▁ئې",
        "لىپ،"
      ],
      [
        "ر",
        "ېن"
      ],
      [
        "▁ھەقى",
        "قەت"
      ],
      [
        "▁تەرە",
        "ققىي"
      ],
      [
        "▁مۇھەب",
        "بەت"
      ],
      [
        "▁ما",
        "درىد"
      ],
      [
        "▁ساھ",
        "ە"
      ],
      [
        "▁توپ",
        "چى"
      ],
      [
        "▁ت",
        "ىر"
      ],
      [
        "▁ئۇ",
        "ي"
      ],
      [
        "▁كىرى",
        "مى"
      ],
      [
        "▁ئار",
        "تىس"
      ],
      [
        "▁قىس",
        "مى"
      ],
      [
        "مىن",
        "ەن"
      ],
      [
        "خ",
        "مىنەن"
      ],
      [
        "دى",
        ":"
      ],
      [
        "گ",
        "ان"
      ],
      [
        "▁ھاي",
        "ۋان"
      ],
      [
        "▁\"1",
        "."
      ],
      [
        "تى",
        "م"
      ],
      [
        "▁دې",
        "ڭىز"
      ],
      [
        "▁ئۆزى",
        "گە"
      ],
      [
        "▁مىن",
        "ۇت"
      ],
      [
        "زى",
        "نى"
      ],
      [
        "▁ئې",
        "لې"
      ],
      [
        "سى",
        "غا"
      ],
      [
        "▁غەلى",
        "بە"
      ],
      [
        "و",
        "ك"
      ],
      [
        "مىز",
        "،"
      ],
      [
        "▁ۋ",
        "اس"
      ],
      [
        "▁چىقى",
        "پ"
      ],
      [
        "▁ئىستې",
        "مال"
      ],
      [
        "▁ئا",
        "دى"
      ],
      [
        "ون",
        "ال"
      ],
      [
        "▁ئاش",
        "ك"
      ],
      [
        "▁ئالاھى",
        "دە"
      ],
      [
        "▁ئە",
        "گى"
      ],
      [
        "▁كوماندىسى",
        "نىڭ"
      ],
      [
        "مۇ",
        "ن"
      ],
      [
        "▁ئىك",
        "كىنچى"
      ],
      [
        "اپى",
        "ق"
      ],
      [
        "ز",
        "ۇ"
      ],
      [
        "ەل",
        "مەي"
      ],
      [
        "▁يو",
        "لى"
      ],
      [
        "▁چۈش",
        "ەن"
      ],
      [
        "▁قىلى",
        "دۇ،"
      ],
      [
        "▁ھەقىقەت",
        "ەن"
      ],
      [
        "چې",
        "ستېر"
      ],
      [
        "▁ت",
        "ۇرۇ"
      ],
      [
        "▁ئاسان",
        "لا"
      ],
      [
        "▁بې",
        "لەت"
      ],
      [
        "▁ي",
        "ىلى"
      ],
      [
        "ي",
        "ار"
      ],
      [
        "لان",
        "غان"
      ],
      [
        "قۇ",
        "چى"
      ],
      [
        "▁س",
        "ەھ"
      ],
      [
        "▁داۋام",
        "لىق"
      ],
      [
        "▁تې",
        "خنى"
      ],
      [
        "▁كەي",
        "پىي"
      ],
      [
        "ۈ",
        "مى"
      ],
      [
        "▁ئەتر",
        "اپى"
      ],
      [
        "لان",
        "د"
      ],
      [
        "ب",
        "ۇ"
      ],
      [
        "اي",
        "لى"
      ],
      [
        "ر",
        "اھ"
      ],
      [
        "▁ش",
        "ياۋ"
      ],
      [
        "ماق",
        "چى"
      ],
      [
        "▁\"",
        "جى"
      ],
      [
        "▁ئې",
        "شىپ"
      ],
      [
        "▁ئو",
        "خشى"
      ],
      [
        "▁\"ي",
        "ې"
      ],
      [
        "گەن",
        "دىن"
      ],
      [
        "گەن",
        ".\","
      ],
      [
        "▁قىل",
        "غۇچ"
      ],
      [
        "▁\"",
        "م"
      ],
      [
        "ج",
        "ە"
      ],
      [
        "▁م",
        "ەك"
      ],
      [
        "▁مەس",
        "تانى"
      ],
      [
        "ى",
        "س"
      ],
      [
        "▁قوي",
        "ۇپ"
      ],
      [
        "▁تەتقىق",
        "ات"
      ],
      [
        "ۇل",
        "ۇش"
      ],
      [
        "▁پۇت",
        "بول"
      ],
      [
        "▁ۋ",
        "ىر"
      ],
      [
        "▁\"",
        "4"
      ],
      [
        "سى",
        "رى"
      ],
      [
        "لىرى",
        "غا"
      ],
      [
        "▁زى",
        "يا"
      ],
      [
        "ور",
        "ت"
      ],
      [
        "▁ئې",
        "تى"
      ],
      [
        "▁ھۆ",
        "كۈ"
      ],
      [
        "▁ق",
        "ۇت"
      ],
      [
        "پ",
        "ان"
      ],
      [
        "▁ئال",
        "غان"
      ],
      [
        "▁قىلغان",
        "،"
      ],
      [
        "▁باي",
        "قى"
      ],
      [
        "ش",
        "ۇنداق"
      ],
      [
        "-",
        "ك"
      ],
      [
        "▁مې",
        "نىڭ"
      ],
      [
        "و",
        "گ"
      ],
      [
        "▁\"3",
        "."
      ],
      [
        "▁ئەي",
        "نى"
      ],
      [
        "▁دۆ",
        "لىتى"
      ],
      [
        "▁بى",
        "خەت"
      ],
      [
        "د",
        "وڭ"
      ],
      [
        "▁ئۈچۈن",
        "،"
      ],
      [
        "▁ش",
        "ەخ"
      ],
      [
        "▁ئا",
        "پ"
      ],
      [
        "▁ئەي",
        "دىز"
      ],
      [
        "▁قىلى",
        "دىغان"
      ],
      [
        "م",
        "ۈر"
      ],
      [
        "▁تام",
        "اق"
      ],
      [
        "زى",
        "ي"
      ],
      [
        "دىكەن",
        "،"
      ],
      [
        "▁باش",
        "لى"
      ],
      [
        "ش",
        "،"
      ],
      [
        "▁ئايال",
        "لار"
      ],
      [
        "▁ئې",
        "ك"
      ],
      [
        "▁بىز",
        "نىڭ"
      ],
      [
        "لى",
        "دۇ،"
      ],
      [
        "▁ئالدى",
        "نى"
      ],
      [
        "▁خەلق",
        "ئارا"
      ],
      [
        "▁مۇۋ",
        "اپىق"
      ],
      [
        "▁ئو",
        "ب"
      ],
      [
        "▁كەل",
        "گۈ"
      ],
      [
        "▁ئو",
        "ڭ"
      ],
      [
        "▁ۋ",
        "ى"
      ],
      [
        "▁ت",
        "ۈز"
      ],
      [
        "تى",
        "دىن"
      ],
      [
        "▁گ",
        "ۇ"
      ],
      [
        "▁ج",
        "ۇڭ"
      ],
      [
        "ام",
        "ان"
      ],
      [
        "▁كۆرۈ",
        "ڭ"
      ],
      [
        "▁مىلي",
        "ارد"
      ],
      [
        "▁بى",
        "ۋ"
      ],
      [
        "▁ت",
        "ۇرۇش"
      ],
      [
        "ست",
        "ان"
      ],
      [
        "▁گ",
        "ىرى"
      ],
      [
        "▁بۇنىڭ",
        "دىن"
      ],
      [
        "▁ئۆ",
        "ر"
      ],
      [
        "▁بولغان",
        "دا"
      ],
      [
        "▁س",
        "انى"
      ],
      [
        "▁كە",
        "ڭ"
      ],
      [
        "كى",
        "لى"
      ],
      [
        "▁تەركى",
        "بى"
      ],
      [
        "▁بىرى",
        "نچى"
      ],
      [
        "د",
        "د"
      ],
      [
        "ې",
        "لى"
      ],
      [
        "▁س",
        "ەك"
      ],
      [
        "تى",
        "پ،"
      ],
      [
        "▁مۇسابىقى",
        "گە"
      ],
      [
        "▁قال",
        "تىس"
      ],
      [
        "ك",
        "سى"
      ],
      [
        "▁ئار",
        "تۇق"
      ],
      [
        "ر",
        "ۇ"
      ],
      [
        "▁مەي",
        "دا"
      ],
      [
        "▁ت",
        "ەل"
      ],
      [
        "نج",
        "اڭ"
      ],
      [
        "تى",
        "نىڭ"
      ],
      [
        "▁شەھ",
        "ىرى"
      ],
      [
        "س",
        "ېرى"
      ],
      [
        "نى",
        "ش"
      ],
      [
        "▁چاغ",
        "دا"
      ],
      [
        "▁ك",
        "اپ"
      ],
      [
        "گەن",
        "."
      ],
      [
        "▁قول",
        "غا"
      ],
      [
        "▁تام",
        "ا"
      ],
      [
        "▁2",
        "00"
      ],
      [
        "▁ر",
        "ەت"
      ],
      [
        "▁م",
        "ۇر"
      ],
      [
        "▁ت",
        "ەي"
      ],
      [
        "▁ر",
        "ونال"
      ],
      [
        "▁دە",
        "ل"
      ],
      [
        "▁خۇش",
        "ال"
      ],
      [
        "▁مەز",
        "گىلى"
      ],
      [
        "▁ن",
        "ورمال"
      ],
      [
        "لى",
        "م"
      ],
      [
        "▁ئە",
        "ز"
      ],
      [
        "▁تەرى",
        "پى"
      ],
      [
        "▁چ",
        "اق"
      ],
      [
        "▁",
        "0"
      ],
      [
        "▁تار",
        "قى"
      ],
      [
        "▁ئاپتوموبىل",
        "نىڭ"
      ],
      [
        "▁قىي",
        "ىن"
      ],
      [
        "-",
        "مىن"
      ],
      [
        "▁پ",
        "و"
      ],
      [
        "▁يال",
        "لۇ"
      ],
      [
        "▁قىز",
        "ىل"
      ],
      [
        "لىشى",
        "چە،"
      ],
      [
        "▁ئۇس",
        "ۇلى"
      ],
      [
        "غ",
        "ۇر"
      ],
      [
        "▁ئىش",
        "لىتىش"
      ],
      [
        "▁قېتىم",
        "لىق"
      ],
      [
        "▁تە",
        "بى"
      ],
      [
        "▁پە",
        "سىل"
      ],
      [
        "الى",
        "ي"
      ],
      [
        "▁ت",
        "ۈ"
      ],
      [
        "▁ئېھتى",
        "يا"
      ],
      [
        "▁خاراكت",
        "ېر"
      ],
      [
        "▁دە",
        "س"
      ],
      [
        "س",
        "ال"
      ],
      [
        "ت",
        "ال"
      ],
      [
        "▁ئار",
        "قا"
      ],
      [
        "ب",
        "وب"
      ],
      [
        "▁مە",
        "ۋ"
      ],
      [
        "▁چول",
        "پان"
      ],
      [
        "▁ب",
        "ازى"
      ],
      [
        "▁",
        "نىڭ"
      ],
      [
        "▁\"جى",
        "بوب"
      ],
      [
        "▁مۇسابىقى",
        "سى"
      ],
      [
        "▁",
        "لا"
      ],
      [
        "▁ھ",
        "اۋا"
      ],
      [
        "ارى",
        "ژ"
      ],
      [
        "▁س",
        "ەل"
      ],
      [
        "▁ئە",
        "ل"
      ],
      [
        "▁مې",
        "ھ"
      ],
      [
        "امى",
        "لى"
      ],
      [
        "تى",
        "دا"
      ],
      [
        "▁م",
        "وت"
      ],
      [
        "▁ساق",
        "لاش"
      ],
      [
        "▁مۇ",
        "ئ"
      ],
      [
        "▁قاي",
        "سى"
      ],
      [
        "ۇ",
        "نى"
      ],
      [
        "▁س",
        "انلىق"
      ],
      [
        "▁مۇناسىۋ",
        "ەتلىك"
      ],
      [
        "تى",
        "ر"
      ],
      [
        "▁مۇۋ",
        "ەپ"
      ],
      [
        "چىلار",
        "نىڭ"
      ],
      [
        "▁يې",
        "نى"
      ],
      [
        "▁ج",
        "اۋ"
      ],
      [
        "▁\"جىبوب",
        "ا"
      ],
      [
        "ا",
        "د"
      ],
      [
        "▁ي",
        "ىراق"
      ],
      [
        "▁ئۇ",
        "دا"
      ],
      [
        "▁مەسىلەن",
        "،"
      ],
      [
        "ق",
        "اي"
      ],
      [
        "▁شۇ",
        "كى،"
      ],
      [
        "▁بول",
        "غاچقا،"
      ],
      [
        "▁ئاساس",
        "لىق"
      ],
      [
        "▁ش",
        "ۇن"
      ],
      [
        "سى",
        "پ"
      ],
      [
        "شى",
        "ق"
      ],
      [
        "قۇ",
        "ز"
      ],
      [
        "▁تەكش",
        "ۈر"
      ],
      [
        "▁ئاشك",
        "ارى"
      ],
      [
        "▁يۈ",
        "زى"
      ],
      [
        "▁قاي",
        "تا"
      ],
      [
        "▁يې",
        "ت"
      ],
      [
        "▁جەھ",
        "ەتتە"
      ],
      [
        "▁كۆپ",
        "چىلىك"
      ],
      [
        "▁راي",
        "ونى"
      ],
      [
        "دى",
        "دار"
      ],
      [
        "▁ن",
        "ۆۋ"
      ],
      [
        "مەن",
        "،"
      ],
      [
        "سى",
        "ق"
      ],
      [
        "▁ھ",
        "و"
      ],
      [
        "ت",
        "ەپ"
      ],
      [
        "ئ",
        "ال"
      ],
      [
        "▁ئېن",
        "ېر"
      ],
      [
        "▁س",
        "اي"
      ],
      [
        "▁كىي",
        "ى"
      ],
      [
        "▁قىلىش",
        "نى"
      ],
      [
        "رىسى",
        "دىكى"
      ],
      [
        "▁ئىز",
        "چىل"
      ],
      [
        "▁ت",
        "ۇرۇپ"
      ],
      [
        "اي",
        "دىغان"
      ],
      [
        "شى",
        "چە،"
      ],
      [
        "▁چ",
        "ار"
      ],
      [
        "▁زى",
        "يان"
      ],
      [
        "▁مې",
        "ڭى"
      ],
      [
        "▁ئۆزگىرى",
        "ش"
      ],
      [
        "اچ",
        "ار"
      ],
      [
        "سېل",
        "ونا"
      ],
      [
        "▁مۇۋەپ",
        "پە"
      ],
      [
        "دى",
        "لىك"
      ],
      [
        "و",
        "س"
      ],
      [
        "ۋ",
        "ېر"
      ],
      [
        "▁\"2",
        "0"
      ],
      [
        "دىكەن",
        "."
      ],
      [
        "اي",
        "دۇ،"
      ],
      [
        "▁تال",
        "لاش"
      ],
      [
        "ك",
        "ىلەر"
      ],
      [
        "لى",
        "مى"
      ],
      [
        "▁بولماي",
        "دۇ،"
      ],
      [
        "▁قىلى",
        "دۇ."
      ],
      [
        "▁ھەم",
        "راھ"
      ],
      [
        "▁ئىقتى",
        "سا"
      ],
      [
        "▁قان",
        "چە"
      ],
      [
        "▁دۆلىتى",
        "مىز"
      ],
      [
        "▁رونال",
        "دو"
      ],
      [
        "دى",
        "يە"
      ],
      [
        "▁\"",
        "شۇ"
      ],
      [
        "▁كومان",
        "دا"
      ],
      [
        "▁ت",
        "ىل"
      ],
      [
        "گى",
        "چە"
      ],
      [
        "▁ئا",
        "ك"
      ],
      [
        "▁بە",
        "ز"
      ],
      [
        "▁ئې",
        "گىز"
      ],
      [
        "▁كەس",
        "پىي"
      ],
      [
        "▁ۋە",
        "زى"
      ],
      [
        "▁ن",
        "ەپ"
      ],
      [
        "ۇل",
        "تۇ"
      ],
      [
        "ب",
        "ار"
      ],
      [
        "▁يۆ",
        "ت"
      ],
      [
        "▁كۆ",
        "ك"
      ],
      [
        "▁دە",
        "ۋ"
      ],
      [
        "▁بو",
        "ي"
      ],
      [
        "مەس",
        "لىك"
      ],
      [
        "▁قىلغان",
        "."
      ],
      [
        "▁1",
        "3"
      ],
      [
        "▁رەڭ",
        "لىك"
      ],
      [
        "ەۋ",
        "ۋ"
      ],
      [
        "▁ئۇ",
        "خ"
      ],
      [
        "▁ئالا",
        "مەت"
      ],
      [
        "▁ن",
        "اچار"
      ],
      [
        "▁ئى",
        "دى."
      ],
      [
        "▁خ",
        "انلىق"
      ],
      [
        "ت",
        "ون"
      ],
      [
        "▁مۇ",
        "شۇ"
      ],
      [
        "▁كۆر",
        "سەت"
      ],
      [
        "▁بې",
        "سىم"
      ],
      [
        "▁بىل",
        "لە"
      ],
      [
        "▁مەك",
        "تەپ"
      ],
      [
        "▁ئوت",
        "تۇرى"
      ],
      [
        "▁ئاتا",
        "-ئ"
      ],
      [
        "ددى",
        "ي"
      ],
      [
        "▁ۋاقتى",
        "دا"
      ],
      [
        "مانى",
        "يە"
      ],
      [
        "▁\"ت",
        "وۋ"
      ],
      [
        "▁پەر",
        "ق"
      ],
      [
        "▁باھ",
        "ا"
      ],
      [
        "ش",
        "ەن"
      ],
      [
        "▁1",
        "4"
      ],
      [
        "▁كې",
        "تىش"
      ],
      [
        "▁1",
        "6"
      ],
      [
        "ىل",
        "ا"
      ],
      [
        "▁كۆ",
        "زى"
      ],
      [
        "▁تار",
        "تى"
      ],
      [
        "ت",
        "ياۋ"
      ],
      [
        "▁چ",
        "ۈشىنى"
      ],
      [
        "▁قې",
        "لىش"
      ],
      [
        "o",
        "n"
      ],
      [
        "▁ئۇز",
        "اق"
      ],
      [
        "الى",
        "يە"
      ],
      [
        "▁قاي",
        "تىپ"
      ],
      [
        "▁م",
        "ات"
      ],
      [
        "▁تىي",
        "اتىر"
      ],
      [
        "▁قالماي",
        "،"
      ],
      [
        "▁ئى",
        "شى"
      ],
      [
        "▁س",
        "ەر"
      ],
      [
        "▁دەرىجى",
        "دە"
      ],
      [
        "▁مان",
        "چېستېر"
      ],
      [
        "د",
        "ارلىق"
      ],
      [
        "ور",
        "ا"
      ],
      [
        "▁ھېچ",
        "قانداق"
      ],
      [
        "▁س",
        "ەن"
      ],
      [
        "▁سان",
        "ت"
      ],
      [
        "▁بې",
        "ر"
      ],
      [
        "▁ئۆ",
        "گىنى"
      ],
      [
        "-يىل",
        "لىق"
      ],
      [
        "▁ئېنېر",
        "گىيە"
      ],
      [
        "▁مەۋ",
        "ج"
      ],
      [
        "دۇ",
        "؟"
      ],
      [
        "▁ئىچى",
        "دىكى"
      ],
      [
        "▁يىل",
        "لىق"
      ],
      [
        "▁\"ئ",
        "ە"
      ],
      [
        "▁ئو",
        "ز"
      ],
      [
        "▁ئاساس",
        "ەن"
      ],
      [
        "▁ئوي",
        "ن"
      ],
      [
        "▁ئاد",
        "ەتتىكى"
      ],
      [
        "▁ي",
        "ۇلتۇ"
      ],
      [
        "▁ناماي",
        "ان"
      ],
      [
        "▁ئۆت",
        "كەن"
      ],
      [
        "ې",
        "يە"
      ],
      [
        "▁چى",
        "ڭ"
      ],
      [
        "ەم",
        "لىك"
      ],
      [
        "ھە",
        "رى"
      ],
      [
        "▁\"توۋ",
        "تياۋ"
      ],
      [
        "a",
        "n"
      ],
      [
        "▁ئە",
        "زا"
      ],
      [
        "▁مەي",
        "لى"
      ],
      [
        "خ",
        "ت"
      ],
      [
        "▁ن",
        "ا"
      ],
      [
        "▁ئالا",
        "قە"
      ],
      [
        "ب",
        "لە"
      ],
      [
        "▁خاراكتېر",
        "لىك"
      ],
      [
        "▁تە",
        "خمىنەن"
      ],
      [
        "ۋ",
        "و"
      ],
      [
        "چ",
        "ىلەر"
      ],
      [
        "س",
        "ون"
      ],
      [
        "▁ش",
        "اھ"
      ],
      [
        "سى",
        "دىن"
      ],
      [
        "▁ئاپتوموب",
        "ىلى"
      ],
      [
        "▁تې",
        "م"
      ],
      [
        "لىكى",
        "گە"
      ],
      [
        "ماس",
        "لىقى"
      ],
      [
        "▁شى",
        "نجاڭ"
      ],
      [
        "▁1",
        "8"
      ],
      [
        "▁مۇ",
        "دد"
      ],
      [
        "▁ئۈ",
        "ست"
      ],
      [
        "لان",
        "غاندا،"
      ],
      [
        "لىنى",
        "پ،"
      ],
      [
        "▁ق",
        "ەل"
      ],
      [
        "▁ش",
        "ەر"
      ],
      [
        "مىز",
        "نى"
      ],
      [
        "رى",
        "نىڭ"
      ],
      [
        "▁قات",
        "نىشى"
      ],
      [
        "▁قىل",
        "دى،"
      ],
      [
        "▁تەل",
        "ەپ"
      ],
      [
        "▁\"",
        "خ"
      ],
      [
        "نىڭ",
        "دىن"
      ],
      [
        "ۈم",
        "لۈك"
      ],
      [
        "ماي",
        "دۇ،"
      ],
      [
        "▁ئى",
        "دى،"
      ],
      [
        "مۇ",
        "،"
      ],
      [
        "▁ئاسا",
        "سىي"
      ],
      [
        "▁بىرلەشمىسى",
        "نىڭ"
      ],
      [
        "اھ",
        "ەت"
      ],
      [
        "▁ئا",
        "يا"
      ],
      [
        "▁تو",
        "پى"
      ],
      [
        "▁ئىش",
        "ەن"
      ],
      [
        "د",
        "ۈرۈش"
      ],
      [
        "دۇ",
        "رى"
      ],
      [
        "▁چۈش",
        "ۈپ"
      ],
      [
        "▁ئاخىر",
        "قى"
      ],
      [
        "▁مۇۋەپپە",
        "قىي"
      ],
      [
        "ر",
        "ې"
      ],
      [
        "تى",
        "غا"
      ],
      [
        "▁ق",
        "اچ"
      ],
      [
        "▁زىيا",
        "دە"
      ],
      [
        "▁ھ",
        "ەپ"
      ],
      [
        "▁\"",
        ","
      ],
      [
        "▁گېر",
        "مان"
      ],
      [
        "▁ئال",
        "تە"
      ],
      [
        "▁ئەم",
        "ەل"
      ],
      [
        "▁قە",
        "دەم"
      ],
      [
        "اي",
        "ەت"
      ],
      [
        "▁يوق",
        "،"
      ],
      [
        "▁خ",
        "ەت"
      ],
      [
        "لاش",
        "تۇرۇش"
      ],
      [
        "ە",
        "س"
      ],
      [
        "▁بولغان",
        "،"
      ],
      [
        "▁ئاش",
        "قا"
      ],
      [
        "▁دەس",
        "لەپ"
      ],
      [
        "▁مۇناسى",
        "ۋەت"
      ],
      [
        "▁سۈر",
        "ەتكە"
      ],
      [
        "▁بىلەن",
        "،"
      ],
      [
        "م",
        "نى"
      ],
      [
        "▁ۋاقىتتا",
        "،"
      ],
      [
        "ايى",
        "نى"
      ],
      [
        "▁ئۇس",
        "ۇل"
      ],
      [
        "▁پ",
        "ارىژ"
      ],
      [
        "▁ھەم",
        "مە"
      ],
      [
        "▁تى",
        "زىم"
      ],
      [
        "ىن",
        "دى"
      ],
      [
        "▁مۇ",
        "شۇنداق"
      ],
      [
        "▁كەچ",
        "ۈر"
      ],
      [
        "س",
        "ەك"
      ],
      [
        "▁\"",
        "ج"
      ],
      [
        "▁گە",
        "ۋ"
      ],
      [
        "▁ھ",
        "اسى"
      ],
      [
        "▁مەۋج",
        "ۇت"
      ],
      [
        "▁ئاس",
        "تا"
      ],
      [
        "▁ب",
        "اغ"
      ],
      [
        "▁مەر",
        "كى"
      ],
      [
        "كى",
        "لىق"
      ],
      [
        "▁مە",
        "خ"
      ],
      [
        "شى",
        "نىڭ"
      ],
      [
        "»",
        "نى"
      ],
      [
        "▁گ",
        "ىر"
      ],
      [
        "▁بار",
        "."
      ],
      [
        "سۇل",
        "ات"
      ],
      [
        "▁كىي",
        "ىم"
      ],
      [
        "▁بار",
        "غان"
      ],
      [
        "▁ھ",
        "ا"
      ],
      [
        "▁كۈ",
        "ت"
      ],
      [
        "▁3",
        "0"
      ],
      [
        "م",
        "ۇر"
      ],
      [
        "▁بول",
        "دى،"
      ],
      [
        "▁ئى",
        "ب"
      ],
      [
        "▁كىشى",
        "لىك"
      ],
      [
        "▁يې",
        "ڭ"
      ],
      [
        "▁ئاساس",
        "لانغاندا،"
      ],
      [
        "▁ئوي",
        "نى"
      ],
      [
        "▁تاش",
        "قىرى"
      ],
      [
        "▁بولۇپ",
        "مۇ"
      ],
      [
        "▁تەش",
        "كىل"
      ],
      [
        "ھەرى",
        "كەت"
      ],
      [
        "پت",
        "ار"
      ],
      [
        "اس",
        "ت"
      ],
      [
        "ائ",
        "ىن"
      ],
      [
        "ان",
        "ە"
      ],
      [
        "▁تۇ",
        "غۇل"
      ],
      [
        "▁بولغان",
        ".\","
      ],
      [
        "▁مەھ",
        "سۇلات"
      ],
      [
        "ې",
        "نى"
      ],
      [
        "لەش",
        "تۈر"
      ],
      [
        "ور",
        "ۇن"
      ],
      [
        "▁بار",
        "سېلونا"
      ],
      [
        "ۋ",
        "ېن"
      ],
      [
        "ا",
        "نىڭ"
      ],
      [
        "▁گىرى",
        "پتار"
      ],
      [
        "▁كى",
        "م"
      ],
      [
        "▁پ",
        "ائ"
      ],
      [
        "▁\"",
        "5"
      ],
      [
        "▁بەل",
        "گىلى"
      ],
      [
        "لىك",
        "تە"
      ],
      [
        "▁جۇڭ",
        "گو"
      ],
      [
        "▁يو",
        "ش"
      ],
      [
        "زى",
        "يە"
      ],
      [
        "▁يۇلتۇ",
        "ز"
      ],
      [
        "▁\"",
        "مۇ"
      ],
      [
        "ىل",
        "اش"
      ],
      [
        "اي",
        "لىق"
      ],
      [
        "▁چىقى",
        "ش"
      ],
      [
        "رى",
        "ي"
      ],
      [
        "▁خ",
        "ال"
      ],
      [
        "▁ئان",
        "چە"
      ],
      [
        "ۈ",
        "چ"
      ],
      [
        "▁يەت",
        "كۈز"
      ],
      [
        "▁1",
        "00"
      ],
      [
        "▁قۇي",
        "اش"
      ],
      [
        "شى",
        "دىن"
      ],
      [
        "▁خ",
        "اتا"
      ],
      [
        "▁قىلغان",
        ".\","
      ],
      [
        "▁\"",
        "سى"
      ],
      [
        "▁تون",
        "ۇش"
      ],
      [
        "دى",
        "غىنى"
      ],
      [
        "▁يې",
        "يىش"
      ],
      [
        "سى",
        "لا"
      ],
      [
        "قۇ",
        "چ"
      ],
      [
        "▁ئۇ",
        "ن"
      ],
      [
        "سىي",
        "ات"
      ],
      [
        "▁ئېلې",
        "ك"
      ],
      [
        "▁يې",
        "رى"
      ],
      [
        "تى",
        "گە"
      ],
      [
        "▁\"ئ",
        "ەم"
      ],
      [
        "ي",
        "ۇم"
      ],
      [
        "▁ز",
        "ەر"
      ],
      [
        "▁ئا",
        "لىي"
      ],
      [
        "▁تەرەپ",
        "نىڭ"
      ],
      [
        "▁رۇ",
        "سىيە"
      ],
      [
        "گەن",
        "دە"
      ],
      [
        "ەي",
        "دۇ"
      ],
      [
        "▁ئىش",
        "لەت"
      ],
      [
        "▁\"ئ",
        "ال"
      ],
      [
        "لە",
        "پ،"
      ],
      [
        "▁يەت",
        "كەن"
      ],
      [
        "ي",
        "ې"
      ],
      [
        "ر",
        "ام"
      ],
      [
        "بلە",
        "غ"
      ],
      [
        "▁ئار",
        "زۇ"
      ],
      [
        "▁سىز",
        "نى"
      ],
      [
        "▁پۈتۈن",
        "لەي"
      ],
      [
        "س",
        "ۇ"
      ],
      [
        "▁سىز",
        "گە"
      ],
      [
        "مىز",
        "."
      ],
      [
        "▁ئاشقا",
        "زان"
      ],
      [
        "▁",
        "e"
      ],
      [
        "▁قار",
        "اش"
      ],
      [
        "▁ھاسى",
        "ل"
      ],
      [
        "▁ھ",
        "ار"
      ],
      [
        "ىي",
        "ۇن"
      ],
      [
        "تىن",
        "،"
      ],
      [
        "▁قىلى",
        "نى"
      ],
      [
        "كى",
        "ز"
      ],
      [
        "▁تېم",
        "پېرات"
      ],
      [
        "▁\"4",
        "."
      ],
      [
        "دۇ",
        "؟\","
      ],
      [
        "▁پ",
        "ۇ"
      ],
      [
        "▁ئەس",
        "ەر"
      ],
      [
        "▁ئىس",
        "سىق"
      ],
      [
        "▁ئاتا-ئ",
        "انى"
      ],
      [
        "▁مە",
        "بلەغ"
      ],
      [
        "ىر",
        "ان"
      ],
      [
        "لىشى",
        "نى"
      ],
      [
        "▁ك",
        "ۇلۇ"
      ],
      [
        "▁ئۇچ",
        "ۇر"
      ],
      [
        "دى",
        "ر"
      ],
      [
        "▁رو",
        "ھ"
      ],
      [
        "▁قوي",
        "ۇش"
      ],
      [
        "ئ",
        "ى"
      ],
      [
        "▁خۇ",
        "ددى"
      ],
      [
        "▁نەتى",
        "جە"
      ],
      [
        "▁مۇكاپ",
        "اتى"
      ],
      [
        "▁كۈ",
        "ل"
      ],
      [
        "▁موت",
        "ور"
      ],
      [
        "س",
        "ەن"
      ],
      [
        "▁ئال",
        "دى،"
      ],
      [
        "▁كۆرۈن",
        "ۈش"
      ],
      [
        "▁خ",
        "الى"
      ],
      [
        "▁ت",
        "ۈرى"
      ],
      [
        "▁ما",
        "ددى"
      ],
      [
        "▁باشقىلار",
        "نىڭ"
      ],
      [
        "▁بولى",
        "دىغان"
      ],
      [
        "▁ي",
        "اق"
      ],
      [
        "ى",
        "ب"
      ],
      [
        "قى",
        "غا"
      ],
      [
        "دىم",
        "،"
      ],
      [
        "▁خ",
        "ان"
      ],
      [
        "سى",
        "،"
      ],
      [
        "شى",
        "مىز"
      ],
      [
        "ەك",
        "ك"
      ],
      [
        "▁تە",
        "ۋە"
      ],
      [
        "ۋال",
        "غان"
      ],
      [
        "ب",
        "ىيە"
      ],
      [
        "▁گ",
        "ۆ"
      ],
      [
        "▁ئاد",
        "دىي"
      ],
      [
        "▁ئۈن",
        "ۈمى"
      ],
      [
        "شى",
        "گە"
      ],
      [
        "▁م",
        "ول"
      ],
      [
        "▁\"",
        "پ"
      ],
      [
        "▁ھەي",
        "دە"
      ],
      [
        "▁ئىپا",
        "دى"
      ],
      [
        "▁ئىقتى",
        "دار"
      ],
      [
        "▁ئاج",
        "ىز"
      ],
      [
        "ب",
        "ىرى"
      ],
      [
        "▁كۆرۈڭ",
        "\","
      ],
      [
        "▁ب",
        "ۇر"
      ],
      [
        "▁تەڭ",
        "ش"
      ],
      [
        "▁ئىش",
        "لەپ"
      ],
      [
        "▁ر",
        "اك"
      ],
      [
        "▁كې",
        "لىش"
      ],
      [
        "ۇ",
        "پ،"
      ],
      [
        "از",
        "ىلى"
      ],
      [
        "▁مۇ",
        "قىم"
      ],
      [
        "▁تار",
        "اتقۇ"
      ],
      [
        "▁ھېس",
        "سىيات"
      ],
      [
        "▁خ",
        "ېلى"
      ],
      [
        "▁گېر",
        "مانىيە"
      ],
      [
        "غ",
        "ۇق"
      ],
      [
        "مەك",
        "چى"
      ],
      [
        "▁",
        "o"
      ],
      [
        "▁ئ",
        "ۇر"
      ],
      [
        "مىز",
        ".\","
      ],
      [
        "▁س",
        "ەي"
      ],
      [
        "▁تارى",
        "خى"
      ],
      [
        "-ئ",
        "ى"
      ],
      [
        "▁مىق",
        "دار"
      ],
      [
        "▁كى",
        "شىنى"
      ],
      [
        "سىڭىز",
        "،"
      ],
      [
        "و",
        "مۇ"
      ],
      [
        "ر",
        "اش"
      ],
      [
        "▁ئاۋ",
        "از"
      ],
      [
        "دى",
        "كىلەر"
      ],
      [
        "▁ھە",
        "ققى"
      ],
      [
        "▁مېھ",
        "مان"
      ],
      [
        "ك",
        "ېت"
      ],
      [
        "▁رە",
        "س"
      ],
      [
        "▁پ",
        "ىلان"
      ],
      [
        "▁ك",
        "ام"
      ],
      [
        "تا",
        "ب"
      ],
      [
        "ت",
        "ەر"
      ],
      [
        "▁1",
        "7"
      ],
      [
        "ۇق",
        "سىز"
      ],
      [
        "▁شەھ",
        "ەر"
      ],
      [
        "▁ق",
        "ەر"
      ],
      [
        "▁ھەي",
        "ران"
      ],
      [
        "▁قىي",
        "اپ"
      ],
      [
        "-",
        "ن"
      ],
      [
        "ۇ",
        "ز"
      ],
      [
        "▁تە",
        "ۋ"
      ],
      [
        "مىز",
        "نىڭ"
      ],
      [
        "▁تە",
        "سىرى"
      ],
      [
        "▁سېلىش",
        "تۇر"
      ],
      [
        "▁يا",
        "پ"
      ],
      [
        "▁شۇن",
        "چە"
      ],
      [
        "ق",
        "ال"
      ],
      [
        "▁يېت",
        "ەرلىك"
      ],
      [
        "▁بۇ",
        "ل"
      ],
      [
        "كېت",
        "بول"
      ],
      [
        "▁توپ",
        "نى"
      ],
      [
        "▁ئىب",
        "ارەت"
      ],
      [
        "▁دە",
        "ي"
      ],
      [
        "▁باش",
        "لاپ"
      ],
      [
        "▁تاش",
        "قى"
      ],
      [
        "▁پ",
        "ىل"
      ],
      [
        "▁مۇسابىقى",
        "سىدە"
      ],
      [
        "▁كاپ",
        "ال"
      ],
      [
        "لا",
        "د"
      ],
      [
        "▁كې",
        "چى"
      ],
      [
        "لەن",
        "گەن،"
      ],
      [
        "ۋو",
        "د"
      ],
      [
        "▁\"يې",
        "قىن"
      ],
      [
        "ىندى",
        "ستان"
      ],
      [
        "▁جەھ",
        "ەتتىن"
      ],
      [
        "▁قىلى",
        "دۇ.\","
      ],
      [
        "ك",
        "س"
      ],
      [
        "لى",
        "دۇ."
      ],
      [
        "▁تې",
        "گى"
      ],
      [
        "مى",
        "گە"
      ],
      [
        "ھ",
        "ال"
      ],
      [
        "سى",
        "يا"
      ],
      [
        "▁بازى",
        "رى"
      ],
      [
        "خ",
        "ۇم"
      ],
      [
        "▁ئاز",
        "راق"
      ],
      [
        "▁ساھ",
        "ىب"
      ],
      [
        "▁سەك",
        "كىز"
      ],
      [
        "▁قىل",
        "الاي"
      ],
      [
        "▁ۋاس",
        "كېتبول"
      ],
      [
        "ر",
        "ات"
      ],
      [
        "▁ئىش",
        "قا"
      ],
      [
        "لىقى",
        "نىڭ"
      ],
      [
        "مەي",
        "دۇ،"
      ],
      [
        "اي",
        "دۇ."
      ],
      [
        "▁ئو",
        "ن"
      ],
      [
        "▁مەيدان",
        "غا"
      ],
      [
        "▁سۈرئ",
        "ىتى"
      ],
      [
        "لىق",
        "قا"
      ],
      [
        "▁چۈش",
        "ۈر"
      ],
      [
        "▁ئا",
        "نى"
      ],
      [
        "▁توختا",
        "م"
      ],
      [
        "-",
        "پ"
      ],
      [
        "▁تو",
        "ق"
      ],
      [
        "▁\"ن",
        "ۇر"
      ],
      [
        "▁ب",
        "ۈگۈن"
      ],
      [
        "▁بېسىپ",
        "لا"
      ],
      [
        "▁د",
        "ورا"
      ],
      [
        "سىز",
        "،"
      ],
      [
        "e",
        "r"
      ],
      [
        "ج",
        "ەي"
      ],
      [
        "▁قول",
        "لىنى"
      ],
      [
        "▁ماھ",
        "ىر"
      ],
      [
        "▁قۇ",
        "ۋ"
      ],
      [
        "ۇل",
        "ۇپ"
      ],
      [
        "▁ئوت",
        "تۇ"
      ],
      [
        "▁ئو",
        "غ"
      ],
      [
        "ھ",
        "ام"
      ],
      [
        "مۇ",
        "نى"
      ],
      [
        "▁\"ب",
        "ەيدۇ"
      ],
      [
        "غۇ",
        "ز"
      ],
      [
        "و",
        "لى"
      ],
      [
        "▁ئۆزى",
        "ڭىز"
      ],
      [
        "لىقى",
        "دىن"
      ],
      [
        "▁سو",
        "غۇق"
      ],
      [
        "ەل",
        "لىك"
      ],
      [
        "▁م",
        "ائ"
      ],
      [
        "▁سو",
        "دا"
      ],
      [
        "▁تەبى",
        "ئىي"
      ],
      [
        "▁ئوز",
        "ۇقلۇق"
      ],
      [
        "لى",
        "ۋود"
      ],
      [
        "▁مەلۇم",
        "ات"
      ],
      [
        "ماي",
        "دىغان"
      ],
      [
        "ت",
        "اق"
      ],
      [
        "ونى",
        "يە"
      ],
      [
        "▁2",
        "5"
      ],
      [
        "▁",
        "-"
      ],
      [
        "▁ياللۇ",
        "غى"
      ],
      [
        "▁قىم",
        "مىتى"
      ],
      [
        "▁دې",
        "دى:"
      ],
      [
        "▁ج",
        "ەڭ"
      ],
      [
        "مى",
        "دى،"
      ],
      [
        "▁مۇ",
        "دا"
      ],
      [
        "▁سىرت",
        "قى"
      ],
      [
        "▁جى",
        "ددىي"
      ],
      [
        "خ",
        "ېن"
      ],
      [
        "▁سى",
        "زى"
      ],
      [
        "▁ئەگى",
        "شىپ،"
      ],
      [
        "▁پ",
        "ەن"
      ],
      [
        "▁بارغان",
        "سېرى"
      ],
      [
        "▁ي",
        "ەك"
      ],
      [
        "▁رو",
        "لىنى"
      ],
      [
        "انى",
        "يە"
      ],
      [
        "لا",
        "ق"
      ],
      [
        "▁تۇ",
        "غ"
      ],
      [
        "▁ماڭ",
        "ا"
      ],
      [
        "▁ئۇ",
        "ت"
      ],
      [
        "▁س",
        "اپ"
      ],
      [
        "▁مىل",
        "ان"
      ],
      [
        "لىشى",
        "پ،"
      ],
      [
        "كى",
        "م"
      ],
      [
        "▁دو",
        "رى"
      ],
      [
        "▁پ",
        "ال"
      ],
      [
        "▁مۇناسىۋ",
        "ىتى"
      ],
      [
        "▁ۋە",
        "قە"
      ],
      [
        "▁توغ",
        "رىسىدا"
      ],
      [
        "ش",
        "كە"
      ],
      [
        "▁ب",
        "ات"
      ],
      [
        "▁بولغان",
        "دىن"
      ],
      [
        "▁ھ",
        "ۈ"
      ],
      [
        "▁مەسى",
        "لە"
      ],
      [
        "▁ئىت",
        "تىپ"
      ],
      [
        "اتى",
        "رى"
      ],
      [
        "▁پ",
        "ىر"
      ],
      [
        "اپ",
        "ت"
      ],
      [
        "▁تۇي",
        "ۇقسىز"
      ],
      [
        "ش",
        "قا"
      ],
      [
        "سى",
        "دا"
      ],
      [
        "غۇ",
        "چىلار"
      ],
      [
        "▁ئۆ",
        "يى"
      ],
      [
        "▁قىل",
        "دى."
      ],
      [
        "▁كەي",
        "نى"
      ],
      [
        "▁مۇ",
        "لا"
      ],
      [
        "▁سۇ",
        "ي"
      ],
      [
        "▁ج",
        "اڭ"
      ],
      [
        "د",
        "ۇرۇش"
      ],
      [
        "▁ئېك",
        "ران"
      ],
      [
        "▁بال",
        "ا"
      ],
      [
        "ك",
        "ان"
      ],
      [
        "▁ت",
        "اق"
      ],
      [
        "لەر",
        "دە"
      ],
      [
        "▁كې",
        "لىشى"
      ],
      [
        "▁كوماندى",
        "نىڭ"
      ],
      [
        "و",
        "ي"
      ],
      [
        "لىرى",
        "دىن"
      ],
      [
        "ل",
        "غان"
      ],
      [
        "▁ج",
        "ۇ"
      ],
      [
        "از",
        "ا"
      ],
      [
        "بى",
        "نى"
      ],
      [
        "▁ئۈست",
        "ۈن"
      ],
      [
        "ب",
        "ىن"
      ],
      [
        "كى",
        "دىن"
      ],
      [
        "ل",
        "گەن"
      ],
      [
        "▁ئائىلى",
        "سى"
      ],
      [
        "▁ئام",
        "ال"
      ],
      [
        "چ",
        "يۇ"
      ],
      [
        "ۈن",
        "دىدار"
      ],
      [
        "ۋ",
        "ات"
      ],
      [
        "▁\"ب",
        "ىر"
      ],
      [
        "▁\"",
        "مەن"
      ],
      [
        "▁بۇ",
        "نى"
      ],
      [
        "ۇ",
        "ك"
      ],
      [
        "ل",
        "ات"
      ],
      [
        "▁ج",
        "ەن"
      ],
      [
        "▁قىلغان",
        "دا"
      ],
      [
        "▁كۆ",
        "ل"
      ],
      [
        "▁ساق",
        "لاپ"
      ],
      [
        "س",
        "ۇس"
      ],
      [
        "▁كۆڭ",
        "لى"
      ],
      [
        "لىرى",
        "دا"
      ],
      [
        "-ئاي",
        "دا"
      ],
      [
        "▁نى",
        "ش"
      ],
      [
        "▁ئە",
        "ق"
      ],
      [
        "▁ئىشلەپ",
        "چى"
      ],
      [
        "▁ز",
        "ەھ"
      ],
      [
        "▁رەس",
        "مىي"
      ],
      [
        "▁قىزى",
        "ق"
      ],
      [
        "ۆ",
        "ر"
      ],
      [
        ".",
        "5"
      ],
      [
        "▁بېرى",
        "پ،"
      ],
      [
        "▁جەھ",
        "ەتتە،"
      ],
      [
        "▁قىلىن",
        "غان"
      ],
      [
        "▁ئائ",
        "ىلە"
      ],
      [
        "▁شى",
        "م"
      ],
      [
        "▁ئىن",
        "ك"
      ],
      [
        "▁\"ئە",
        "گەر"
      ],
      [
        "▁ئەمەس",
        "."
      ],
      [
        "▁تەپ",
        "كەن"
      ],
      [
        "▁قو",
        "يى"
      ],
      [
        "ېي",
        "جىڭ"
      ],
      [
        "▁م",
        "ىيۇن"
      ],
      [
        "▁يەر",
        "دە"
      ],
      [
        "مى",
        "غا"
      ],
      [
        "سى",
        "مان"
      ],
      [
        "▁بولغان",
        "."
      ],
      [
        "ۈش",
        "كە"
      ],
      [
        "پى",
        "ئە"
      ],
      [
        "ىران",
        "سىيە"
      ],
      [
        "▁بىر",
        "لىكتە"
      ],
      [
        "▁«",
        "ب"
      ],
      [
        "لاش",
        "تۇرۇ"
      ],
      [
        "▁شەخ",
        "سىي"
      ],
      [
        "▁يوش",
        "ۇرۇن"
      ],
      [
        "▁\"ئ",
        "ۈندىدار"
      ],
      [
        "▁شىر",
        "كەت"
      ],
      [
        "▁ئې",
        "غى"
      ],
      [
        "▁مې",
        "سسى"
      ],
      [
        "▁چى",
        "ش"
      ],
      [
        "▁سال",
        "ونى"
      ],
      [
        "▁تور",
        "داش"
      ],
      [
        "▁مەس",
        "ئ"
      ],
      [
        "لىق",
        "،"
      ],
      [
        "▁قاتناش",
        "قان"
      ],
      [
        "▁ئور",
        "گان"
      ],
      [
        "▁بىر",
        "-ب"
      ],
      [
        "▁مىيۇن",
        "خېن"
      ],
      [
        "▁ق",
        "ېرى"
      ],
      [
        "▁ھۈ",
        "جەي"
      ],
      [
        "▁بې",
        "ي"
      ],
      [
        "▁خەۋىرى",
        "گە"
      ],
      [
        "د",
        "رو"
      ],
      [
        "▁ئې",
        "لى"
      ],
      [
        "تا",
        "لىيە"
      ],
      [
        "لىق",
        "نى"
      ],
      [
        "-",
        "خ"
      ],
      [
        "▁\"سى",
        "نا"
      ],
      [
        "▁قارى",
        "غاندا"
      ],
      [
        "م",
        "ار"
      ],
      [
        "▁قان",
        "ۇن"
      ],
      [
        "▁تۇ",
        "خۇم"
      ],
      [
        "▁سەۋەبى",
        "دىن"
      ],
      [
        "▁گې",
        "زى"
      ],
      [
        "ج",
        "رى"
      ],
      [
        "كر",
        "ائىن"
      ],
      [
        "اسى",
        "تە"
      ],
      [
        "لاي",
        "دۇ،"
      ],
      [
        "▁كوماندىسى",
        "نى"
      ],
      [
        "ۋ",
        "ىتى"
      ],
      [
        "چى",
        "نچى"
      ],
      [
        "▁ياش",
        "لىق"
      ],
      [
        "ئ",
        "و"
      ],
      [
        "س",
        "ور"
      ],
      [
        "ئ",
        "ار"
      ],
      [
        "▁ئەسلى",
        "گە"
      ],
      [
        "▁يا",
        "ڭ"
      ],
      [
        "3",
        "-يىلى"
      ],
      [
        "▁ئىقتىدارى",
        "نى"
      ],
      [
        "▁دې",
        "يىش"
      ],
      [
        "▁جەريا",
        "نىدا"
      ],
      [
        "▁ي",
        "ەتتە"
      ],
      [
        "▁ساق",
        "لىنىش"
      ],
      [
        "▁ئىكەن",
        ".\","
      ],
      [
        "▁كېلى",
        "دىغان"
      ],
      [
        "▁مې",
        "نى"
      ],
      [
        "▁تۆۋەن",
        "دىكى"
      ],
      [
        "ۋەت",
        "كەن"
      ],
      [
        "▁\"",
        "دوڭ"
      ],
      [
        "▁كىر",
        "گەن"
      ],
      [
        "وم",
        "ېتىر"
      ],
      [
        "ەۋۋ",
        "ەر"
      ],
      [
        "▁تۇر",
        "غان"
      ],
      [
        "▁سال",
        "ام"
      ],
      [
        "▁م",
        "ۆل"
      ],
      [
        "▁ئا",
        "تى"
      ],
      [
        "تۇ",
        "س"
      ],
      [
        "▁مۇھ",
        "ىت"
      ],
      [
        "لەندۈر",
        "گۈچ"
      ],
      [
        "▁بەر",
        "دى،"
      ],
      [
        "▁ق",
        "ەھ"
      ],
      [
        "لى",
        "دۇ.\","
      ],
      [
        "▁ئالدى",
        "دا"
      ],
      [
        "▁ئاش",
        "ۇر"
      ],
      [
        "ۈل",
        "گەن"
      ],
      [
        "▁بۇرۇن",
        "قى"
      ],
      [
        "▁ئۇس",
        "لۇ"
      ],
      [
        "د",
        "ۈرى"
      ],
      [
        "▁باق",
        "ايلى"
      ],
      [
        "مۇ",
        "؟"
      ],
      [
        "▁دۇنيا",
        "دىكى"
      ],
      [
        "▁ئادەم",
        "نى"
      ],
      [
        "▁بە",
        "خت"
      ],
      [
        "▁قو",
        "لى"
      ],
      [
        "چيۇ",
        "دى"
      ],
      [
        "ز",
        "ەك"
      ],
      [
        "تى",
        "ما"
      ],
      [
        "▁ھ",
        "امىلى"
      ],
      [
        "-",
        "چ"
      ],
      [
        "▁دى",
        "ققى"
      ],
      [
        "▁\"دوڭ",
        "چيۇدى"
      ],
      [
        "ېرى",
        "يە"
      ],
      [
        "▁ئايال",
        "لارنىڭ"
      ],
      [
        "ان",
        "غان"
      ],
      [
        "▁مۇن",
        "ەۋۋەر"
      ],
      [
        "▁ت",
        "ىز"
      ],
      [
        "▁بۇ",
        "ز"
      ],
      [
        "▁يىل",
        "دىن"
      ],
      [
        "▁",
        "r"
      ],
      [
        "▁ئى",
        "دى.\","
      ],
      [
        "▁مۇدا",
        "پىئە"
      ],
      [
        "▁چې",
        "كى"
      ],
      [
        "▁كېلى",
        "دۇ،"
      ],
      [
        "گۈ",
        "چى"
      ],
      [
        "▁ساھىب",
        "خان"
      ],
      [
        "▁م",
        "ېتىر"
      ],
      [
        "▁كۆپ",
        "رەك"
      ],
      [
        "ماق",
        "قا"
      ],
      [
        "▁مۇلا",
        "زى"
      ],
      [
        "ۇرۇ",
        "پ،"
      ],
      [
        "▁ب",
        "ان"
      ],
      [
        "▁بولسۇن",
        "،"
      ],
      [
        "لۈك",
        "سىز"
      ],
      [
        "دا",
        "م"
      ],
      [
        "سا",
        "م"
      ],
      [
        "2",
        "-يىلى"
      ],
      [
        "▁ھەر",
        "گىز"
      ],
      [
        "▁ز",
        "ادى"
      ],
      [
        "▁يو",
        "قى"
      ],
      [
        "▁بال",
        "دۇر"
      ],
      [
        "▁سۈ",
        "ي"
      ],
      [
        "▁ت",
        "ايىنى"
      ],
      [
        "▁ئاچ",
        "چى"
      ],
      [
        "▁روھ",
        "ىي"
      ],
      [
        ":",
        "1"
      ],
      [
        "قى",
        "نىڭ"
      ],
      [
        "▁ھ",
        "ىندىستان"
      ],
      [
        "▁چىر",
        "اغ"
      ],
      [
        "▁سۈ",
        "رى"
      ],
      [
        "ام",
        "ىلە"
      ],
      [
        "▁ئوي",
        "ۇن"
      ],
      [
        "ۋى",
        "زىيە"
      ],
      [
        "▁تە",
        "جرى"
      ],
      [
        "▁\"",
        "چ"
      ],
      [
        "ېر",
        "ا"
      ],
      [
        "▁كەت",
        "تى،"
      ],
      [
        "ژ",
        "ىس"
      ],
      [
        "▁ئاي",
        "رو"
      ],
      [
        "گ",
        "ۈر"
      ],
      [
        "▁ئۈز",
        "لۈكسىز"
      ],
      [
        "پت",
        "ۇ"
      ],
      [
        "▁ش",
        "ار"
      ],
      [
        "▁پ",
        "ېر"
      ],
      [
        "▁ھې",
        "ك"
      ],
      [
        "▁ئىز",
        "دە"
      ],
      [
        "▁قوي",
        "ۇل"
      ],
      [
        "▁2",
        "1"
      ],
      [
        "▁نەر",
        "سى"
      ],
      [
        "▁تو",
        "مۇر"
      ],
      [
        "▁2",
        "4"
      ],
      [
        "▁بىۋ",
        "اسىتە"
      ],
      [
        "▁تام",
        "ام"
      ],
      [
        "▁قىل",
        "دى.\","
      ],
      [
        "▁دائ",
        "ىرى"
      ],
      [
        "▁گ",
        "ۈل"
      ],
      [
        "ت",
        "ې"
      ],
      [
        "▁پ",
        "ۇلى"
      ],
      [
        "▁ت",
        "اغ"
      ],
      [
        "▁مې",
        "ڭ"
      ],
      [
        "▁توپ",
        "چىلار"
      ],
      [
        "▁شۇڭا",
        "،"
      ],
      [
        "-ئ",
        "ورۇن"
      ],
      [
        "ل",
        "و"
      ],
      [
        "▁كىل",
        "ومېتىر"
      ],
      [
        "كى",
        "ر"
      ],
      [
        "▁تەن",
        "ھەرىكەت"
      ],
      [
        "ال",
        "ار"
      ],
      [
        "▁قۇر",
        "ۇل"
      ],
      [
        "م",
        "ېن"
      ],
      [
        "▁ئوي",
        "لى"
      ],
      [
        "▁ئام",
        "ىل"
      ],
      [
        "گ",
        "لىيە"
      ],
      [
        "▁ئۆ",
        "ست"
      ],
      [
        "▁ئالا",
        "قى"
      ],
      [
        "▁ياش",
        "قا"
      ],
      [
        "▁ما",
        "د"
      ],
      [
        "▁ئورۇن",
        "دا"
      ],
      [
        "▁تۈر",
        "لۈك"
      ],
      [
        "▁كۆپ",
        "ىيى"
      ],
      [
        "▁\"ب",
        "ېيجىڭ"
      ],
      [
        "▁باشق",
        "ۇرۇش"
      ],
      [
        "▁بولماي",
        "دۇ."
      ],
      [
        "▁دەر",
        "ھال"
      ],
      [
        "▁مۇسابىقى",
        "نىڭ"
      ],
      [
        "ب",
        "ۇر"
      ],
      [
        "▁دەسلەپ",
        "كى"
      ],
      [
        "گ",
        "ن"
      ],
      [
        "شى",
        "،"
      ],
      [
        "▁س",
        "ۈت"
      ],
      [
        "▁\"",
        "("
      ],
      [
        "ەن",
        "ت"
      ],
      [
        "▁تۇيغۇ",
        "سى"
      ],
      [
        "▁\"",
        "6"
      ],
      [
        "▁رى",
        "قا"
      ],
      [
        "▁تە",
        "ھ"
      ],
      [
        "▁يې",
        "تەك"
      ],
      [
        "▁جەن",
        "ۇ"
      ],
      [
        "▁نە",
        "ز"
      ],
      [
        "د",
        "ۈك"
      ],
      [
        "▁بىرلەش",
        "مە"
      ],
      [
        "▁\"",
        "لې"
      ],
      [
        "▁س",
        "ۈن"
      ],
      [
        "▁بې",
        "زى"
      ],
      [
        "▁قات",
        "ار"
      ],
      [
        "▁پى",
        "س"
      ],
      [
        "▁ئېغ",
        "ىز"
      ],
      [
        "▁بو",
        "ۋ"
      ],
      [
        "▁ئالماش",
        "تۇرۇش"
      ],
      [
        "ول",
        "و"
      ],
      [
        "لى",
        "نىڭ"
      ],
      [
        "▁ئاساس",
        "لىقى"
      ],
      [
        "▁بىر-ب",
        "ىرى"
      ],
      [
        "ك",
        "ەر"
      ],
      [
        "▁ئىسپ",
        "ات"
      ],
      [
        "▁ئىشلەپچى",
        "قىرى"
      ],
      [
        "▁د",
        "ېر"
      ],
      [
        "ن",
        "ەك"
      ],
      [
        "▁چ",
        "اچ"
      ],
      [
        "▁ماھ",
        "ارى"
      ],
      [
        "ۋېن",
        "تۇس"
      ],
      [
        "ەي",
        "لى"
      ],
      [
        "»",
        ".\","
      ],
      [
        "لى",
        "دى،"
      ],
      [
        "قى",
        "لى"
      ],
      [
        "▁ئۆزگەر",
        "تىش"
      ],
      [
        "▁(",
        "a"
      ],
      [
        "▁قىلىش",
        "،"
      ],
      [
        "مى",
        "دا"
      ],
      [
        "▁قىس",
        "قا"
      ],
      [
        "ل",
        "ۈ"
      ],
      [
        "▁جەريا",
        "نى"
      ],
      [
        "▁ت",
        "اي"
      ],
      [
        "▁ي",
        "ور"
      ],
      [
        "▁ئىش",
        "لارنى"
      ],
      [
        "▁ئو",
        "ق"
      ],
      [
        "ك",
        "و"
      ],
      [
        "ش",
        "اھ"
      ],
      [
        "▁جى",
        "گەر"
      ],
      [
        "▁دەرىجى",
        "دىن"
      ],
      [
        "▁5",
        "0"
      ],
      [
        "▁ي",
        "ۇم"
      ],
      [
        "ۈ",
        "ەن"
      ],
      [
        "تىما",
        "ئىي"
      ],
      [
        "▁ئىش",
        "نى"
      ],
      [
        "▁كۈچى",
        "نى"
      ],
      [
        "▁دېگەن",
        ":"
      ],
      [
        "▁بۆ",
        "رەك"
      ],
      [
        "▁بار",
        ".\","
      ],
      [
        "▁ئەۋ",
        "لاد"
      ],
      [
        "▁ئەق",
        "لىي"
      ],
      [
        "▁مەيدا",
        "نى"
      ],
      [
        "ە",
        "رى"
      ],
      [
        "▁نۇق",
        "تا"
      ],
      [
        "▁قور",
        "ساق"
      ],
      [
        "▁كە",
        "سىپ"
      ],
      [
        "1",
        "-يىلى"
      ],
      [
        "▁يېقىن",
        "دا"
      ],
      [
[...]
